!
"
#
$
%
&
'
(
)
*
+
,
-
.
/
0
1
2
3
4
5
6
7
8
9
:
;
<
=
>
?
@
[
\
]
^
_
`
a
b
c
d
e
f
g
h
i
j
k
l
m
n
o
p
q
r
s
t
u
v
w
x
y
z
{
|
}
~
¡
¢
£
¤
¥
¦
§
¨
©
ª
«
¬
®
¯
°
±
²
³
´
µ
¶
·
¸
¹
º
»
¼
½
¾
¿
Â
Ã
Ä
Å
Æ
Ç
È
É
Ê
Ë
Ì
Í
Î
Ï
Ð
Ñ
Ò
Ó
Ô
Õ
Ö
×
Ø
Ù
Ú
Û
Ü
Ý
Þ
ß
à
á
â
ã
ä
å
æ
ç
è
é
ê
ë
ì
í
î
ï
ð
ñ
ò
ó
ô
ā
Ă
ă
Ć
ć
Ĉ
Ď
ď
Đ
đ
Ē
ē
Ĕ
ĕ
Ė
ė
Ę
ę
Ě
ě
Ĝ
ĝ
Ğ
ğ
ġ
Ģ
ģ
Ĥ
ĥ
Ħ
ħ
Ĩ
ĩ
Ī
ī
Ĭ
ĭ
Į
į
İ
ı
Ĳ
ĳ
Ĵ
ĵ
Ķ
ķ
ĸ
Ĺ
ĺ
Ļ
ļ
Ľ
ľ
Ŀ
ŀ
Ł
ł
Ń
¼</w>
´</w>
Ģ</w>
Ħ</w>
y</w>
ĳ</w>
¹</w>
ł</w>
g</w>
Ĳ</w>
°</w>
Ī</w>
ĺ</w>
ľ</w>
¤</w>
¸</w>
Ķ</w>
n</w>
¨</w>
s</w>
±</w>
m</w>
ĭ</w>
Į</w>
µ</w>
¬</w>
d</w>
Ń</w>
e</w>
²</w>
¥</w>
i</w>
£</w>
Ĵ</w>
ı</w>
t</w>
Ĩ</w>
a</w>
¯</w>
Ŀ</w>
Ļ</w>
·</w>
ħ</w>
ī</w>
*</w>
Ĭ</w>
ª</w>
ķ</w>
z</w>
c</w>
ģ</w>
®</w>
½</w>
k</w>
o</w>
w</w>
r</w>
İ</w>
į</w>
l</w>
x</w>
f</w>
b</w>
«</w>
¿</w>
©</w>
)</w>
ĥ</w>
»</w>
ĵ</w>
¡</w>
Ł</w>
ŀ</w>
Ĺ</w>
$</w>
ĸ</w>
j</w>
v</w>
,</w>
§</w>
ļ</w>
º</w>
"</w>
ĩ</w>
p</w>
h</w>
¦</w>
.</w>
Ľ</w>
<</w>
u</w>
¶</w>
³</w>
]</w>
¢</w>
¾</w>
q</w>
#</w>
'</w>
+</w>
!</w>
~</w>
\</w>
Ĥ</w>
-</w>
;</w>
_</w>
%</w>
(</w>
?</w>
/</w>
=</w>
}</w>
{</w>
|</w>
^</w>
[</w>
@</w>
:</w>
></w>
&</w>
`</w>
Ĝ</w>
ā</w>
ď</w>
8</w>
Ĉ</w>
ē</w>
Ě</w>
Ć</w>
Đ</w>
ă</w>
ġ</w>
ć</w>
Ă</w>
Ę</w>
1</w>
9</w>
5</w>
7</w>
Ğ</w>
Ē</w>
ě</w>
6</w>
ĝ</w>
đ</w>
3</w>
Ď</w>
ę</w>
2</w>
Ĕ</w>
ė</w>
ğ</w>
0</w>
4</w>
Ė</w>
ĕ</w>
ìĿ
íķ
ëĭ
ìĹ
ìŀ
ê³
ìł
ê°
ëĬ
ìĦ
ì§
ëĭ¤</w>
ëĬĶ</w>
ìķ
ìĿ´
ìĭ
ê²
ìĿĦ</w>
ë¡
ê¸
ë§
ìľ
ëı
ëĤ
íķĺ
ë°
ìĤ
th
ìĿ´</w>
ìĿĺ</w>
ë¥
ëĵ
ìļ
êµ
ê³ł</w>
ìĸ
ìĹĲ</w>
ë¡ľ</w>
ë¦
ì§Ģ
ë¶
ë³
ìĿĢ</w>
ìĺ
ë¥¼</w>
ìĥ
ìĪ
ëĮ
Īëĭ¤</w>
âĢ
ìĽ
ê¸°
ìĤ¬
ê·
in
ìĬ
ë¬
íĸ
ìĹĲ
ê°Ģ</w>
ë©
ëĮĢ
íķľ</w>
ëª
ëł
íĻ
ìľ¼
ìĭľ
the</w>
ìĦľ</w>
an
íĺ
ëĿ
ê°Ģ
ì²
ìŀĲ
ìĨ
ëĭ¤
ë¦¬
ëĲ
ìłķ
ëıĦ</w>
ìķĦ
ëį
ì£
er
ìĻ
ë²
ìĸ´
ìłĦ
ëĵ¤
ìĿ¸
ìľ¼ë¡ľ</w>
ë³´
re
ì¹
ë¶Ģ
ëħ
ê±
ì°
ì¤
ì¡
ì§Ģ</w>
ìĥģ
ìĪĺ
íķľ
ê·¸
ëĿ¼
ëŀ
ë¯
ë¹
ìĬ¤
ìŀĪ
ëŁ
ì£¼
ti
en
íĥ
ar
ê´
ì¶
ìŀ¥
ëĤĺ
íķ´</w>
ìłľ
ê²Į</w>
on
íļ
ed</w>
íķ´
ìĽĲ
íĬ
ëıĦ
ing</w>
ìĹĲìĦľ</w>
ou
íĮ
ê³µ
or
íĸĪëĭ¤</w>
ìĦľ
to</w>
on</w>
er</w>
ê³¼</w>
ìĿ¼
ê²ĥ
ìĦ±
íĨ
íı
ìľĦ
ìłģ
ê²½
êµŃ
and</w>
ë¡ľ
êµ¬
íĶ
ê¸°</w>
ê³ł
of</w>
al
ìĨĮ
ê¹
st
ëıĻ
ìĿ¸</w>
ë¹Ħ
íķĺëĬĶ</w>
ìĭł
ìĿĺ
in</w>
ì¡°
it
ë§Į</w>
ê´Ģ
ë¬¸
ë§Ī
ìĪĺ</w>
ë©´</w>
ìľł
ë¬´
es</w>
ìĺ¤
ãħ
ëĲĺ
ëª¨
ìĿ´ëĭ¤</w>
ëĦ
at</w>
at
íĻĶ
ëĤĺ</w>
íĦ
ì¤ĳ
ìĻĢ</w>
is</w>
ìĹ¬
ê³Ħ
ìĦł
ë©°</w>
ë§Į
âĢĻ</w>
ê°ľ
ro
ìļ°
ê±°
ëĶ
ìĹ°
ìĹħ
ëĤ´
íļĮ
ë¯¸
íķĺê³ł</w>
ìŀĪëĭ¤</w>
ìĥĿ
ì§Ħ
ìĿ¼</w>
ìĦ¸
íķł</w>
íĨµ
íĽ
ë°©
íŀ
ì¢
ìļ©
íģ
ì¹ĺ
ì¦
as</w>
ac
ic
ìĺģ
ëªħ
ìŀ¬
or</w>
ìĸ´</w>
ë°ľ
ëĭ¨
ìĭ¤
ìķĪ
ë£
ì´
íĸī
il
an</w>
ë¶Ħ
el
ëķ
íĬ¸
âĢľ</w>
ìĤ°
ìĹĨ
ëĬĶ
ëĳ
ãħĭ
êµĲ
ìŀĲ</w>
ëĵ±
ëŁ¬
ëĭ¹
íķĻ
íİ
as
âĢĿ</w>
om
ê³¼
ëĵľ
ë§Ĳ
íķľëĭ¤</w>
ìĭľ</w>
al</w>
ëħĦ</w>
is
ec
ê¸Ī
es
ë©´
wh
ëĭĪ
ì²´
ìķĬ
ìŀĳ
ì½
ëį°</w>
ë°Ķ
en</w>
ìŀħ
ê°Ĳ
ìĹŃ
ê¶
íĳ
íĸĪ
ë¦¬</w>
that</w>
ì°¨
ë°ĺ
ìļĶ
ê²°
ë¬¼
íĹ
ëł¤
ìĹĪëĭ¤</w>
it</w>
íĺĦ
ìµ
ãħĭãħĭ
ëĨ
ë¯¼
ì¶ľ
ê°Ħ
ëĿ¼</w>
ê°ķ
íĴ
ìŀ¥</w>
ly</w>
am
ve</w>
ì±
ì§Ģë§Į</w>
ë¥´
ol
ìĽĲ</w>
âĢĺ</w>
ìµľ
ìĺĪ
íĥĢ
ìŀĪëĬĶ</w>
ìłľ</w>
ê¹Į
ìĬ¤</w>
ë§¤
us
ìķ¼</w>
ur
tion</w>
pl
ëĭ¤ëĬĶ</w>
íĤ
ëł¥
ìĭ¬
ìĭĿ
íı¬
ha
ìķĦ</w>
ìļĶ</w>
ìĦ¤
ëĲľ</w>
íĦ°</w>
ìĸĳ
ìĿ´ëĿ¼
si
Â·</w>
ëĵ±</w>
íŀĪ</w>
ê±´
ëĮĢ</w>
ë°°
li
ìļ´
ri
ìłĢ
un
ëħ¸
íĶĦ
ch
ë¨
ê°ģ
ìłĲ
íħ
ìĿĮ
ë¶Ī
ëķĮ
..</w>
for</w>
íĳľ
ìĹĪ
ë°Ľ
ëĤ¨
ëįĺ</w>
ì§ģ
ìĤ¬</w>
ëłĪ
ent</w>
ad
ì¶Ķ
íĮĮ
no
ì²Ń
ìłģ</w>
ìĽĶ</w>
le
íĿ
íĺ¸
ìłĦ</w>
lo
ìŀĦ
ëĭ¤ê³ł</w>
ìĨį
ëĭ¬
the
ìķĺ
íĻķ
ì²ĺ
êµŃ</w>
de
ê·¸</w>
ëĭĪëĭ¤</w>
ê°Ļ
ëĶ°
íķ¨
ëħĦ
ab
ë¸
íķ©
ë²ķ
íĶ¼
ìĤ¬ëŀ
ag
íĦ°
ì¸
ì½Ķ
íĪ
di
íĭ
íĬ¹
ê¶Į
ëĵ¤ìĿ´</w>
ê°Ħ</w>
ê¹Įì§Ģ</w>
ts</w>
ìĹĲê²Į</w>
ìĥģ</w>
ëĪ
ne
ëģ
ëĺ
ìķ¼
ë³¸
íģ¬
ì¦Ŀ
ë²Ħ
ë©´ìĦľ</w>
ìłģìĿ¸</w>
con
se
ì§ĢëĤ
ëŀĺ
íĽĦ</w>
ê²©
ëĬ¥
wit
be
ľëĭ¤</w>
íĮĲ
pro
sh
ì»
íĪ¬
ìĹĲìĦľ
ì¹´
íĽĦ
ìĻ¸
ìĹ¬</w>
ìĺĢ
íĬ¸</w>
ìĶ
ìħ
ì¢ħ
ìĹĲëĬĶ</w>
íķĺê²Į</w>
ì¤Ģ
ìĬµ
íĻľ
ay</w>
su
ìĺ¬
ver
íıī
ëĸ
ë¶ĢíĦ°</w>
ë§İ
with</w>
ì§ĳ
tr
le</w>
com
bu
ëĶĶ
ëª©
po
ì§Ħ</w>
íĥľ
em
ers</w>
ìłģìľ¼ë¡ľ</w>
íĻĺ
ere</w>
ë¶Ģ</w>
ëįĶ
ai
ê¸ī
Ķëĭ¤</w>
ëĲľëĭ¤</w>
ë³µ
ê²Į
ce</w>
ëĵľ</w>
ê²ł
ì¼
íĨł
ëĮĢíķľ</w>
ëĳĲ
gh
ëĥ
ëĬĶëį°</w>
ìķĮ
ì´Ī
ìĬ¹
ëį°
ì²ľ
íĺķ
ë¥¸</w>
was</w>
ìĹ´
are</w>
ìķ½
ìķĪ</w>
ìĸ¸
íĴĪ
íļĮ</w>
ìļ´</w>
ë°ı</w>
ex
ëĲĲ
ìĤ¬ëŀĮ
ëĵ¤ìĿĢ</w>
íĤ¤
ë³Ģ
ap
ìĦ±</w>
êµ¬</w>
ê·¼
ë©Ķ
ê´ĳ
ation</w>
ëĤ´</w>
be</w>
ìĦł</w>
mo
ê»
ìłķ</w>
ìļ¸
ë´
ê¹Ģ
ar</w>
yo
vi
íĸ¥
ë°ķ
ëĭĪ</w>
st</w>
êµ°
ëĵ¤ìĿĺ</w>
ìĦĿ
ì¤ĳ</w>
íĻĶ</w>
tion
ìļ°</w>
sp
ëķĮë¬¸
ëĭ´
ëĦĪ
íķŃ
oun
ìĿĢ
ê²ĥ</w>
ì°¸
you</w>
ê²ĥìľ¼ë¡ľ</w>
ì£¼</w>
this</w>
for
fi
out</w>
ëĭ¹</w>
ëª»
ì¢ĭ
ë£¨
íİ¸
he</w>
ë¡Ŀ</w>
ìľ¡
ìĤ´
ìĪł
ëįĶ</w>
ìŀ¬</w>
ëĳĲ</w>
ìĹħ</w>
ëıħ
íĺĳ
ê²Ģ
ì±ħ
ld</w>
ak
ìľĦíķ´</w>
íķĦ
ë²Ī
ìķĦëĭĪ
íķĺì§Ģ</w>
by</w>
ìķĺëĭ¤</w>
ul
oo
ë£Į
ì§Ī
ìĽĶ
ìłĪ
ê·ľ
one</w>
ate</w>
ìĸµ
ë°Ŀ
ëĤł</w>
ìĿ´ëĿ¼ê³ł</w>
ff
ìĺĢëĭ¤</w>
ëĲĺëĬĶ</w>
ãĢ
ìĪľ
ìķŀ
íĻ©
per
íķĺëĭ¤</w>
ëªħ</w>
ëıĮ
ë²Ī</w>
ë§Ŀ
ay
ëĵł</w>
ter</w>
pre
have</w>
ê²ĥìĿ´ëĭ¤</w>
fro
ity</w>
ë§ĲíĸĪëĭ¤</w>
ë¶ģ
se</w>
íķľêµŃ
ê·¸ëŁ¬
ê³Ħ</w>
ìĥĪ
ãħĭãħĭãħĭãħĭ
from</w>
ë³ĳ
ë³Ħ
's</w>
ì°¨</w>
ë§ŀ
íĨµíķ´</w>
co
ëķĮ</w>
qu
all</w>
ì·
ì°½
ì¶ķ
ter
ìĤ°</w>
ìĻĢ
wor
ëĨĴ
but</w>
we</w>
do
ì¡Į
ëĦ¤
íĭ°
ìĹĲìĦľëĬĶ</w>
íķĺë©´</w>
ëĲĲëĭ¤</w>
not</w>
to
íĹĺ
ë¸Į
ì¹ĺ</w>
ëĿ¼ê³ł</w>
ë³´ëĭ¤</w>
ê¸Ī</w>
ther</w>
ëĴ
ê¸°ë¥¼</w>
im
we
pe
ìŀĲëĬĶ</w>
ëĵ¤</w>
ted</w>
ë¨¸
ëĲł</w>
ci
íķĺê¸°</w>
ê°ľ</w>
íķĺìĹ¬</w>
ould</w>
ë¦¬ê³ł</w>
ë¦¬ëĬĶ</w>
th</w>
íķł
ê»ĺ</w>
ìľ¼ë¡ľ
so</w>
our</w>
ê²ĥìĿĢ</w>
ê°ĻìĿĢ</w>
ìļ©</w>
íħĮ
ëĪĦ
ê°ĢëĬ¥
ëł¹
ìĤ¬ìĹħ
ìĥĿê°ģ
."</w>
ì³
ëł¨
ì§ĢëĤľ</w>
ìĹĲëıĦ</w>
ìĨĲ
ìķł
ìľ¼ë©°</w>
ra
ëĵ¤ìĸ´
ch</w>
ì·¨
ho
ìĵ
ë°Ŀíĺ
ds</w>
íĶĮ
ëŁ°</w>
ëĵ¤ìĿĦ</w>
ëıĻ</w>
ìĶ¨
ìĨ¡
ìŀĲìĭł
ãģ
ëŁ¬</w>
ì§ĢëĬĶ</w>
ì´Ŀ
ëī
ìĽĮ
they</w>
ë¹Ħ</w>
ver</w>
me</w>
íķĺë©°</w>
ê²ĥìĿ´</w>
ëĭ¨</w>
ì²´</w>
hi
ìĤ¼
íķĺì§Ģë§Į</w>
ìĹŃ</w>
ght</w>
íĮ¨
ëĺĲ
ill</w>
ìĨĮ</w>
et</w>
cl
ì¶©
ëĮĢë¡ľ</w>
ëĿ¼ëĬĶ</w>
ë¦°</w>
his</w>
ìķħ
ê´Ģê³Ħ
ìĿ´ëĤĺ</w>
par
íķ¨ê»ĺ</w>
ëĺĲ</w>
ê±´</w>
ìº
ìķĦìĿ´
um
ìŀ¥ìĿĢ</w>
go
íĥĿ
ally</w>
ëĭ¤ë¥¸</w>
ìĭł</w>
ìľĦ</w>
íİĺ
ì±Ħ
ëł¤</w>
íļį
me
ore</w>
ë°±
ëıĦë¡Ŀ</w>
ì§ĢëĤľ
ë¡Ŀ
ì¡±
ê¸°ìĹħ
âĸ
has</w>
ì¡°</w>
íĺķ</w>
ëī´
ëĬĺ
ë°ĿíĺĶëĭ¤</w>
ëĬĲ
ê²ĥìĿĦ</w>
ëłĩ
ë¡ł
ë¦°
ì§ĢìĹŃ
ë¦¬ë¥¼</w>
ê·¹
ê¹Į</w>
ë¬¸ìłľ
),</w>
ìĬµëĭĪëĭ¤</w>
ëķĮë¬¸ìĹĲ</w>
ë¨¹
ë¦Ħ
ìłĳ
ëŁ¼</w>
ìĻĦ
ìŁ
bo
aid</w>
ë¦½
íŀĪ
ìĺ¨
ìĭĿ</w>
ì°°
por
ë¬´</w>
ìĿ´ëĬĶ</w>
ëŁī
íļ¨
ê¸Ģ
íľ
ê²¬
tions</w>
ëł¥</w>
ìĽĢ
ê¸°ëıĦ</w>
ê±°</w>
ë¯¸</w>
ìĨį</w>
ë§ī
ìĿĳ
ìľĦíķľ</w>
ì¡´
ìĤ¬ë¥¼</w>
ê³³
ing
ìĿĮ</w>
ìĸ´ëĸ
ê±¸
du
íķ´ìĦľ</w>
ìŀ¡
ë²ł
íķ´ìķ¼</w>
âĢ¦</w>
ìĿĦ
ìľĦìĽĲ
ë²Ķ
gr
íĶĦë¡ľ
ìĤ¬ìļ©
str
op
ì§ĢìĽĲ
ìŀ¥ìĿĦ</w>
ìĭľìŀĳ
ding</w>
ëĤł
de</w>
ë¥ĺ
ëĤľ</w>
ìłķë¶Ģ
ìłĲ</w>
ëĨį
ì»¤
ëŀĢ
ì²ł
ëľ
ir</w>
ìĤ¬íļĮ
ëĵ±ìĿĦ</w>
said</w>
ê´Ģ</w>
ë¬¸</w>
will</w>
¸ëĭ¤</w>
af
ë²Į
ë¡ł</w>
ìī
êµĲìľ¡
ì¹ľ
ì°¾
ê¶Į</w>
ëĮĢíĳľ
man
ëĮĢíķ´</w>
íķĦìļĶ
íĸī</w>
ëĤĺëĬĶ</w>
ê°Ģìŀ¥</w>
ìĸ¼
ain
som
ple</w>
ì¡Įëĭ¤</w>
ê¸°ìĹĲ</w>
ëĪĪ
ting</w>
ëĶ°ëĿ¼</w>
ë¿
te
ì¹¨
ëĦĺ
ìĹĨëĬĶ</w>
ê°ģ</w>
he
more</w>
ìŀĲê°Ģ</w>
íĹĪ
ìĿµ
ê·¸ëĬĶ</w>
ë¶Ħ</w>
ìĿ´íĽĦ</w>
ë²ķ</w>
ëłĪìĿ´
ment</w>
íıŃ
ì¸¡
ëĲĺê³ł</w>
ìĦ¸</w>
ë§Ī</w>
ë³¸</w>
ye
pu
ad</w>
ì¼Ģ
ìĭľê°Ħ
ev
ëŀĺ</w>
ìĺ¨</w>
can</w>
fe
ì§Ģë¥¼</w>
ìķ½</w>
their</w>
ê²½ìļ°</w>
ëĭ¤ë©´</w>
gi
ì¿
ì²ĺëŁ¼</w>
ê¸¸
ë¦¬ê°Ģ</w>
ëł¥ìĿĦ</w>
ìį
ëĤľ
ess</w>
ìĿ´ëĿ¼ëĬĶ</w>
est</w>
ke</w>
ìĿ´ìĹĪëĭ¤</w>
ìĿ´ë²Ī</w>
ìĵ°
gh</w>
ìĿ´ê³ł</w>
ë¦¼
ame</w>
ê·¼</w>
ure</w>
ìĦ±ìĿĦ</w>
êµĲ</w>
ìĹĨëĭ¤</w>
íŀĺ
au
mar
íį
age</w>
ëĿ½
ì¦Ī
ì§Ħíĸī
ìŁģ
ëĨĵ
our
ìĦ¼
ãĨ
ëĮĢíĨµ
who</w>
ìĹ°êµ¬
rec
ìľ¨
ìĦľëĬĶ</w>
ìĿ´ë¥¼</w>
ëħĢ
ge</w>
ë§İìĿĢ</w>
ì¤Ħ
ìłĢ</w>
ich</w>
ëħ¼
íĥĦ
wn</w>
ìĥģíĻ©
up</w>
ê°Ŀ
ê²¨
ê±°ëĤĺ</w>
ê¸°ê°Ģ</w>
ent
ë¹ł
ê°ĢëĬĶ</w>
ìª
ìĥģê¸°</w>
ëĦ¤</w>
íģ¬</w>
íķĺëĤĺ
ê¼
ì§Ģê³ł</w>
ê·¸ë¦¬ê³ł</w>
ëŀľ
tic
ì§Ī</w>
ì°©
if</w>
about</w>
ë°Ģ
ê·¸ëŁ¬ëĤĺ</w>
ê·Ģ
ëĭ¬</w>
ë¸Ķ
ast</w>
ê¾
ãħĭ</w>
ë¬¼</w>
íķĺë©´ìĦľ</w>
íı¬</w>
la
ìļ¸</w>
ìĭ¶
day</w>
ìŀĪìĹĪëĭ¤</w>
ust</w>
íĺ¼
ìĺ¤ëĬĶ</w>
íĿ¬
ê³Ħíļį
min
ëĭ¤ìĭľ</w>
ì¢ħ</w>
ant</w>
ìĤ¬ìĿ´
ìĹĨìĿ´</w>
there</w>
ìŀĺ</w>
its</w>
ê²łëĭ¤</w>
der</w>
ê³¨
ks</w>
ìĿ´ëĤł</w>
íĬ¹íŀĪ</w>
us</w>
ëĬĶëĭ¤</w>
ëıĻìķĪ</w>
ë³´</w>
re</w>
ìĭ¤</w>
íģ°</w>
use</w>
ated</w>
ëŁ°
ìĽĲìĿĦ</w>
ìĬ¤íĬ¸
ê²½ìłľ
which</w>
ìĥģìĿĦ</w>
ëł¨</w>
ëŀĢ</w>
ìĤ¬ëĬĶ</w>
ice</w>
ìĿ´ìĸ´
ìľ¼ë©´</w>
ìłķìĿĦ</w>
ëĭ¤ê°Ģ</w>
ty</w>
íĴĪ</w>
ìĭľìŀ¥
were</w>
íģ´
ack</w>
had</w>
íĺ¸</w>
ëĵĿ
ë§Ĳ</w>
ìĦľìļ¸
ëĭµ
ìŀĦ</w>
ãĨį
ì£½
...</w>
ìĥī
ë°ĺ</w>
bl
ìķ¡
other</w>
ence</w>
what</w>
mi
ëģĿ
íİ¸</w>
able</w>
red</w>
ëı¼</w>
ìĥĿ</w>
ë¬¸íĻĶ
ìŀĪìĹĪ
ì¤Ģ</w>
ìľµ
ents</w>
íĪ¬ìŀĲ
ê¸ī</w>
ded</w>
ìĤ¬ìĭ¤
ìĦ±ìĿ´</w>
ëª¨ëĳĲ</w>
ëª¨ëĵł</w>
ê¸°ìĪł
ê¸°ë¡ľ</w>
ëĤ¬
now</w>
ìĹĦ
êµ°</w>
ake</w>
dis
cont
ser
when</w>
ëĲĺìĸ´</w>
ine</w>
ìĦ¤</w>
ì§ĢëĤľíķ´</w>
ê°Ī
ìĩ
ì²ľ</w>
ìĿ´ìĸ´</w>
wi
íį¼
would</w>
.âĢĿ</w>
ê°ĸ
ìĺ¤</w>
mon
cre
ë¥´ë©´</w>
ëŃ
ìĸµ</w>
ard</w>
der
ëĭ¤ìĸĳ
new</w>
ê·¸ëłĩ
ìķĦëĭĪëĿ¼</w>
íĥĪ
ë°ľ</w>
been</w>
ìłķëıĦ
ì§ķ
gu
av
ìĦľë¹Ħ
ge
ìĦ¤ëªħ
ì§ģ</w>
ìĿ´ìļ©
ìĦ¸ê³Ħ
ê¸°ë¡Ŀ
ìķĦëĭ
ê¸°ëĬĶ</w>
king</w>
ìĻķ
ê²½ìļ°
ely</w>
tu
ëĮĢíĨµëł¹
ìŀĲìĿĺ</w>
ëª¨ìĬµ
ëĿ¼ìĿ´
ë¡ľìļ´</w>
ìĺĪìłķ
so
pol
ìĹĲìĦľëıĦ</w>
ëĵ¤ìĹĲê²Į</w>
ìļ°ë¦¬
ê°ľë°ľ
íĮĢ
ë¡Ģ
ru
bi
ìĿ´ìĹĲ</w>
ëĺĲíķľ</w>
ëĤĺíĥĢ
êµŃë¯¼
ìł¸</w>
fin
ëĮĢìĥģ
tive</w>
ough</w>
gre
time</w>
ë´ī
ìĤ¬ê°Ģ</w>
ì£¼ëĬĶ</w>
ëª°
like</w>
ìĺģ</w>
ëĲĺìĹĪëĭ¤</w>
ays</w>
íĻĶë¥¼</w>
íĻį
bec
pr
ë§İìĿ´</w>
ìŀĺ
íķĻ</w>
ëĴ¤
ìºĲ
ë¨¼
íĳľ</w>
ìĭľìĬ¤
el</w>
íĥĢ</w>
no</w>
ìĿ´ëŁ°</w>
âĢ¦
âĹ
comm
ìĤ°ìĹħ
ìĪĺëĬĶ</w>
ê·¸ëŀ
ong</w>
ìļ´ìĺģ
íĸĪëįĺ</w>
ë³¼</w>
all
ì¶ľ</w>
te</w>
ound</w>
ìĭľê°Ħ</w>
inter
ëĶ°ë¥´ë©´</w>
ìĻĶëĭ¤</w>
ê´Ģëł¨</w>
ë¡¯
ell</w>
ëĭĺ
íĺĦìŀ¬</w>
ìĿ´ìĥģ</w>
ìĿĺìĽĲ
ãĤ
ic</w>
ë£Į</w>
ë°ĸ
fir
íĺģ
ë¶Ļ
ke
ìłķë³´
ë§Įíģ
ê¿
ìĸ´ìĦľ</w>
ê·¸ëŀĺ
ary</w>
also</w>
my</w>
ìł¸
ain</w>
ìľ¼ëĤĺ</w>
peo
ì§ĢìĹŃ</w>
ìĽĥ
íķĻìĥĿ
do</w>
ìµľê·¼</w>
ê¸Īìľµ
íĻľëıĻ
people</w>
ë³´ê³ł</w>
ë§Įëĵ¤
ars</w>
ìĬ¤íĥĢ
ëł¸ëĭ¤</w>
ìłĲìĿĦ</w>
ite</w>
êµŃê°Ģ
ë¦¬ìķĦ</w>
ìĹ¼
ìŀł
ê¸Īì§Ģ</w>
am</w>
íıīê°Ģ
ìĬ¤ë¥¼</w>
ë¯¼</w>
ëŀĳ
ë¯¸êµŃ</w>
ies</w>
ste
ê²½</w>
ëĭ¤ìĸĳíķľ</w>
ìĪĺê°Ģ</w>
ì¸ł
fac
ìłľê³µ
sec
ë¶Ģë¶Ħ
ìħĺ
ìĹ°</w>
tw
ans</w>
ìłĦë¬¸
ë¯¼ì£¼
ìŀ¬ë°°
ni
íĴį
her</w>
ìĿ´ìĹĪ
jo
ì½Ķë¡ľ
ous</w>
íıĲ
thing</w>
íı¬íķ¨
ìŀ¥ìĿ´</w>
coun
ë¯¸êµŃ
¨ìĸ´
ëŁ½
ëª¨</w>
ren
off
ë¥ł
sc
your</w>
ê²½ê¸°
ëĵ±ìĿĺ</w>
âĢĶ</w>
ìĿ´ë©°</w>
ìļ°ë¦¬</w>
ë³´ë©´</w>
ê´Ģê³ĦìŀĲëĬĶ</w>
ìĺ¬íķ´</w>
ìŀĪìĸ´</w>
ìĬ¬
ê²©</w>
some</w>
ws</w>
than</w>
ìĿ´ìķ¼
íĶĦ</w>
..
ì´Ŀ</w>
ìŀĲìĭłìĿĺ</w>
ìŀĲë¥¼</w>
ë§ĪìĿĮ
just</w>
att
ï¼
ì´Ī</w>
ëĮĢíķĻ
old</w>
íķľëĭ¤ëĬĶ</w>
íķĺ</w>
ëĤ´ìļ©
ì§¸</w>
ile</w>
ëªħìĿ´</w>
way</w>
ìłĢìŀĳ
ph
ëıĮìķĦ
br
íľ´
ê¸´</w>
ìłĦìĹĲ</w>
ê¸¸</w>
ìŀĪëĭ¤ëĬĶ</w>
ë°ľìĥĿ
fu
ìĿ´ìĥģ
ì²Ń</w>
ìłķì¹ĺ
ì¦Ī</w>
ë°ķ</w>
ìĭľíĤ¤
ber</w>
ë§Įíģ¼</w>
very</w>
ì¿ł
ìŀ¬ë°°íı¬</w>
ëĤ´ê°Ģ</w>
ps</w>
ëĴ¤</w>
ìłĦìŀ¬</w>
ê¸°ëĮĢ
sho
ì°¬
ìĿ´ëŁ¬
ì¶Ķì§Ħ
ë¬´ëĭ¨
íĽĦë³´
ìĻĶ
sel
pres
ì¤ĳìļĶ
ìķĬê³ł</w>
ëģ¼
ê³¡
ì°¸ìĹ¬
ìĤ¬ëŀĳ
ì¦Ŀê°Ģ
ëŁī</w>
ê´Ģë¦¬
ëĦĪë¬´</w>
ãİ
ase</w>
ì¤ĳêµŃ
ìĿ¸ëĭ¤</w>
ill
ê¶ĮìŀĲ</w>
and
ãĥ
ìķķ
ê²ĥëıĦ</w>
ëįķ
êµ´
ìª½
ë°Ķë¡ľ</w>
íĸĪê³ł</w>
ëĲĺìĹĪ
ali
she</w>
ect</w>
íĩ
ê¾¸
ë³Ħ</w>
ëĸł
ess
ìĹĶ
ance</w>
êµŃëĤ´</w>
any</w>
ëĵ¤ê³¼</w>
ê²½ì°°
ìĹŃìĭľ</w>
ê°ĻìĿ´</w>
sy
ë¬´ëĭ¨ìłĦìŀ¬</w>
ê²°ìłķ
na
ëŀĮ
after</w>
get</w>
ìľł</w>
ëª¸
enti
ìķĪìłĦ
ìłķì±ħ
ëł¥ìĿ´</w>
ë°©</w>
ìłĢìŀĳê¶ĮìŀĲ</w>
ir
into</w>
ese</w>
ê´Ģëł¨
duc
ëĤ¨</w>
ìĿ¼ë³¸
ìĦĿ</w>
ìĸ´ìļĶ</w>
íĻķìĿ¸
ce
ìĤ¬ìĿĺ</w>
ìŀĪìĿĦ</w>
ìĭ¸
ê²°ê³¼
ëĭĪê¹Į</w>
ì¢ĭìĿĢ</w>
ìĥĪë¡ľìļ´</w>
ìĿ´ìľł
ìĿĺë¥¼</w>
ons</w>
ìĭ¬</w>
íĻĺê²½
ory</w>
ked</w>
ëķĮë¬¸ìĿ´ëĭ¤</w>
ll</w>
ëĵ±ìĿ´</w>
most</w>
ëıĦë¥¼</w>
ì¹ĺë¥¼</w>
sts</w>
ìĽĲìĿĺ</w>
ìĦľìļ¸</w>
ìŀħëĭĪëĭ¤</w>
ìĭľì¦
ma
ê³µê²©
first</w>
ìķĻ
ê°Ģìļ´
ìĪĻ
ings</w>
ìħĺ</w>
them</w>
ì²«</w>
ìĿ¸ìĿ´</w>
dec
ì½Ķë¡ľëĤĺ</w>
ìĸ´ëĸ¤</w>
ìĭĿìĿĦ</w>
ë²¤
ìĥĿíĻľ
ìĭľëĬĶ</w>
).</w>
ëģĮ
ê³µ</w>
ìĸ´ëł¤
ê½
ëĿ¼ëıĦ</w>
ëĵ¯</w>
ìĮ
ìłĳ</w>
ìĪł</w>
ìľĦë¥¼</w>
íĺ¹
íķĻêµĲ
pp
mil
ëĲĺì§Ģ</w>
form
íĴĢ
ìĤ¼ìĦ±
ìķĬìĿĢ</w>
col
ë¿Ĳ
sk
ëªħìĿĦ</w>
ì³Ĳ
cor
ood</w>
sti
gen
íķľíİ¸</w>
ìĦľëıĦ</w>
ëĭ¹ìĭľ</w>
ìĭľìŀ¥</w>
ê¸°ê´Ģ
ìŀĪëıĦë¡Ŀ</w>
ëĥĲ</w>
't</w>
ìĪĺì¤Ģ
ìķĮëł¤
ëĤ¬ëĭ¤</w>
ëıĦìĭľ
tur
tional</w>
ë°ľíĳľ
ë°©ìĨ¡
ì¤Ħ</w>
âĢĵ</w>
íļ¨ê³¼
ìĿ¸ìĿĺ</w>
ì§Ģê°Ģ</w>
ì¤ĳêµŃ</w>
ì§Ģê¸Ī
íĿ¥
ëĨĢ
ê·¸ë£
ì½ĺ
íĨµ</w>
ìłľíĴĪ
ates</w>
ations</w>
ìĸµìĽĲ</w>
des
ëĤ®
ëªħìĿĺ</w>
ëıĪ
íĺĦëĮĢ
ëĸ¨ìĸ´
ìĹĶ</w>
how</w>
over</w>
ìĸ»
ìĹĲê²Į
íĩ´
íĸĪëĭ¤ê³ł</w>
ê¹Ģ</w>
ëĺĲëĬĶ</w>
íĶ¼íķ´
loo
ue</w>
íĶĦë¡ľê·¸ëŀ
ìĶ¨ëĬĶ</w>
ì§ĢëıĦ</w>
end</w>
ìĻ¸</w>
ause</w>
íļĮë¥¼</w>
ìľ¤
íĮĲë§¤
ê°Ī</w>
ë°Ķ</w>
oc
ëħĲ
ëĵľëĬĶ</w>
ìĿĺë¯¸
êµ¬ìĦ±
ì³Ĳ</w>
ë³´ìĹ¬
ìĬĪ
íķµ
--
ì¡°ìĤ¬
ë§Īëł¨
two</w>
only</w>
man</w>
ë£¨</w>
ìĭľìĹĲ</w>
íķ©ëĭĪëĭ¤</w>
ff</w>
ì§Ģë°©
ëĮĢë¥¼</w>
ìĸĳ</w>
ìĺ¬</w>
ìĿ¸íĦ°
íķ©</w>
ade</w>
ìĿ´ì§Ģ</w>
ê³¼ìłķ
ë¶ĢëĬĶ</w>
íĽĪ
ìķĶ
ëįĺ
ê°Ģìļ´ëį°</w>
ê¸°ìĹħ</w>
ìļ±</w>
als</w>
ìĺģíĸ¥
ist</w>
pos
year</w>
ìĥģíĥľ
ìĤ¬ìĹħ</w>
âĸ³</w>
ëĵł
ree</w>
ors</w>
ace</w>
clu
ìĪĺë¥¼</w>
ë¬¼ë¡ł</w>
ëĨĴìĿĢ</w>
ìŀĪê³ł</w>
ë³´ìĿ¸ëĭ¤</w>
ê¸´
ig
ìĭľë¯¼
ê·¸ìĿĺ</w>
ì§ĳ</w>
ê·¸ëŁ°</w>
ê°ĳ
ang
ìĺĪìłķìĿ´ëĭ¤</w>
ìĿ´ëĿ¼ë©°</w>
ìī½
ìĽĲìĿ´</w>
ê°Ģì§Ģ</w>
ëī´ìĬ¤</w>
ìĪĺëıĦ</w>
,âĢĿ</w>
ë¦´</w>
íĻĪ
ìĦ±ê³µ
ë¸Į</w>
ëĤĺëĿ¼
ed
ìĸ´ëĸ»
ì¸µ
ì¤ĳìĭ¬
íĮĶ
ìķĬìķĺëĭ¤</w>
ìĬ¤ëĬĶ</w>
íķĻêµĲ</w>
ëıĦê°Ģ</w>
íķľëĭ¤ê³ł</w>
ë°ĸìĹĲ</w>
ìŀĲëıĻ
ê°Ģê²©
ning</w>
ì½Ķë¦¬ìķĦ</w>
ê²½ìŁģ
ëľ»
ëĳĺ
íĻľìļ©
íĸĪì§Ģë§Į</w>
%)</w>
ê°ķì¡°
ìŀħ</w>
ìļķ
ì¤Ģë¹Ħ
ëł¹</w>
ê·ľëª¨
sion</w>
ves</w>
ì¡´</w>
ìį¨</w>
ë°ĽìĿĢ</w>
ìĦ¸ê³Ħ</w>
íĭĢ
ë¥¸
ãħĭãħĭãħĭãħĭãħĭãħĭãħĭãħĭ
ìĺ¤íĽĦ</w>
ìĬ¹</w>
ì£Ħ
ìŀĳ</w>
íķ´ëıĦ</w>
ë°©ë²ķ
?"</w>
ìĭľìĬ¤íħ
ved</w>
fl
ë§¤</w>
ìłľë¡ľ</w>
íķĺìĺĢëĭ¤</w>
íķ´ìĦľëĬĶ</w>
ëĬĶì§Ģ</w>
ìłĦë§Ŀ
ê±°ëŀĺ
ìĥĿìĤ°
ob
ì§ģìłĳ</w>
ê°Ĳëıħ
ì»¨
ss</w>
ìĭľì¼
ëį°ìĿ´
ì§Ħëĭ¤</w>
ìĿ´ë¦Ħ
ë¥´ëĬĶ</w>
íķľêµŃ</w>
bet
ving</w>
êµŃìłľ
ì§ľ</w>
ìĿ´ë¯¸</w>
íĺľ
ë²Į</w>
ì¹ĺëĬĶ</w>
ì³¤
ëĳĲê³ł</w>
ê³µê°ľ
ties</w>
ìĨĮë¹Ħ
ëĽ
íĺĦ</w>
ëŀµ
íĹ¤
ë¶Ģë¥¼</w>
ê¸°ì¤Ģ
res</w>
ë°ľìłĦ
ë·
ë°Ľê³ł</w>
could</w>
son</w>
these</w>
ìĦłìĿĦ</w>
tim
ìķĬëĬĶ</w>
ìķĬìķĺ
ë¶ĦìĦĿ
ì£¼ìŀ¥
ìĿ¼ìĿĦ</w>
ê´Ģìĭ¬
ê·¸ëŁ°
comp
tho
mu
ë¦Ń
ìĹĩ
ìĦ±ìŀ¥
ìļĶêµ¬
even</w>
ìĿĢíĸī
ve
ìµľê³ł
ì´ī
ë³¼
ì§Ģìłģ
ë§ĮìĹĲ</w>
ail
ìŀĲë¦¬
ìļ´ëıĻ
ê±¸</w>
ble</w>
ëĤĺìĺ¤
ãħĭãħĭ</w>
ë¬¼ìĿĦ</w>
ìĹħì²´
ë¬¸ìĿĦ</w>
íĥģ
ìĿ¼ë³¸</w>
because</w>
uc
íĹĮ
ìķĪìĿĦ</w>
ìĽĮ</w>
ìĿ´ëłĩ
íĬ¹ë³Ħ
ìĿ¸ìĿĦ</w>
ìĽĲìĿĢ</w>
ass
íĬ¸ë¥¼</w>
ë§Ľ
íķŃ</w>
ì¢Į
ìĿ´ëĿ¼</w>
where</w>
don</w>
ìŀĲì²´
ê²°êµŃ</w>
ëĭ¤ìĿĮ
Ģë¡ľ</w>
loc
ìĿ¼ìĿ´</w>
ëĵľëŁ¬
ion</w>
ê°ķ</w>
ìĦłê±°
ë¶ģ</w>
ì£¼ë¯¼
tic</w>
ë§ĮìĽĲ</w>
play
ìĸ´ëĸ»ê²Į</w>
ìĥģëĮĢ
hel
ìķĦë¬´
íĨµìĭł
âĸ²</w>
int
some
ìĿ¸ê°Ħ
ìĶ¨</w>
ë¤
ìĤ¬ê±´
fr
ìģ
ìĽĲìľ¼ë¡ľ</w>
ì¦Ĳ
ëĽ°
ëł¸
ìĦłìĪĺ
ëŀĲ
ìĥģìĬ¹
âĢĻ
ë§¡
ft</w>
sup
ach</w>
many</w>
ë¦¬ìĬ¤
ber
ëŁ¼
ms</w>
ned</w>
íĮĲ</w>
back</w>
dent</w>
ëĥĲ
ëįĶìļ±</w>
ë°°</w>
ëĵ¯
ê²½ê¸°</w>
ê²ĮìŀĦ
Â©</w>
ì°¾ìķĦ
ê·¸ëħĢ
ì¹ľ</w>
ë¥ĺ</w>
ìĿ¸ìĿĢ</w>
ëħ¸ëıĻ
ìĿ´ë©Ķ
ëĦĲ
tt
ìĺĪìĥģ
ìī¬
ê³łê°Ŀ
ìŀĪëĭ¤ê³ł</w>
ìĻľ</w>
ìĿ´ê°Ģ</w>
ì¢ĭìķĦ
ìĽĲìĹĲ</w>
ê¹¨
âĨ
ement</w>
ì§ĢìĨį
ìĪ¨
ì±ħ</w>
stu
ì½Ķ</w>
ìĭľìĦ¤
ë§ĲìĿĦ</w>
ë³´ëĬĶ</w>
ê¸ĪìĿĦ</w>
bel
ìŀĲìľł
tri
pri
ëĭ¤ë§Į</w>
ìĿ¸ëį°</w>
him</w>
ëĲĺë©´</w>
amer
work</w>
ëĶ°ëĿ¼
íħĲ
enc
ìµľëĮĢ</w>
ëĬĲ</w>
ìŀĪìľ¼ë©°</w>
ë§Īëĭ¤</w>
íķĺëł¤
ëĬĺ</w>
íļĮìĿĺ
íĭ°</w>
low
ìłģìļ©
ê´´
cri
then</w>
ëıĦë¡ľ</w>
ê°ķíĻĶ
car
ical</w>
ìľĦìĹĲ</w>
íķĺê²ł
ì±Ħ</w>
shi
ì¸µ</w>
while</w>
mis
star
ìĹ¬ëŁ¬</w>
ì£¼ìĿĺ
ëĮĢë¹Ħ</w>
íĮ¬
ì¡´ìŀ¬
ë¦°ëĭ¤</w>
years</w>
ê¶ģ
ëĥĪëĭ¤</w>
vo
ëĲľ
ìĦłíĥĿ
ìľłì§Ģ
ë¡ľëĬĶ</w>
ì¢Ģ</w>
ì£¼ìĿĺ</w>
°ëĭ¤</w>
ëĵ±ìŀ¥
ëĵ¤ëıĦ</w>
ê°Ģì§Ģ
ìĬ¤ê°Ģ</w>
ìĿ´ë©ĶìĿ¼</w>
ì²ĺìĿĮ
ìŀĲê¸°</w>
cu
ëĬ¥</w>
ink</w>
íģ¬ê²Į</w>
spec
ëĵ±ìĹĲ</w>
ëĶ°ë¥¸</w>
ìĥģíĴĪ
ìķĦë²Ħ
íķĺëĬĶëį°</w>
ìŀ¥ìĿĺ</w>
ì¤ĳìķĻ
ê³¼ìĿĺ</w>
êµ¬ì¡°
íıīê·
ê¸Ģë¡ľ
íľĺ
ë²½
ì§Ħì§ľ</w>
ating</w>
íĹĺ</w>
are
ìĺģíĻĶ
sch
pi
ë§ī</w>
ê°Ģì¡±
ìĭľì¦Į</w>
thr
ë³´ê³ł
,"</w>
sur
ë¶ĢìĤ°
can
êº
ì§ľ
ë§¤ìļ°</w>
well</w>
ë§ģ
ìĿ´ëŁ¬íķľ</w>
ìĬ¤ìĿĺ</w>
ìĸ´ëĬĲ</w>
ìı
ì§ĢìĽĲ</w>
make</w>
ìłĦíŀĪ</w>
ë§Īì§Ģ
ici
ë¯Ģë¡ľ</w>
ìłľë¥¼</w>
ìłľê°Ģ</w>
cr
ìĦ¸ë¥¼</w>
ìĹŃíķł
ëŀĳ</w>
port</w>
ë°ĶìĿ´
ìĽ¨
íĤ¤</w>
ìķĦëĭĪëĭ¤</w>
ë®
tly</w>
ê±´ê°ķ
ë¡Ń
ìĸ´ìķ¼</w>
ìĿĮìĿĦ</w>
ë´Ĳ
ê³ĦíļįìĿ´ëĭ¤</w>
used</w>
ìĿ´ëłĩê²Į</w>
íİĺìĿ´
ê´Ģê´ĳ
ê²°ê³¼</w>
ìĦ¤ëªħíĸĪëĭ¤</w>
ìĿ´íķ´
ëĶĶ</w>
ìĿ¸ìłķ
ê°ĲìĿĦ</w>
ìķĦëĭĮ</w>
ì¼ĢìĿ´
ë¹¨
ë¸Įëŀľ
vie
ëľ¨
ìłķë¶Ģ</w>
ìķĦíĮĮ
ì¦Ŀ</w>
ìŀĶ
ëĵ¤ìĸ´</w>
íĺĲ
ìĿ´ëŀĢ</w>
íķĺê²łëĭ¤</w>
ë°ĽìķĦ
dy</w>
ê±´ìĦ¤
go</w>
world</w>
ìĿ¼ë¶ĢíĦ°</w>
ì£¼ìļĶ</w>
ê²½ìĺģ
íĮĮ</w>
bas
íĺĢ</w>
ì¸ł</w>
ìĽĢìĿĦ</w>
ìĨĶ
ìĤ¬ëŀĮìĿ´</w>
ì£ł</w>
char
ìĬ¤ë§Ī
ìĹ¬ìĦ±
may</w>
íĻĺ</w>
dre
vel
ì¶Ķê°Ģ
ë¦Ħ</w>
ìĩ¼
ìĨ¡</w>
ëĭ¨ì²´
mat
ë¬´ìĹĩ
state</w>
ëıĦëĬĶ</w>
ëĮĢíķľ
fore</w>
ìĸ´ëĤĺ
uni
cur
ëĦ£
ê²¼
ìľ¼ë¡ľëĬĶ</w>
ëłĮ
ê±°ìĿĺ</w>
ì±ħìŀĦ
right</w>
.]</w>
ê°Ĳ</w>
ìķĦìĭľ
ture</w>
ê³µëıĻ
ook</w>
see</w>
sen
ìĽł
ìŀĳíĴĪ
íĳ¸
ëĵľë¥¼</w>
being</w>
last</w>
ìĥģëĭ¹
ìŀ¥ìĹĲìĦľ</w>
ë´¤
ëĥ¥</w>
ìłķëıĦ</w>
pe</w>
ëª¨ëį
poin
those</w>
íĶĦë¦¬
sol
ë°©ìĭĿ
ìĭľíĤ
ìĿ¼ë°ĺ
ìľ¡</w>
ê¸°ëĬ¥
wee
ìłģìĿ´</w>
ell
ìĦ¸ìļĶ</w>
ìłĦìĿĦ</w>
gover
ë¹Ħë¡¯
ë¡ľë¶ĢíĦ°</w>
vis
ì¹´</w>
dd
ome</w>
ëĮĢìĿĺ</w>
ìŀĪì§Ģë§Į</w>
ë¹Į
ãħł
íħĶ
iz
ìĺ¥
ìĿ¼ë¶Ģ</w>
ëļ
ëª¨ìĬµìĿĦ</w>
eng
ë¯¸ëŀĺ
ê°ģê°ģ</w>
ìĬ¤íĬ¸</w>
ìĶ©</w>
ìĺģìĹħ
ìŀĲìĹ°
ìĭŃ
low</w>
war
mem
ëĬĲëĤ
ater</w>
diff
pa
ëĤĺê°Ģ
inclu
ìĹĺ
ìłķíķľ</w>
íĶĦë¡ľê·¸ëŀ¨
ì§ĢìĹĲ</w>
ê³Ħìķ½
ìĻ¸êµŃ
ê³µê°Ĳ
ëĤ´ëĬĶ</w>
ë²Īì§¸</w>
ìĥĪ</w>
íķ´ëĭ¹</w>
ë¶ģíķľ
íİ¼
wr
ìĿ´ìłľ</w>
ë¶Ħìķ¼
.<</w>
ìĭ¤ìĭľ
ear
soci
ìĹĲìĦł</w>
ë¤Ħ
ìŀĪìĸ´ìĦľ</w>
ê±°ë¦¬
ì¡±</w>
íĿĲ
ìĿ¼ê¹Įì§Ģ</w>
ster</w>
ìĿ´ë£¨
americ
self</w>
ëĤ©
íķĺê±°ëĤĺ</w>
ê³¼íķĻ
govern
ëĮĢìĹĲ</w>
ê¶ĮìĿĦ</w>
íĮĲëĭ¨
ë°Ľìķĺëĭ¤</w>
ìĦ¼íĦ°
ë¨¸ëĭĪ
ìŀĪê²Į</w>
íķ¨</w>
ê°Ķëĭ¤</w>
ju
ê°Ļëĭ¤</w>
ë¨¼ìłĢ</w>
ìķĬëĬĶëĭ¤</w>
íĮĢ</w>
ê·¸ëŀĺìĦľ</w>
íĨł</w>
ë£Įë¥¼</w>
ì¹ľêµ¬
bs</w>
ack
tec
ê´Ģíķľ</w>
ëłµ
ìĤ¬ìĹĲ</w>
with
íķĺëĤĺ</w>
ì§ĵ
here</w>
ëªĩ</w>
id
sig
ìĺ¤ìłĦ</w>
ì¤ĳìĹĲ</w>
ì§ĢìĿĺ</w>
ited</w>
ìĹĨìĹĪëĭ¤</w>
ìłķìĭł
ìĤ¬ê³ł
inv
ëª»</w>
ê°Ģì§Ģê³ł</w>
ëĮĢêµ¬
ì£¼íĥĿ
ê²½íĹĺ
íĸīìłķ
ëª©íĳľ
ëĤ¸</w>
ê¸°ê°Ħ
íķĺìŀĲ</w>
ëĿ¼ë©°</w>
pen
read
ëĮĢìĥģìľ¼ë¡ľ</w>
much</w>
íķĺëĬĶ
cer
ë³´íĹĺ
ìĿĺê²¬
aking</w>
ying</w>
ì§Ģê¸Ī</w>
êµŃëĤ´
ìĥģìĿ´</w>
ë©ĶìĿ´
ê³łëł¤
ìķŀìĦľ</w>
ê¸°ì¤Ģ</w>
ìĿ´ì§Ģë§Į</w>
íķ´ê²°
ë§Įëĵ¤ìĸ´
ì°į
ìĤ¶
ìķĪìĹĲ</w>
ëĵľëĿ¼
ëĭ¤ìĿĮ</w>
ìĺ¬ëĿ¼
ìłĪ</w>
ìĹĲëĦĪ
ëı¼
ìĬ¨</w>
ê¿Ī
before</w>
íķ´ì£¼
ìĬ¤ë¡ľ</w>
ê·¸ëłĩê²Į</w>
íļĮìĿĺ</w>
ê¸°ê°Ħ</w>
ìłľìŀĳ
ìłĦëŀµ
ëħ¸</w>
ãĢĮ</w>
ìĿ¸ì§Ģ</w>
ìĦľë¥¼</w>
íĶ¼</w>
ë¹Ī
ë§¥
ê³ĦìĨį</w>
ë¶Ģê°Ģ</w>
ìĿ´ìĻĢ</w>
íĶĮëłĪìĿ´
ei
ìŀ¥ê´Ģ
ì©
port
íķĺëįĺ</w>
ê°Ģë¥¼</w>
ìĿ´ë²Ī
ëĵ±ìľ¼ë¡ľ</w>
ìĿ¸íķ´</w>
ê·ľ</w>
ìļ°ëł¤
bro
ë³´íĺ¸
gg
ê¸°ì¡´</w>
íĻķë³´
anc
down</w>
ìľ¨</w>
ìŀĲë¡ľ</w>
ë³ĢíĻĶ
ëĵ£
%,</w>
íĥķ
ê³µê¸ī
âĳ
ë¡Ģ</w>
@(</w>
ë°©ë¬¸
ê°ľìĦł
ìĦ¤ì¹ĺ
íķĦìļĶíķľ</w>
ìŀĲëĵ¤ìĿ´</w>
ëĩ
íĺĪ
cap
ìłĦíĸĪëĭ¤</w>
serv
íĥĿ</w>
ìĻĢìĿĺ</w>
fe</w>
íļĮëĬĶ</w>
ë¹Ľ
try</w>
going</w>
ach
ìŀĪëĬĶëį°</w>
ê¸Ģë¡ľë²Į</w>
tv</w>
ë¹Ħíķ´</w>
__
sub
ê°ľìĿĺ</w>
ous
ìħĶ
ìłĲìĿ´</w>
game</w>
ë§ŀì¶
ëĭĺ</w>
íļĮê°Ģ</w>
ê¸°ìĿĺ</w>
gy</w>
ë¥´</w>
fol
ì¹Ń
know</w>
ìĹħë¬´
íķĳ
íĻķëĮĢ
cour
ìĸĺ
êµĲíĨµ
ä¸
ta
ê°ĲìĤ¬
ëĤ´ëł¤
ê¸°ë³¸
har
such</w>
ìĦľë¹ĦìĬ¤</w>
ë²Ħ</w>
ìĪĺìĿĺ</w>
ìĤ¬ë¬´
ì¤Ģëĭ¤</w>
ë¦½</w>
ì°¨ì§Ģ
ëĮĢíĳľ</w>
ìĭłì²Ń
ìĸ´ëıĦ</w>
ìĺ¨ëĭ¤</w>
ans
ê°Ķ
ëħ¸ëł¥
ì°°</w>
side</w>
ìĭ±
ë®¤
íĿĶ
ish
ìĦ¼íĦ°</w>
ê²Ģì°°
íĺĦìĭ¤
ìĹ¬ê¸°
ëħ¹
through</w>
ì¡°ì§ģ
ìĥī</w>
ìłķìĥģ
íı¬ìĿ¸
ful</w>
ìŀ¥ìĹĲ</w>
ê°ĲìĨĮ
um</w>
sted</w>
ëĭ¨ê³Ħ
êµŃìĿĺ</w>
olo
ìºł
ìĿ´ë¤Ħ
ìĪĺìĿµ
íİĢ
ple
ìŀĪëįĺ</w>
ìķĦì§ģ</w>
act</w>
ëĤĻ
íķĺëıĦë¡Ŀ</w>
made</w>
ê·¸ëŁ°ëį°</w>
ìĸ¸ë¡ł</w>
ë¶Ģëĭ´
ìĦłìłķ
ie
should</w>
ê°ľë°ľ</w>
ìĭľíĸī
fun
ë¥´ê²Į</w>
ë°ĽìĿĦ</w>
ëĶĶìŀĲ
ìĿ´ê¸°</w>
ason</w>
ë¯¿
think</w>
ê³µê°Ħ
ìºĲë¦Ń
ê³łëĬĶ</w>
ê·¸ëĥ¥</w>
ë°ĽëĬĶ</w>
ìľĦì¹ĺ
íķĺìĺĢ
fo
ê°ķì¡°íĸĪëĭ¤</w>
wer</w>
ìłķìĿ´</w>
íĮħ
ìĽĲìĹĲìĦľ</w>
ìĿ´ëıĻ
íĸĪëĭ¤ëĬĶ</w>
ëŃĲ
ë¦¼</w>
íĢ
sm
ì³¤ëĭ¤</w>
ìķĮ</w>
ince</w>
pt</w>
ë¢
ëĪĦêµ¬
íķĺê¸°ë¡ľ</w>
ìĤ´ìķĦ
ëıħ</w>
íĦ´
ì£¼ë¡ľ</w>
ë½
ìłķëıĦë¡ľ</w>
ì²ł</w>
ì¡°ìĦł
ë³µ</w>
ange</w>
ì¹¼
ìķŀìľ¼ë¡ľ</w>
led</w>
ìĬ¤íı¬
ì§ĢëĤĺ
ëħĦìĹĲ</w>
ìĨĮë¦¬
ish</w>
ìĿĺíķ´</w>
ìĸ¼êµ´
ì°¨ë¥¼</w>
tre
íĳľíĺĦ
ì¹Ļ
ìłķë§Ĳ</w>
ëıĦìĿĺ</w>
still</w>
ìĭľìĬ¤íħľ
ë³´ëĭĪ</w>
ë³ĳ</w>
ì§ĢëĤľëĭ¬</w>
ìĨĮë¥¼</w>
ê¹Ĭ
good</w>
ë§¨
ìª½</w>
ì§ĳì¤ĳ
lg
ns</w>
dur
ëĭ¥
nor
dic
ì»´
ìĿĺë£Į
ê°ľìĿ¸
ë§¹
ë¥ł</w>
ìĤ¬ìĻĢ</w>
presi
ìĹħìĿĦ</w>
ëĨĵê³ł</w>
ëĮĢê°Ģ</w>
ily</w>
out
ëª©</w>
cle
bre
ìłĦêµŃ</w>
line</w>
ìĿ´ìĿµ
ìľĦíĹĺ
íķŃê³µ
',</w>
ìĺ¤ëĬĺ
ìĿĢíĸī</w>
off</w>
ë²¨
ia</w>
ëĭ´</w>
íĥľ</w>
ìłĦì²´</w>
êµĲìľ¡</w>
ì¶Ķê°Ģ</w>
ump</w>
ìĸ´ëłµ
prob
ìĿ¸ì²ľ
ìŀĲìĻĢ</w>
lin
ê´ĳì£¼
íıīê·ł</w>
dn</w>
come</w>
ìĦľë¡ľ</w>
ful
did</w>
ë©´ìĦľëıĦ</w>
leg
again
ìĬ¤íĨł
ì¹ĺê³ł</w>
ìłĲìĹĲìĦľ</w>
against</w>
íķĺê¸°ëıĦ</w>
ise</w>
ê»ĺ
ëĦĪ</w>
ë¬¸ìłľê°Ģ</w>
ëħĦê°Ħ</w>
ìłģìĿĦ</w>
ìŀĩ
ê³µê³µ
ë¶ĢìĹĲ</w>
ì½ľ
id</w>
ë°ĶëŀĮ
ìĭľë¦¬
ê·¹</w>
ê·¸ê°Ģ</w>
itt
ë²łìĿ´
íĻķì§Ħ
íĸĪëĬĶëį°</w>
âĨĴ</w>
ìĬ¤ëŁ¬
ìĥģìĿĺ</w>
less</w>
ìĹ´ë¦°</w>
ìłľëĮĢë¡ľ</w>
ìĬ¤íĤ
ë¶Ģì¡±
national</w>
ë¶ĦìľĦ
êº¼
ìĹĨìĹĪ
ond</w>
ëĮĢíĳľëĬĶ</w>
tor</w>
ë§¤ì¶ľ
take</w>
ìłĦì²´
ê²½ìłľ</w>
ì¼ľ
ì¤ĳìļĶíķľ</w>
ë¹ĦêµĲ
ëª¨ëį¸
ìľ¼ëĭĪ</w>
call
íĻ©</w>
ì£¼ê³ł</w>
ì¢ħíķ©
ë¿Ĳ</w>
ê°ĢëĬ¥íķľ</w>
ê°Ģê¹Į
ìłľìĭľ
ìĿ½
ë³´ìĺĢëĭ¤</w>
ìľĦìĽĲíļĮ</w>
ì²Ļ
government</w>
grou
ëĲĺë©´ìĦľ</w>
tiv
ë¹ĦíĮĲ
ë¶Ģëª¨
ì¦ī</w>
íĺĦìŀ¬
ìĤ¬ì§Ħ
ëĮĢìĿĳ
ë°ĽìķĦ</w>
ther
ëĤ´ê³ł</w>
ëĭ¬ëŁ¬
dr
ëª¬
íĨµíķ©
fer
ë¥´ê³ł</w>
íĮħ</w>
ê¸°ìŀĲ
ëĬĺìĸ´
ê·ł
ìĦ±ê³¼</w>
cen
story</w>
ìĸ¼ë§Ī
ê°ľë¥¼</w>
gener
produc
ë³´ëĭ¤ëĬĶ</w>
ìĿ¸ê°Ģ</w>
ìĿ¸íĦ°ëĦ
ê°ĢëĬ¥ìĦ±ìĿ´</w>
ëĦ¤ìļĶ</w>
ìļ°ë¦¬ëĬĶ</w>
ìķĪìłķ
ìĬ¤íĦ°
publ
num
ë³µì§Ģ
ë¡ľìĦľ</w>
vers
ìĸ´ë¦°
íĺĳëł¥
lion</w>
ìĺĪìĤ°
ë¶ĢëıĻ
ìĺģíĸ¥ìĿĦ</w>
íĿ¡
ãĢį</w>
ê°ľìµľ
ì¡¸
ê²ĮìŀĦ</w>
ì»¬
ëįĶëĿ¼ëıĦ</w>
ëĭ¬ëŁ¬</w>
want</w>
ë°©íĸ¥
ì¤ĳìĨĮ
ìĤ¬ìĹħìĿĦ</w>
ìĬ¤ë§ĪíĬ¸
fri
ìĺĪ</w>
win
íķĺìĿ´
land</w>
ween</w>
ility</w>
ì¡°ìĤ¬</w>
ë³Ħë¡ľ</w>
kno
ick</w>
ìłľìĻ¸
íĸīë³µ
ë¹Ħë¥¼</w>
tal
ìĤ´</w>
ìķī
íļĮìĹĲìĦľ</w>
ëĵĿ</w>
ìĿ´ìŀĲ</w>
ì¤ĳìĿ´ëĭ¤</w>
ë§Ŀ</w>
up
ìķĮê³ł</w>
cc
resp
wom
ê°ĸê³ł</w>
differ
ass</w>
ìŀĲìĭłìĿ´</w>
ê¸°ìĪł</w>
ìķĬìĿĦ</w>
ì¶ķ</w>
ë°ĺë©´</w>
ë¶ĢìĿĺ</w>
clo
íĸ¥</w>
ìľ¼ë¡ľìį¨</w>
ëį§
ê°Ģê°Ģ</w>
lar
ìĿ¼ìĹĲ</w>
ëıĻìĭľìĹĲ</w>
ì£¼ìĿ¸
under
íļį</w>
ìĸ´ëĶĶ
ë°ľê²¬
says</w>
ann
ê³Ħë¥¼</w>
ê²¨</w>
ë¹ĦìĬ
ìĽĢì§ģ
def
ì²ĺ</w>
ìĺĪìĪł
ëķĮëĬĶ</w>
ë±
ìŀĲëĵ¤ìĿĺ</w>
ìĿ´íĽĦ
ant
medi
ë¦¬ê·¸</w>
ãĢİ</w>
between</w>
íĸĪìľ¼ë©°</w>
ëĭ¹ìĭł
del
íı°
ê·¸ë£¹
three</w>
ìĹŃíķłìĿĦ</w>
buil
ê³¡</w>
ì§Ģì§Ģ</w>
ë»
ãĦ
ì²ĺë¦¬
ëŁīìĿĦ</w>
ì¶ľìĭľ
ìĪĺìļĶ
ìĹ°ê²°
ëŀĲëĭ¤</w>
ê·¸ë£¹</w>
ven</w>
ê³¼ìłķìĹĲìĦľ</w>
ê³µê°Ĳìĸ¸ë¡ł</w>
ìĬ¤ëŁ½
ê°ĦìĿĺ</w>
ë¹ĦìĬ·
ë¬ĺ
ìłķë¶Ģê°Ģ</w>
direc
tical</w>
reg
ë¡¯ëį°
plo
fam
íĸīëıĻ
ìĿ´ë²¤
ì§¸
ìĬ¤íģ¬
ë¬¼ìĿ´</w>
team</w>
ë©Ģ
same</w>
ìĿĮìķħ
ìľ¼ë¡ľëıĦ</w>
any
ìļ°ëĬĶ</w>
ë²Ĺ
ëª»íķľ</w>
ìĤ¬ìĭ¤</w>
during</w>
ari
íĻľìĦ±
ìĦ¬
ìĥģìĹĲ</w>
ëĶ°ëĿ¼ìĦľ</w>
ì¤ĳìĿ¸</w>
ì²¨
ìĤ¬ëŀĮëĵ¤ìĿ´</w>
ëħĦë¶ĢíĦ°</w>
ìĤ¬ëŀĮìĿĢ</w>
ìĿĺìĽĲìĿĢ</w>
fil
ë¢°
ìħ¨
ë¦¬ìķĦ
ìĹĲê²ĮëĬĶ</w>
ì§Ģë¡ľ</w>
ty
requ
íı´
ê·¸ëĮĢë¡ľ</w>
ìłľê¸°
peri
pul
ëĦĲ</w>
ê¸¸ìĿĦ</w>
ëĭ¬ë¦¬</w>
cam
bli
both</w>
stre
ca
íķĺëĿ½
ìĹ¬íĸī
since</w>
ë§ĪìĿ´
íķĺëĭ¤ëĬĶ</w>
ëĿ½</w>
ëıĦìŀħ
ê²°</w>
ì²ĺìĿĮ</w>
ê½ĥ
ìĿĳ</w>
ìķĬëĭ¤</w>
sul
íĺķíĥľ
íĬ¹ì§ķ
íĶĦëŀĳ
íĬ¸ëĬĶ</w>
ì¹ĺê°Ģ</w>
ìĿ¼ìĸ´
ëĲĺë©°</w>
ìĽĢìĿ´</w>
ì°¸ìĦĿ
íķĺê³ł
elec
say</w>
ìĭľìĦ¤</w>
part</w>
around</w>
ters</w>
ep
ìķĦìĦľ</w>
ìī½ê²Į</w>
ìĪĺì¶ľ
ìĶ¨ê°Ģ</w>
ì²ŃìĨĮ
êµ¬ë¥¼</w>
ìŀ¬íĮĲ
ì§Ģê¸ī
ë¹¼
long</w>
ãħİ
íı°</w>
ì±ħìĿĦ</w>
ëķħ
ster
ì¯
íĻĢ
ìŀĪìĬµëĭĪëĭ¤</w>
ë¶Ģë¶Ħ</w>
ìķ¡</w>
ê³µìĹ°
íķ´ìĻ¸
íĺģìĭł
ê³µë¬´
though</w>
ë§İëĭ¤</w>
ì¥
ton</w>
set</w>
ìĿĦê¹Į</w>
íĬľ
ìŀ¥ìķł
les</w>
íķŃìĹĲ</w>
íĸĪìĿĦ</w>
ìĺ¤ëĬĺ</w>
trump</w>
ëį§ë¶Ļ
ìŀĳìĿĢ</w>
ê°Ģì§Ħ</w>
hou
ëĮĢìĭł</w>
ê³¤
ìłĦìŀĲ
ì¶©ë¶Ħ
ìĹ´</w>
ê³¼ëĬĶ</w>
ìĭľê°ĦìĿ´</w>
íĻľëıĻìĿĦ</w>
ê·ľëª¨</w>
ê°ģì¢ħ</w>
ìĿ¼ìĿĢ</w>
ëĢ
íŀĮ</w>
íħĮìĿ´
ë³´ìĿ´
.[</w>
happ
ê²ģ
ìŀĪê¸°</w>
ê°ĢëĬ¥íķĺëĭ¤</w>
ail</w>
ever
need</w>
ìĽħ
íŀĪëł¤</w>
ten
ìłľëĬĶ</w>
ëĮĢëĬĶ</w>
devel
ì¡°ìĦ±
life</w>
spe
ìĪĺëıĦ
íļĮìĹĲ</w>
really</w>
ìĺ¤íŀĪëł¤</w>
ê°ĲìĹ¼
ey</w>
ê°ľìĽĶ</w>
ìĤ¬ëŀĮ</w>
ner</w>
ëĬ¦
ants</w>
íĿ¬</w>
ames</w>
ìĺģíĻĶ</w>
ep</w>
ê²ª
ì§Ĳ
íĥĳ
ê¸°ëĭ¤
ìĭľì²Ń
ëĭ¤ëĭĪ
ìĪĺë¡Ŀ</w>
ìĤ¬ë¡Ģ
ë¹Ħìļ©
ãħĭãħĭãħĭ</w>
ì§Ģì§Ģ
ìĤ¬ë¡ľ</w>
âĪ
ìĦŃ
sting</w>
ëĵ¤ìĹĲ</w>
publi
exp
ë¡ľë¥¼</w>
poli
ë¬»
ìŀĲëĵ¤ìĿĢ</w>
íļĮìĤ¬</w>
ëŀ«
bus
ëĦĺìĸ´
ê´Ģë¦¬</w>
ëĥī
ê°Ŀ</w>
ìłĦêµŃ
public</w>
ven
ong
ëĽ°ìĸ´
ì§ĢëıĦ
ìľĦëĬĶ</w>
íĺķìĦ±
val
ga
ìłķë¶ĢëĬĶ</w>
ef
ìŀĦìĿĦ</w>
ë°ĺìĺģ
ë¶Ħê¸°</w>
ë°Ľìķĺ
ì¹ĺë£Į
fic
ism</w>
ry</w>
ìĤ¬íļĮ</w>
ìĭľê°Ģ</w>
times</w>
another</w>
ë§ĪìĿĦ
ìłľíķľ
city</w>
ìĹĲìĦľìĿĺ</w>
sear
ëıĦìĭľ</w>
own</w>
over
ê¸°íļį
ìŀ¥ê³¼</w>
ìľĦë¡ľ</w>
ways</w>
sive</w>
ë¦¬ì§Ģ</w>
ì¤ĳìĭ¬ìľ¼ë¡ľ</w>
êµ¬ì¶ķ
dat
ìĨįìĹĲ</w>
ìĻľ
ind</w>
ë§ģ</w>
íĻĶê°Ģ</w>
ë¬¸ìłľë¥¼</w>
íĦ¸
ê¸°ìĸµ
ë¦¬ìĿĺ</w>
Ģëĭ¤</w>
----
ë¥¸ëĭ¤</w>
fa
ëĮĢìłĦ
íħĮ</w>
ëĤĺëĪ
'(</w>
ëģĦ
ì´Į
ëłī
sum
ë°¤
íĥĲ
ìĤ¬ëĿ¼
ëĤ¼</w>
ìłķíĻķ
)'</w>
ë°ĶëĢ
eff
ìĨĮëĵĿ
íĬ¸ëŁ¼
ë¿Ĳë§Į</w>
ìĤ¬ìĭ¤ìĿĦ</w>
ê³ĦìĨį
ì¶ľìĹ°
ship</w>
ìĦ°ëĭ¤</w>
ëł¤ê³ł</w>
every
ëŁīìĿ´</w>
ìĸ´ë¥¼</w>
acc
ë²Ķ</w>
mus
ìĭ¤ìłľ</w>
ì²«
íĿĺ
ê¸°ë°ĺ
íĨµíķľ</w>
ì°¸ê°Ģ
íļĮë³µ
ëŁ¬ìĭľ
ìłķë¶ĢìĿĺ</w>
ì§ģìĽĲ
sed</w>
ãħł</w>
ìĸ¸ê¸ī
ìĹŃìĤ¬
ë§Įíķľ</w>
tv
ëĤ´ëħĦ</w>
ìŀĥ
ìį¨
ìĤ°ìĹħ</w>
ê±°ë¦¬</w>
ìłĬ
ë°ĺìĿĳ
sa
ìłģê·¹
contin
ìĺ¬íķ´
ëĤĺíĥĢëĤ¬ëĭ¤</w>
ë¦¬ìĹĲ</w>
ought</w>
ìļ°ë¦¬ê°Ģ</w>
ìļĶì²Ń
indi
president</w>
ìĸ¸ë¡ł
ë°°ìļ°
play</w>
ëªħìľ¼ë¡ľ</w>
ash
ìĹħê³Ħ
ìĿ´ìķ¼</w>
ê³łìļ©
view</w>
ìłĦëĭ¬
lead
ëª¨ë¥´
ê°Ģê³ł</w>
hum
!!
ìĨĮê°ľ
ìĭľíĤ¤ëĬĶ</w>
ìĦľìĿĺ</w>
ì½ĶìĬ¤
nex
íĥĢìĿ´
ëª»íķĺê³ł</w>
ool</w>
under</w>
eu
ward</w>
ë§ĮëĤĺ
ëĮĢë¶Ģë¶Ħ
bri
struc
ìĺģìĥģ</w>
hol
íĬ¸ê°Ģ</w>
ëĿ¼ìĿ¸</w>
bar
ëĭ¤ë©°</w>
ëĤĺìĺ¨ëĭ¤</w>
per</w>
ê°Ĵ
ages</w>
appe
chil
ial</w>
ìµľì´Ī
ë§Īì§Ģë§ī</w>
stem</w>
íķ´ìķ¼
issu
ì¶ĺ
ëĮĢíļĮ</w>
ê·¸ëıĻìķĪ</w>
ìĥ¤
ìŀĲë¦¬</w>
ëħĢ</w>
ìłĦê¸°
ëªħìĿĢ</w>
cent</w>
ê·¸ë¦¬
high</w>
ëħ¼ìĿĺ
ëĤĺëĿ¼</w>
ëį§ë¶ĻìĺĢëĭ¤</w>
ìłĦíĻĺ
ì¹´ëĵľ
íŀĺìĿĦ</w>
ìĿ¸íķľ</w>
ê¸°ê´Ģ</w>
sha
íĥĦ</w>
íķ´ëĭ¹
ì¡°íķ©
ìĭľê°ĦìĿĦ</w>
using</w>
ë©¤
íĻĺê²½</w>
ì¹ł</w>
ê³łë¥¼</w>
ì£¼ëª©
ected</w>
gro
ë°¥
ìłľíĴĪ</w>
adi
ìĪĺìĤ¬
ìĦ±ìĹĲ</w>
ìłĦíĺĢ</w>
stri
ìĦ±ê³¼
ìĪĺíĸī
íĿ¬ë§Ŀ
ê¸Ģ</w>
ëĵ±ë¡Ŀ
ìķĮìķĦ
âĶ
êµ¬ì²´
ëŁ½</w>
ê¼¬
!"</w>
ìŁģ</w>
ìĤ¬ë§Ŀ
ë³´ìĿ´ëĬĶ</w>
ìłķë³´ë¥¼</w>
ì¤¬
ìķ½ìĿĦ</w>
too</w>
des</w>
âĢĿ
mor
tting</w>
ë§Įëĵł</w>
ë¡Ńê²Į</w>
ìĺ¬ë¦¼
ìļ°ìĦł</w>
lim
ì¹´ëĵľ</w>
ëĦĵ
íĵ
ëĮĢíķĻ</w>
ìµľê³ł</w>
ëĤĺëıĦ</w>
every</w>
lan
develop
sim
ìĿ´ëĵ¤ìĿĢ</w>
ëĮĢíĨµëł¹ìĿĢ</w>
incre
ëĭ¹ìĿĢ</w>
ë°ĶëĿ¼
íĿĳ
ìłĲìĿĢ</w>
ìŀħìŀ¥
posi
ìĺģìĥģ
ëģĬ
ìĹ¬ìłĦíŀĪ</w>
place</w>
ëĭ¨ì§Ģ</w>
ê²¼ëĭ¤</w>
ëĭ¨ìĿĦ</w>
ìĦłìĥĿ
contro
ìĨįìĹĲìĦľ</w>
ìĤ¬íļĮìłģ</w>
ì²ŃìĻĢ
ê¼½
told</w>
ê³Ħíļį</w>
end
ëįĶë¶Ī
mini
íķĺëĭ¤ê³ł</w>
ë°©ì¹¨
íİ´
ë·°
ìĦ±ìĿĢ</w>
ëłĪ</w>
ê·¼ëį°</w>
sure</w>
ì¢ĭëĭ¤</w>
ìŀĪëĬĶ
each</w>
ìĭľíĹĺ
ìľ¼ë¡ľë¶ĢíĦ°</w>
ë¦´
ìĿ´ìłĦ
repor
system</w>
íķ´ìĻ¸</w>
ë¬¸ìłľ</w>
ìĭĿìĿ´</w>
íĶ½
íĪ¬ìŀĲ</w>
best</w>
ìķĬìķĦ</w>
ëĩĮ
ëĵ¤ê³ł</w>
ë³´ìľł
ze</w>
ìĤ¬ê±´</w>
consi
ìĸ´ëł¤ìļ´</w>
ìĬ¤íĦ°</w>
ëĮĢíĨµëł¹</w>
wing</w>
ban
ëħ¼ëŀĢ
next</w>
ìŀĲìĤ°
onom
ale</w>
ìħĢ
ris
ìłľì£¼
ë°±</w>
ëĭ¨ê³Ħ</w>
ì¸¡ìĿĢ</w>
ìłĦíĨµ
ê±±
ì¡°ê±´
tes</w>
ê¸°ë¡ĿíĸĪëĭ¤</w>
hn
ìĿĺìĽĲ</w>
ì¦Ŀê¶Į
ì§Ħì¶ľ
ìĸ¸</w>
íĮ¨</w>
íĮĮìķħ
ëĪĦë¦¬
rele
ëĬ¥ëł¥
ê°Ģìŀħ
ê°ķëł¥
book</w>
ê²©ìĿĦ</w>
something</w>
íĺĳìĿĺ
íĻķìĭ¤
ìłĿ
ëĳĶ</w>
ëĮĢíķ´ìĦľëĬĶ</w>
sci
ëª»íĸĪëĭ¤</w>
provi
ìŀĲì¹ĺ
ìłĦìŁģ
ë§ĲìĿ´</w>
ìľĦê°Ģ</w>
ëĤĺìĿ´
respon
stor
ìĹĨìĸ´</w>
ì´¬
wa
ë§ĮìĿĺ</w>
ìĤ¼ìĦ±ìłĦ
ìĦľë¹ĦìĬ¤ë¥¼</w>
ê±°ìķ¼</w>
íļĮìĤ¬
ë§Ĳë¡ľ</w>
ê³³</w>
ìķĦì£¼</w>
wat
ë¬´ìĬ¨</w>
ìĿ´ë©´</w>
ìĪĺë°ĸìĹĲ</w>
bc</w>
ê°Ģìł¸
ë¹Ħê°Ģ</w>
ìļ°ìĪĺ
%),</w>
ì²´íĹĺ
ìŀĲë¦¬ë¥¼</w>
bor
police</w>
point</w>
ality</w>
íĦ°ë¥¼</w>
ì²´ìľ¡
ever</w>
pic
ê²ĢíĨł
let</w>
ëĤĺìĺ¨</w>
ìķĮëł¤ì¡Įëĭ¤</w>
ëĿ¼ë©´</w>
ê·¼ë¡ľ
ìłķìĹĲ</w>
ëª¨ëĳĲ
ghts</w>
ìĿµ</w>
why</w>
ê°Ħëĭ¤</w>
akes</w>
ì°®
top</w>
things</w>
ëıĦìĹĲ</w>
ìĤ¬ê³ł</w>
ìłĦë¬¸ê°Ģ
dri
ê²½ìļ°ê°Ģ</w>
commun
ìĸ¼ë§ĪëĤĺ</w>
ë¯¼ì£¼ëĭ¹</w>
ìĿ´ë£¨ìĸ´
íķľëĭ¤ë©´</w>
ìĭ¬ìĿĦ</w>
ì¹¨</w>
âĵ
ft
curren
ìĿ´ë¯¸
ê³³ìĹĲ</w>
ìłľì¡°
pai
íĺĲìĿĺ
ëŁŃ
et
ë³Ģ</w>
lot</w>
ìĬµ</w>
ìĭľìŀĳíĸĪëĭ¤</w>
ê°ĢìĦľ</w>
ëħ¸ëŀĺ
form</w>
ëĤľëĭ¤</w>
ì¹ł
accor
ìŀ¥ìľ¼ë¡ľ</w>
íķ¨ìĿĦ</w>
ìľłëŁ½
never</w>
êµ¬ê°Ģ</w>
ìłģìĿĢ</w>
ë¶ĢìĤ°</w>
ëĵľìĿĺ</w>
ë§Īì°¬
ìĿ¼ë°ĺ</w>
ëĿ¼ìļ´
ë§Įëĵ¤ìĸ´</w>
ìµľ</w>
ject</w>
ìľ¼ë¡ľìĦľ</w>
ìĹ¬ìķ¼</w>
ìĿ¸ìĤ¬
ëª©ìĨĮ
pat
êµ¬ë§¤
ìĪľ</w>
season</w>
ê³µìĭĿ</w>
ìľ¨ìĿ´</w>
ì½ĺíħĲ
sto
íĸ¥íĽĦ</w>
ices</w>
sour
bur
ìļ°ìĬ¹
ìķ¨
ëĺĳ
ready</w>
found</w>
ëģĮìĸ´
ling</w>
ìĦ¸ê°Ģ</w>
tis
ëªħíķľ</w>
ìĺ·
ìĻķ</w>
gra
com</w>
ê²ĥìĹĲ</w>
ë³Ģíĺ¸
ëĤĺë¬´
ê²°íĺ¼
ìĤ¬íķŃ
ëĵ¤ìĹĪëĭ¤</w>
ìŀĳìĹħ
high
ê¸°ìĹħìĿĺ</w>
ëĭ´ëĭ¹
main
ë²ķìĿĦ</w>
house</w>
íķĺë£¨
ë¶ĢíĦ°
tor
put</w>
pho
íĸĪìľ¼ëĤĺ</w>
íĽĪëł¨
ë¶ĦìĿ´</w>
ens</w>
news</w>
ê²łëĭ¤ëĬĶ</w>
âĢĻ,</w>
ê¸°ìĻĢ</w>
ìĿ¼ìľ¼
ìģĺ
ëĶ©
does</w>
ìĹĦë§Ī
ìłĦíĪ¬
âĢ¦âĢ¦
ê³łëĵ±
ëĤĺë¥¼</w>
âĵĴ</w>
âĪ¼</w>
gan
few</w>
ëĶ¸
ìĩĦ
arly</w>
ëĤĺìĻĶëĭ¤</w>
ë¬´ë¦¬
ìĭ¤ìłľë¡ľ</w>
ë§ĮìĿĦ</w>
change</w>
íı¬ìĿ¸íĬ¸</w>
ì¦ī
ê¼Ń</w>
ê³łë¯¼
íķĺë£¨</w>
íĵ¨
heal
her
ëĨĴìķĦ
ë½ĳ
ëĤĺìĺ¤ëĬĶ</w>
states</w>
ìĭľìĿĺ</w>
ak</w>
íĻķìĤ°
íĬ¸ìĿĺ</w>
ëıĪìĿĦ</w>
group</w>
ìĹŃìĿĦ</w>
sible</w>
bers</w>
cha
great</w>
ëĭ¹ìĿ´</w>
ë³´ê±´
êµŃíļĮ</w>
ëĤĺìĿĺ</w>
sou
vir
home</w>
ìĺ®
ë¶ĦìĿĦ</w>
ë§ĮìĽĲ
howe
ë³¸ê²©
ë¶Īêµ¬
however</w>
ê²ĥìĿ´ëĿ¼ê³ł</w>
ì¡°ê¸Ī</w>
ëĵľê°Ģ</w>
ê¸°ëħĲ
ìķĦëĬĶ</w>
íķĻìĥĿ</w>
stan
ì£¼ë³Ģ
ìłľì¶ľ
ê°ĲìĿ´</w>
ê³µìĤ¬</w>
ì§Ģì¼ľ
ìĿ´íķĺ</w>
ìķĦíĮĮíĬ¸</w>
ìķĦë¦Ħ
ìĸµìĽĲìĿĦ</w>
ìĽłëĭ¤</w>
without</w>
ìĬ¤ìĻĢ</w>
ki
ì°Į
ko
ìĿ¸ë¬¼
ëĲĺê¸°</w>
ìĹħì²´</w>
ë©ĺ
ê°ĢìĿĺ</w>
íĸīìĤ¬
look</w>
ë¬¸íĻĶ</w>
ìŀĸ
stat
ëĬĲëĤĮ
ric
ãİ¡</w>
ìŀĲëıĻì°¨</w>
show</w>
ìĸ´ë¨¸ëĭĪ
ìĭĿìľ¼ë¡ľ</w>
ì¡°ìłķ
ê³¤</w>
ìĦ¸ëĮĢ</w>
íĶĦë¡ľìłĿ
ide
ìĹ¬ëŁ¬
ìļ´ìĺģ</w>
ê³łëıĦ</w>
ê´ĳ</w>
ìĹĲìĿ´
ëĮĢíķľë¯¼
ìĺĢëįĺ</w>
trans
ìĭľë¥¼</w>
ques
ë©¸
ê³§</w>
ê°ľìłķ
ort</w>
beg
might</w>
ë¬¸íķĻ
ëĭ¹ìĿĺ</w>
ìĿ¸ê³¼</w>
ìķĦëĭĪ</w>
ë§ĮìĿ´</w>
cas
ìŀĲìĹĲ</w>
ìĿ´ëĵ¤</w>
according</w>
ê´Ģìĭ¬ìĿĦ</w>
inform
ë°©ìĨ¡</w>
appro
ili
êµ°ìĿĢ</w>
ëįĶëĭĪ</w>
ë³ĳìĽĲ</w>
ë¶Ħìĸĳ
ê·¸ë¦¼
ìĪĺìŀħ
power</w>
ì²ŃëħĦ
ê°ĦìĹĲ</w>
ëĤ´ìļ©ìĿĦ</w>
ëĭ¤ë¥´
ìŀĲìĹĲê²Į</w>
ìĤŃ
ëĭ¹ìĹ°
ìķĦìļĶ</w>
litt
ìŀĳìļ©
ãħİ</w>
ìĿ´ìķ¼ê¸°
ìŀĲìĦ¸
ì¾
ìłķë³´</w>
ëĭ¹íķľ</w>
ìľĦìĿĺ</w>
ìĬ¤ìĬ¤ë¡ľ</w>
fre
econom
ëĶĶì§Ģ
resul
ë²Įìĸ´
adv
called</w>
ãħĭãħĭãħĭãħĭ</w>
ëĦ¤ìĿ´
including</w>
roo
ì²´ë¥¼</w>
ems</w>
ëĮĢìĥģ</w>
??</w>
ëĭ¨ìĿĢ</w>
different</w>
ìĽĶë¶ĢíĦ°</w>
ë§Īì°¬ê°Ģì§Ģ
ãĢı</w>
íĹ¬
week</w>
ìŀ¬ë¯¸
ë¶Ģìłķ
ê°¤
ëĭ¤ìĿ´
ìłķì±ħ</w>
ë³´ëĤ´
ìĭľìĬ¤íħľ</w>
ê´ľ
ì£¼ê°Ģ</w>
ìĿ´ìķ¼ê¸°ë¥¼</w>
ê¸°ì´Ī
äº
ìĿĺíķľ</w>
spo
ìĥģíĻ©ìĹĲìĦľ</w>
mic
little</w>
ëª¨ë°Ķ
os</w>
--</w>
rus
ìĭłê·ľ</w>
ê·¸ë¥¼</w>
íĨµìĭłìĤ¬</w>
ë°ĺê¸°</w>
ìķĦëĭĮ
íĺ¹ìĿĢ</w>
ì§ĢìĻĢ</w>
ë³Ģê²½
ìĤ¬ìĭ¤ìĥģ</w>
million</w>
ëĤĺìĻĢ</w>
ects</w>
ë¶ĦìĹĲ</w>
ìĹ°ìĨį</w>
ently</w>
íĦ´</w>
case</w>
got</w>
son
ë¡ľìĿĺ</w>
ìĹĲë§Į</w>
ams</w>
number</w>
ìĹ¬ìĦ±</w>
ìĸ¸ìłľ
ëĮĢì¶ľ
ë¸Įëŀľëĵľ</w>
ì½¤
ìĹĨëĭ¤ëĬĶ</w>
co</w>
tain
ìŀ¥ê¸°
ë¿Į
ê°ľìĽĶ
help</w>
ë³´ëıĦ
êµ¬ëĤĺ</w>
ëĬĲëģ¼
data</w>
ìĺĨ
ê·¸ëŀĺëıĦ</w>
ê³µìłķ
ìĿ¼ëĭ¨</w>
prof
ëĮĢíķ´
ìµľì¢ħ</w>
ìĭľì¼ľ</w>
ìĮĵ
ual</w>
part
íĺĦì§Ģ
íĶĦëłĪ
íĻĶëĲľ</w>
cul
ìĹĨê³ł</w>
ìķ¤
ìľĦíķ´ìĦľëĬĶ</w>
ket</w>
íĬ¸ëŁ¼íĶĦ</w>
med</w>
ë¯¸êµŃìĿĺ</w>
êµŃê°Ģ</w>
ê±°ì³Ĳ</w>
ments</w>
ê¸į
)âĢĻ</w>
big</w>
ces</w>
ì£¼ë¥¼</w>
ë¬µ
âĺ
ìĭ¤ìĿĦ</w>
ëĵ±ìĿĢ</w>
support</w>
.></w>
proble
ìħĪ
ìĤ¬íĥľ
ì¸¡</w>
ëĵľìĭľ</w>
wal
íıŃ</w>
ì§Ģíķĺ
comple
da
ths</w>
ìĿ¸ìľ¼ë¡ľ</w>
ë§ĪìĿĮìĿĦ</w>
ë©´ìĿĦ</w>
ë°Ķíĥķ
ìĹ¬ìŀĲ
ìľ¼ë©´ìĦľ</w>
ìĦ¤ë¦½
second</w>
ëĭ¤ê°Ģ
ê±´ì¶ķ
ìłĦìĭľ
cro
ìĭłê³ł
ëĥĪ
ìĽħ</w>
ãħłãħł
ë¯¸ëĶĶ
å¤
american</w>
ë§Īì¼Ģ
êµ¬ëĬĶ</w>
ë°ĺëĵľìĭľ</w>
ìĦ±ìĿĺ</w>
offici
country</w>
íķŃìĥģ</w>
better</w>
ìĿĢëį°</w>
ìĹĪëįĺ</w>
ìĽĶëĵľ
air
ëĭ¨ìĪľ
íļĮìŀ¥ìĿĢ</w>
ë¹¨ë¦¬</w>
ember</w>
ê´ĢìĿĦ</w>
ìķł</w>
ì°¨ê°Ģ</w>
ëĳ¥
ëī´ìĭľìĬ¤
head</w>
ased</w>
íĮĮìĿ´
ì°½</w>
ys
ìĮį
ê²°ê³¼ë¥¼</w>
ë²Ķì£Ħ
ëª½
ì¶ľìĭł
doc
ê·¼ë¬´
ìºĲë¦ŃíĦ°
ìĬ¤ëŁ¬ìļ´</w>
ìĿ´ìĥģìĿĺ</w>
ê¹Ķ
ë¬¸ìłľëĬĶ</w>
ama</w>
ëıħë¦½
ëĮĢêµ¬</w>
ìŀĲì£¼</w>
plan
body</w>
ìľłì¹ĺ
ìĸ´ì©
ëĮĢì±ħ
nat
ëĵ¯ìĿ´</w>
ëĮĢë¶Ģë¶Ħ</w>
êµ¬ìĿĺ</w>
íķľíħĮ</w>
íķĺëĿ¼</w>
ë°ĽìķĦëĵ¤
ìķħ</w>
dra
left</w>
ìŀĲê¸°
ìĶ¬</w>
ì§Ģìłķ
íĶĦë¡ľê·¸ëŀ¨</w>
ìĬ¤íĭ°
íĪ¬íĳľ
cra
ê°ĢìĬ
auth
clai
ì¡°ê¸Ī
ped</w>
ë§Įì¡±
ë¹Ļ
ëĮĢíĺķ</w>
ë¹Ħì¤ĳ
iting</w>
actu
ìĬ¤ìĹĲ</w>
ìķĦì§ģ
ì§Ģë©´ìĦľ</w>
ìŀĪì§Ģ</w>
exam
ì§ĢìłģíĸĪëĭ¤</w>
ately</w>
ë°ĺëĮĢ
ìĹ¼</w>
ì°¨ë¡Ģ</w>
women</w>
ìĭ«
íį¼</w>
ìľłìĿ¼
íĸīìĿĦ</w>
public
ë¥łìĿ´</w>
íļĮìŀ¥</w>
¨ëĭ¤</w>
ìĶ¨ìĿĺ</w>
ëī´ìĭľìĬ¤íĨµìĭłìĤ¬</w>
ë²ĦìĬ¤</w>
ins</w>
ê¸Īìķ¡
íķĺëĤĺìĿĺ</w>
ê²ĥê³¼</w>
ëªĩ
ìĭ¶ëĭ¤</w>
ê°ķíķľ</w>
hu
ìĭ¤íĮ¨
read</w>
êµŃìĿĢ</w>
sing</w>
ìĭĿíĴĪ
íĻķìłķ
ìŀħìĿĦ</w>
ì¤Ħìĸ´
ìĽĢ</w>
æľ
âĹĩ</w>
ë¹Ħë¡¯íķ´</w>
free</w>
hal
vel</w>
ìŀĺëª»
find</w>
oper
ìĥģìĿĢ</w>
ë¶ĢìĻĢ</w>
íĻľëıĻ</w>
ëĮĢì¤ĳ
chang
ìłĲìľ¼ë¡ľ</w>
maj
ìķĪìĿ´</w>
ì§Īë¬¸
company</w>
ìķŀìĹĲ</w>
ëĮĢíĨµëł¹ìĿ´</w>
ably</w>
íķĦìļĶíķĺëĭ¤</w>
law</w>
íķ©ìĿĺ
ìĪłìĿĦ</w>
ished</w>
íĺĢ
ìŀĪìĹĪëįĺ</w>
turn</w>
see
ëĭ¬ëĿ¼
ìĤ¬ëŀĮëĵ¤ìĿĢ</w>
ëį°ëıĦ</w>
ìĬ¨
ì§ĪìĿĦ</w>
ë§Ĳíķľëĭ¤</w>
busin
ìĨĲìĿĦ</w>
ì£¼ìĭĿ
ben
ëĤ´ìĹĲ</w>
whe
proc
ìłĦíķ´
coll
ìĺĪë°©
ëħĦê¹Įì§Ģ</w>
ì¾Į
íķ´ìĦĿ
ëłĪìĿ´</w>
ëħĦìĿĦ</w>
resear
han
ì£¼ìŀ¥íĸĪëĭ¤</w>
ì§Ŀ</w>
ëĴ·
ìĸ´ë²Ħ
.'</w>
ìĿ´ëĿ¼ëıĦ</w>
equ
recor
íļ¨ê³¼ë¥¼</w>
based</w>
íĻľ</w>
ential</w>
ì§ĢíĤ¤
íĦ¸</w>
ëĤĺë¨¸
ì§ĢìļĶ</w>
ëª¨ìĸĳ
organ
ë§ĮëĵľëĬĶ</w>
íķ¨ìľ¼ë¡ľìį¨</w>
ìĨĮìŀ¬
íĻĶìŀ¥
ìłĦë§ĿìĿ´ëĭ¤</w>
ê°Ģê²©</w>
ìŀĲìĭłìĿĦ</w>
ëıĦìĻĢ</w>
den
ger
desig
follow
ìĺ¬ë¦¬
ìĽĲíķĺëĬĶ</w>
ëĭ¨ìĿĺ</w>
ìĨĮìĨį</w>
íĤ¹
ìĿ¸ìĭĿ
ìľ¨ìĿĢ</w>
ë°©ìķĪìĿĦ</w>
êµ³
ìĪĺìĪĺ
ëĮĢíĻĶ
ness</w>
ë¡¤
ì¯¤</w>
ats</w>
íĽ¨
gl
ìłĢëĬĶ</w>
íĶ½</w>
ëĭ¤ìļ´</w>
íķĦìļĶê°Ģ</w>
ëł´
ê²ĥì²ĺëŁ¼</w>
ìłĲìĹĲ</w>
ina</w>
íĪ¬ìŀħ
ìķŀëĳĲê³ł</w>
ìĭľì¦Į
pur
war</w>
action</w>
dge</w>
lik
íķĺëł¤ëĬĶ</w>
ì¼ĵ
ë¶ģíķľ</w>
ëĪĪìĹĲ</w>
âĹĨ</w>
ìĻĢìĦľ</w>
ìłģìĿ´ê³ł</w>
demo
íıīíĻĶ
íĨµê³¼
ini
íıīê°Ģ</w>
bs
ëĦĪë¬´
íķ´ìĸĳ
tics</w>
ìłķìĿĢ</w>
information</w>
ëıĦë¡ľ
ìĵ¸
ìłģê·¹</w>
ìĿ´ëĿ¼ë©´</w>
eas
ìĹĨìĿĦ</w>
êµ°ìĿĺ</w>
didn</w>
ìŀĲìĽĲ
date</w>
ëĤ¨ìĿĢ</w>
ë©ĭ
ì¦ĿìĿĦ</w>
íķľë²Ī</w>
air</w>
ëĮĢì²´
ìľłíĨµ
ìĨĲ</w>
ëĲł
import
nec
êµŃíĨł
ê²ĥìĿ´ëĿ¼ëĬĶ</w>
ê³³ìĹĲìĦľ</w>
ë°ĶëĢĮ
ìļĶì¦
ìĪĺìĥģ
again</w>
're</w>
party</w>
ìĥģíĻ©ìĿĦ</w>
ëħĦëĮĢ</w>
ê°ľíĺģ
ëĭ¨ìĿ´</w>
ëĤĺìĦľ
ìĨĮìĨį
ë³¸ëĭ¤</w>
ë§ŀìķĦ</w>
univers
ability</w>
íİľ
ê²¬</w>
ë¬´ìĹŃ
ìĭłìļ©
ìĿĺë¬´
ì§ĳìĹĲ</w>
united</w>
ì°¬</w>
sever
ë¶Īêµ¬íķĺê³ł</w>
ìĬ¤ì½Ķ
don
ìĹĲëĦĪì§Ģ</w>
ously</w>
íĪ¬</w>
íħį
az
men</w>
ìĭľìŀ¥ìĿĢ</w>
ë¸ĮëĿ¼
ìĿ´ìĤ¬
four</w>
íĽ¨ìĶ¬</w>
íķĺëĬĺ
åħ
ative</w>
ëª©ìĿĦ</w>
ê´ĢìĿĢ</w>
ìŀĲë³¸
ëıĦìĽĢìĿ´</w>
íķ´ìļĶ</w>
white</w>
ëĭ¨ì²´</w>
ê²Ģ</w>
ìĨĮìľł
ology</w>
nee
vide
ìļ¸ìĤ°
ê¸°ìĪłìĿĦ</w>
ìŀĦëĮĢ
ë¶Ģë¬¸
ë°ĶìĿ´ëŁ¬
ìĭľìĬ¤</w>
ìĺ¬ëŀĲëĭ¤</w>
ë´Ĳ</w>
ì£¼íĥĿ</w>
percent</w>
ë©´ìĹĲ</w>
ë¹ħ
ìĹ°íķ©
ë©¤ë²Ħ
stitu
tain</w>
ì§ĢìĹŃìĿĺ</w>
ëıĪ</w>
mc
ìĻĢëĬĶ</w>
ê¸°ì¡´
ìľ¨ìĿĦ</w>
ìĹĳ
ê²½ìĿĦ</w>
ê³µìľł
ìłĦìĹĲìĦľ</w>
art</w>
rela
boo
est
íĽĪ</w>
ìķĦìĭľìķĦ
íĻįë³´
ìĪĺë¡ľ</w>
êµĲìĪĺëĬĶ</w>
íħľ
ìĿĺê²¬ìĿĦ</w>
ìĿ´ê¸°ëıĦ</w>
esti
ëĳĺëŁ¬
íĬ¸ë¡ľ</w>
ëĤ®ìĿĢ</w>
ì´Īëĵ±
ìĭ¬ê°ģ
ìĦłë³´
ì²´ê²°
ê·¸ê²ĥìĿĢ</w>
ìĤ´íİ´
ê¸°ê³ł</w>
ls</w>
ê´ĢìĿ´</w>
ick
ë§¨</w>
ì°¸</w>
today</w>
ëĥ¥
ìĻĦìłĦíŀĪ</w>
ë¸Ķëŀ
ìķ½ìĨį
name</w>
ìĤ¬ëŀĮìĿĺ</w>
later</w>
plic
ëĭĿ</w>
íķĺìĭľ
ìĦłë°ľ
dents</w>
far</w>
íķĺìļ°
ì²ĺìĿĮìľ¼ë¡ľ</w>
ìª½ìľ¼ë¡ľ</w>
thers</w>
íĺľíĥĿ
ë³´ê¸°</w>
ê°ľëħĲ
ìıŁ
ëıĻìĿ¼
ìĸĺê¸°
ë¸Ķ</w>
ëĶľ
ìĨĮê°Ģ</w>
il</w>
ìħĺìĿĦ</w>
ì°¨ë³Ħ
íģĲ
money</w>
fiel
run
ital</w>
ì§ĳìĿĦ</w>
ëł¤ëĬĶ</w>
ìĺģêµŃ</w>
ìĺ¤ë¥¸</w>
íĬ¸ë¦¬
ê·¸ëŁ¼</w>
ëĵĢ
ê±´ìĿĦ</w>
ys</w>
)<</w>
ìĿ´ë¦ĦìĿĦ</w>
light</w>
íĸĪìĬµëĭĪëĭ¤</w>
íĶ¼íķ´</w>
ì«
....
popul
ìłľìķĪ
ëªħìĹĲ</w>
ì°¨ëŁī
ìĭłë¢°
hard</w>
ìŀĲëıĻì°¨
ê°Ģì¡±</w>
ë¶ĢëıĻìĤ°</w>
ê¸ĪìĿ´</w>
ëª»íķĺëĬĶ</w>
ë§Īì§Ģë§ī
ê°ĳìŀĲê¸°</w>
ë¦¿
ìĹ¬ê¸°ìĹĲ</w>
ëĤ´ëĨĵ
ë°ĳ
ê¾¸ì¤Ģ
ìµľê³łìĿĺ</w>
away</w>
ê´ĳì£¼</w>
//</w>
íģ¬ë¡ľ
ëŀĢëĭ¤</w>
ë°Ķê¿
ìłĳê·¼
ë°Ľì§Ģ</w>
ìĤ¬ìļ©</w>
ì¤ĺ
ê²½ìļ°ìĹĲëĬĶ</w>
mr</w>
ìĤ¬ìĿ´ìĹĲ</w>
ì§ĢìĽĲìĿĦ</w>
íķĺê²łëĭ¤ëĬĶ</w>
íķĺê¸°
ëŃĶ
ëĿ¼ìĿ¸
êµŃìłķ
ë¶Īê³¼
ìĿ¸íĦ°ëĦ·</w>
making</w>
ê°Ģìłķ
ìŀ¬ìĤ°
tice</w>
ì¶ĺ</w>
ë§º
ow
school</w>
,#</w>
ìĹĪê³ł</w>
ê´Ģëł¨íķ´</w>
ìķĬëĬĶ
ìĥģìľ¼ë¡ľ</w>
ìłľìĿĺ</w>
always</w>
ê¹Įì§ĢëĬĶ</w>
ê´Ģê³Ħë¥¼</w>
face</w>
recei
polic
vol
grap
ë²¨</w>
ìĤ¬ëŀĮìĿĦ</w>
íŀĺëĵ¤
ìĭłìĿĦ</w>
íĥĢê³ł</w>
ë°ľìĸ¸
vic
ì£¼ëıĦ
night</w>
ì§§
ê¸°ì¤Ģìľ¼ë¡ľ</w>
íĮĲë§¤</w>
days</w>
ìĹĦì²Ń
ë§¤ëħĦ</w>
ë¸Įë¦¬
sing
ìĻĦìĦ±
experi
media</w>
íĨłë¡ł
ëĵľë¦¬
ìłĦë°ĺ
wil
ë¨¹ê³ł</w>
ìĿĮìĭĿ
ìłľëıĦ</w>
ë§ĲìĶ
ìĥģëĭ¹íŀĪ</w>
ë°Ķíĥķìľ¼ë¡ľ</w>
ìŀħìŀ¥ìĿĦ</w>
ë¬¼ìĿĺ</w>
ë§ĪìĿĦ</w>
ult</w>
ëĦ¤íĬ¸
ì¡°ì°¨</w>
íĶĮëŀ«
ê³¼ìłķìĿĦ</w>
ball</w>
ìĹħê³Ħ</w>
ê¸°ìĹ¬
ê°Ģë¥´
fore
ê°Ģêµ¬</w>
family</w>
key</w>
ê·ľëª¨ìĿĺ</w>
already</w>
ëĤĺìķĦ
ìĽĲê³¼</w>
ìĿ´ìľłëĬĶ</w>
ping</w>
once</w>
new
ì±Ļ
ì±Ķ
ìļ°ë¦¬ìĿĺ</w>
ì¡°ìĤ¬ë¥¼</w>
ë°¤</w>
ê¹ĮìļĶ</w>
ìŀĲë£Į
ones</w>
ì§ĦìĿĦ</w>
ê³ĦíļįìĿĦ</w>
ëĤĺìĦľ</w>
ai</w>
ìŀ¬ìłķ
ìŀĲì²´</w>
ìĿĺíĺ¹
ìŀĲìĿ¸</w>
ìłł
ê¶ĮìĿĺ</w>
ìĥģëĮĢë¡ľ</w>
ë¯¼ê°Ħ
ë°ĺëıĦ
____
ì£¼ìĿ¸ê³µ
íĽĦë³´</w>
ë¥¼
ë¹ĦìĬ·íķľ</w>
ê´Ģê³Ħ</w>
real</w>
ì´¬ìĺģ
ses</w>
ìĭ¶ìĿĢ</w>
net
íķµìĭ¬
ëĭĿ
ì°½ìĹħ
ëŀľëĵľ</w>
ìĺ¤íĶ
ìĿ´ìĹĪëįĺ</w>
belie
sco
ì§Ģë°°
ë³´ìŀ¥
ìĸ´ê°Ģ</w>
ìłĢëħ
íĺľ</w>
ìłģìĿ´ëĭ¤</w>
techn
ced</w>
ders</w>
cho
ë§ŀëĬĶ</w>
íĶĮëŀ«íı
ê´Ģìĭ¬ìĿ´</w>
ìĹĲìļĶ</w>
ëķĮë§Īëĭ¤</w>
íĺķìĿĦ</w>
ë¹Ħë¡¯íķľ</w>
ëĤĺê°Ī</w>
ì¢Ģ
ìłĲê²Ģ
ìłķê·ľ
cou
aying</w>
secur
ìĺĪë¥¼</w>
ë°©ë²ķ</w>
ìķĦìļ¸
ì¶Ķì²ľ
ëĮĢìłĦ</w>
ê³¼ê±°</w>
ath</w>
love</w>
íķ´ë¥¼</w>
ë°©ì¹¨ìĿ´ëĭ¤</w>
ìłĦíĻĶ
ìĭľìŀ¥ìĹĲìĦľ</w>
ê»´
rel
ì§ķ</w>
ì¤ĳëĭ¨
manag
til</w>
íķľêµŃìĿĺ</w>
ëĮĢíĨµëł¹ìĿĺ</w>
ago</w>
ê´ľì°®
ìĬ¤íİĺ
ìĭ¬íŀĪ</w>
ìĦłìĸ¸
men
ëį°ë·
ìŀ¡ê³ł</w>
ë´Ħ
íŀĲ
ìĨĮíĨµ
ìŀĲì²´ê°Ģ</w>
je
ìľłíĬľ
ëĭ¬ìĦ±
ìĬ¤íĭ
ator</w>
ê²½ëĤ¨
ìĥĿìĿĦ</w>
ìłĦìĿ´</w>
íĻķëĮĢ</w>
ì¼Ģ</w>
ì¢ħìĿĺ</w>
ê³łìĨį
ìĦłìĪĺ</w>
ë©Ķìĭľ
order</w>
ë¦¬ìĻĢ</w>
ìĦľë¹ĦìĬ¤
ëŀµ</w>
ìŀĬ
ëįľ
ìķĬìľ¼ë©´</w>
íĬ¸ìĹĲ</w>
ìłľíĴĪìĿĦ</w>
ë¶Ħëªħ
ìĿ´ìĿĺ</w>
ëĤĺê³ł</w>
ìķĦìķ¼</w>
ê²łëĭ¤ê³ł</w>
ìĿ´íķĺ
ë°°ì¹ĺ
working</w>
ê±´ìĦ¤</w>
ìĨĮìĨ¡
ìĬ¤ëŁ½ê²Į</w>
ìĦłìĿ´</w>
ìĨĮìĹĲ</w>
ì»´íĵ¨
ê¸°íļĮë¥¼</w>
paig
ë´¤ëĭ¤</w>
ì§ģìĽĲ</w>
aff
ìĹ¬ë¡ł
youn
ìĭłë¬¸
íķĻìĬµ
ë°©ìĸ´
ë©´ìĹĲìĦľ</w>
íĶ¼íķ´ë¥¼</w>
ê·¼ê±°
ì»¤</w>
ìľłëŁ½</w>
ï¼Ľ</w>
must</w>
dence</w>
ìķŀìĹĲìĦľ</w>
wid
nam
regi
ì¶Ķì§Ħ</w>
ìłģìłĪ
games</w>
post</w>
ìħĭ
mul
sit
campaig
íļ¨ìľ¨
inde
íĺ¸ë¥¼</w>
ate
íļ¨ê³¼ê°Ģ</w>
ë§ĮìĽĲìĿĦ</w>
ìĭľëıĦ
ìĹ°êµ¬</w>
ori
ìĥģëĭ´
ëĤĺëĪĦ
ìķĦëŀĺ
known</w>
ìĿ´íĥĪ
ìĪĺìļ©
ì²ŃìĿĢ</w>
until</w>
fact</w>
íķĻê³¼</w>
ìĦłê±°</w>
run</w>
euro
ìĿ¸ì²ľ</w>
ë¶Ģë¥´
fic</w>
ì²´ê³Ħ
political</w>
wer
zed</w>
ëį°ëĭ¤</w>
acy</w>
cover
êµŃìĿ´</w>
ê·¸ëħĢëĬĶ</w>
ìĿ´ëģĮ
íĶĮëŁ¬
ìľµ</w>
ìĭľìŀ¥ìĿĺ</w>
ë°Ķê¾¸
íĻĶìĹĲ</w>
ëĵľëĿ¼ë§Ī</w>
ìĥĿëªħ
ìķĦëĤ´
reli
ë¶Ħìķ¼</w>
net</w>
ê°ķìĽĲ
ìµľì´Īë¡ľ</w>
ë¦¬ê¸°</w>
ìĽĲì¹Ļ
full</w>
ë¶ĪìķĪ
íĤ¹</w>
fied</w>
ìĹ½
does
ìļ´ìļ©
ìłķìĿĺ
ãħĩ
health</w>
ìĻ¸êµĲ
kt
che
!!</w>
ì§Ħíĸī</w>
ì¶ľë°ľ
ìłĦìĿĺ</w>
ë°©ìĭĿìľ¼ë¡ľ</w>
ëĮĵ
tal</w>
ics</w>
ëıĮ</w>
ìķĪíĥĢ
ê³µë¶Ģ
ê°Ģë©´</w>
start</w>
doesn</w>
ê³µëª¨
plac
yet</w>
dro
ë¦¬ë¡ľ</w>
ëĬĲëĥĲ</w>
íķ´ìĦľ
íķľëį°</w>
ìĹĦ</w>
ì§Ģêµ¬
report</w>
ker</w>
ìĭľíĤ¬</w>
âĢĻ(</w>
íĥĵ
ìĨĮë°©
ìĺ¤ë¥´
requi
ì¹´ë©Ķ
ëª¸ìĿĦ</w>
water</w>
íĽĦìĹĲ</w>
cep
ê¸ĢìĿĦ</w>
ìĦ¤ìłķ
ê°Ģì¹ĺ
êµ°ìĿ´</w>
ëĭĺìĿ´</w>
ìļ°ê³ł</w>
former</w>
ìĿ¼ìĿĺ</w>
tro
ìŀī
ë°ĿíĺĢ
university</w>
ë¶ĢìĹ¬
ê²łì§Ģë§Į</w>
ë¶ĦìĿĺ</w>
íĬ¹ìĪĺ
ëĭ¬ëĿ¼</w>
ëĲľëĭ¤ëĬĶ</w>
ëĨĴëĭ¤</w>
ìĵ°ëĬĶ</w>
foo
ìŀĲëŀĳ
ê·ľìłķ
ë¥łìĿĦ</w>
ì§ĢëĤľíķ´
ìŀĪëĭ¤ë©´</w>
mer
ëĭī
ë°Ķëĭ¥
íĴĪìĿĦ</w>
fur
possible</w>
pass
ì²Ńêµ¬
open</w>
sal
ê²½ê¸°ëıĦ</w>
ì²´ê°Ģ</w>
ìłĬìĿĢ</w>
ì§Ģë©´</w>
ì¹Ń</w>
ëĬĶê°Ģ</w>
least</w>
ìĹĨëĭ¤ê³ł</w>
.,</w>
ency</w>
ê°ķëł¥íķľ</w>
enough</w>
íħĶëłĪ
ë´ī</w>
ãĨį</w>
ìĽĮíģ¬
ë³´ìŀĲ</w>
ëĤĺë¨¸ì§Ģ</w>
ures</w>
ëĤ´ì§Ģ</w>
ê²ĥìŀħëĭĪëĭ¤</w>
ìŀĪìľ¼ë©´</w>
ê³¼ê±°
ëŀŃ
ìĹ°ê¸°
ë°Ķëĭ¤
ìĭŃ</w>
bit</w>
ëł¥ìĿĢ</w>
ëħĦìĹĲëĬĶ</w>
ëĵ¤ë¡ľ</w>
ì§Ģê²Į</w>
ëĤĺìĻĶ
ìĭľìłĪ
ì§ĢìĨįìłģìľ¼ë¡ľ</w>
ì·¨ìĹħ
êµ°ìĤ¬
ìĥģíĻ©ìĿ´</w>
ë°±íĻĶ
ëĮĢíķĻêµĲ</w>
tors</w>
tex
sions</w>
court</w>
ìĬ¤íĶ¼
êµ´</w>
ision</w>
ìĭľë¦¬ì¦Ī
ë¯¼ì¡±
íħĶ</w>
ì¶ķêµ¬
hom
ë¶Īíİ¸
ìĥģíĻ©</w>
ìķĦìĭľìķĦ</w>
ì§ĢìĹĲìĦľ</w>
ì§Ģê¸Īê¹Įì§Ģ</w>
ìĥĿê°ģíķľëĭ¤</w>
came</w>
ìĭľëĮĢ</w>
won</w>
ëŀĮ</w>
ì¶©ë¶ĦíŀĪ</w>
íŀĪëĬĶ</w>
ì§ĳíĸī
five</w>
security</w>
ëħĦëıĦ</w>
å®
ëĮĢë³Ģ
ution</w>
likely</w>
ê¸įìłķ
Įëĭ¤</w>
ìĿ¸ëĵ¤ìĿ´</w>
speci
ìĿ´ê²Į</w>
ually</w>
ê²½ë¶ģ
ëĶ©</w>
lear
....</w>
orig
give</w>
ì°¨ìĿ´
êµŃë¦½
ìķĪìĿĢ</w>
ìĥĪëĪĦë¦¬
ìłĦë¬¸</w>
keep</w>
ê¸°ìĹħìĿ´</w>
ì²łìłĢ
yor
ì§ĢìĭĿ
ìļ°ìĦł
having</w>
ìĺµ
ìĦ±ìŀ¥</w>
ìĨĮìĦ¤
ëĦ¥
ìŀ¬ë¥¼</w>
ê³µê²©</w>
wan
ê³łìĸĳ
ular</w>
table</w>
ê´ĳê³ł
ë¹Ī</w>
ìĽĶìĹĲ</w>
ìĿ¸ëıĦ</w>
ê°ĢìĬ´
ney</w>
ìĻ¸ìĹĲëıĦ</w>
ì°¨ëŁī</w>
ìķĶ</w>
ëł¬
ë§Īì¹ĺ</w>
ëĪĦê°Ģ</w>
ëĨĪ
ìĸ´ë¦°ìĿ´
hy
ê³µëıĻ</w>
ëłĢëĭ¤</w>
ìĦłë¬¼
defen
ê²ĮìĿ´
ì½©
ê°ķíĻĶ</w>
êµŃë¯¼</w>
ë´īìĤ¬
ìĿ¼ë¡ľ</w>
ìĿ¸ìĪĺ
ëħĦìĿ´</w>
ìľłë¦¬
social</w>
important</w>
ê¸°ë³¸</w>
ìĿ¸ëıĦ
ìĥĿê°ģìĿ´</w>
els</w>
ëĭ«
person
tici
ëıĦì°©
ften</w>
ëª¨ë°ĶìĿ¼</w>
ìķĦìļ¸ëŁ¬</w>
ìĦ¤ê³Ħ
ê·¸ëŁ¬ë©´ìĦľ</w>
íĬ¼
ìĿ´ëĭ¬</w>
business</w>
hun
position</w>
ìģľ</w>
ìĹ°ê³Ħ
ìµľê·¼
dren</w>
ëĮĢë²ķ
ê³ĦìĹ´
press</w>
actually</w>
ì§Ģê¸ĪìĿĢ</w>
ë§Įìķ½</w>
íĺĲìĿĺë¡ľ</w>
ë¹ĦëĬĶ</w>
ê´Ģëł¨ëĲľ</w>
ëŁ´</w>
whether</w>
ences</w>
early</w>
pris
mag
ëł¥ê³¼</w>
ëıĻìĿĦ</w>
ìľ¤</w>
ìķĺëįĺ</w>
íĶĦë¦¬ë¯¸
russi
ìĿ´ìľłë¡ľ</w>
children</w>
ì²Ļ</w>
ìĪľê°Ħ</w>
goo
êµŃë°©
ëıĦìłĦ
ê°ĲëıħìĿĢ</w>
íĥĪ</w>
ìĥĿìĤ°</w>
ë³´ìĹ¬ì£¼
ì¡°ì¹ĺ
ë§Ĳê³ł</w>
ëıĦìĦľ
ìĸ´ëĬĶ</w>
íĨ¤
ìĨĮíĶĦ
fron
ê±·
ëĦĺëĬĶ</w>
ìĹ´ê³ł</w>
ìĿĺìĤ¬
several</w>
sun
often</w>
ì¹¸
ìĥĿê°ģìĿĦ</w>
black</w>
íķµìĭ¬</w>
dam
human</w>
ê·¸ëĵ¤ìĿĢ</w>
inst
ê¸ĪìĿĢ</w>
ë§ĲìĶĢ
ê±°ìļ´</w>
ìłĦëħĦ</w>
ëĤ¨íİ¸
ìĨĮíĻĶ
ening</w>
ë¬¸ìĿ´</w>
ì±Ħìļ©
ì¤ĳìĹĲìĦľ</w>
lab
ë³´ìĿ´ê³ł</w>
level</w>
took</w>
ened</w>
priv
íĸ¥íķ´</w>
ë§ĲìĹĲ</w>
ì§Ģìĸ´</w>
ë°©ìĿĦ</w>
ìĬ¤íĥĢ</w>
ì»µ</w>
ëķĮê¹Įì§Ģ</w>
ëĬ¥ëł¥ìĿĦ</w>
small</w>
ëĪĪìĿĦ</w>
ìĭľìŀ¥ìĹĲ</w>
ìĽĲëĤ´
ê±°ë¶Ģ
ê³¨</w>
ìĺĪìĥģëĲľëĭ¤</w>
ë°ľìĿĦ</w>
ìŀĪìĿĦ
ìļ´ëıĻ</w>
íı¬ê¸°
main</w>
ict</w>
ìĦ¸ì¢ħ
ìĽĲëŀĺ</w>
'm</w>
ëªħëł¹
past</w>
ë²łíĬ¸
ìĸ´ì§Ħ</w>
ìĬ¤íı¬ì¸ł
ìķĪìĿĺ</w>
ëį©
ê°ľìĿ¸</w>
saf
ë¡±
ëįĶë¶Īìĸ´</w>
video</w>
charac
feat
ìĿ¼ìŀĲë¦¬</w>
ëıħìĿ¼</w>
ê²ĥìĿ´
sn
ëĶĶìĬ¤
ëį°ìĿ´íĦ°</w>
become</w>
íķĺëĭĪ</w>
ìĭ¼</w>
ìĹ¬ë¦Ħ
gs</w>
feder
succ
ìĸ´ë¡ľ</w>
ëĳĺ</w>
ìĿ¸íĦ°ëĦ·
íķĳ</w>
ì¦Ŀê¶Į</w>
ì¡°ìĿĺ</w>
ì°¨ëĬĶ</w>
ê²°íķ©
ë¬´ìĭľ
ì§ĦìĿ´</w>
ê³µìĿĦ</w>
íĭĢ</w>
íĶĦëŀĳìĬ¤</w>
ê²ĢìĤ¬</w>
ì¡°ê±´</w>
person</w>
htt
ëŁ´
ê·ĢìĹ¬
ëĵ¬
ger</w>
ë¹łë¥¸</w>
aw
bil
ìĦ¸ìĽĶ
ìłĦëĤ¨
ìłķë¦¬
ê¸°ëĬ¥ìĿĦ</w>
bra
ìĬ¤íħĮ
ìľłìĿĺ</w>
ê°ĢìĹĲ</w>
yes</w>
íķĺê³łìŀĲ</w>
ê²½ì°°</w>
cal
contr
ply</w>
ëĮĢìĹĲìĦľ</w>
ë§ĮëĤĺ</w>
êµ¬ìĨį
ìĥģíĴĪ</w>
ë¯¸ìĪł
ìĹ¬ê¸°ìĦľ</w>
ëĭ¹ìĿĦ</w>
ë³´íĨµ</w>
vs</w>
emplo
ê¸Īìľµ</w>
ìĹ°ì¶ľ
ëĵ£ê³ł</w>
ë¹łë¥´ê²Į</w>
ì¶Ķìłķ
doing</w>
ìĤ¬ì§Ħ</w>
íıīê°Ģë¥¼</w>
ëĮĢëĭµ
ãħľ
ë¯¸ë¦¬</w>
players</w>
move</w>
ê³µê°ľ</w>
my
ìĥĿíĻľ</w>
ared</w>
ëĥĲëĬĶ</w>
paren
íķĺëĭ¤ê°Ģ</w>
êµĲìľ¡ìĿĦ</w>
ë©´ìĿ´</w>
ìľ¼ë¯Ģë¡ľ</w>
live</w>
íģ°
ìĹ´ìĭ¬íŀĪ</w>
expl
ìĤ¬ìļ©íķł</w>
ìĻ¸êµŃìĿ¸</w>
ë°ĶëŀĢëĭ¤</w>
tar
ìļ´ìłĦ
ê°ľìĦł</w>
ê³łíĨµ
ì°¨ë¡Ģ
ìĺ¤ë¥¼</w>
ë§¤ìĿ¼</w>
ì¡¸ìĹħ
ck</w>
ìĨĮëĬĶ</w>
ê²ĢìĤ¬
ê²½ì°°ìĿĢ</w>
ety</w>
coming</w>
ìĦ±ê²©
continu
centr
viol
ìĥĿíĥľ
ì°¸ê³ł
prin
acks</w>
ìĿ´ë¥´
ìĿĺìĭĿ
ìĿ´ì²ĺëŁ¼</w>
york</w>
ê¸¸ìĿ´</w>
íĺ¸íħĶ
assi
commit
ìĺģìĹŃ
ãħİãħİ</w>
ë±ħ
ëĬĶê²Į</w>
ë°´
tak
ëĳĶ
ê±±ìłķ
stand</w>
ê°ľìļĶ</w>
ìħĪìĿ´ëĭ¤</w>
íļ¨ê³¼</w>
ëģĿìĹĲ</w>
ley</w>
seen</w>
ìĭľì¼ľ
ental</w>
ìķĦë§Ī
ìķłëĭĪ
ëĤŃ
ë¶Īê°Ģ
indu
ë¨¸ëĭĪ</w>
íĹĪìļ©
ë³´ìķĺëĭ¤</w>
community</w>
ëıĦìĽĢìĿĦ</w>
ê²½ê¸°ë¥¼</w>
íķĺìŀĲ
ëŃĲ</w>
posed</w>
ê¸°íĥĢ</w>
future</w>
ë¥łìĿĢ</w>
ìľĦìĹĲìĦľ</w>
leag
ìĭľìłĪ</w>
ê·¹ë³µ
ìĵ°ê³ł</w>
ìķĦëĭĪë©´</w>
ëĵ±ê³¼</w>
ìľłëĭ
bal
ìĩ¼íķĳ
ê°ĢìļĶ</w>
ëĵłëĭ¤</w>
ëĤĺìĦ°ëĭ¤</w>
ê³³ìĿ´</w>
ë¶ĢíĦ°ëĬĶ</w>
given</w>
kill
ross</w>
ì¦Ŀê°Ģ</w>
member</w>
ë°ĽëĬĶëĭ¤</w>
ì¹ĺì§Ģ</w>
íı¬íķ¨íķľ</w>
íĬ¹ìłķ</w>
ëıķ
ìĿĺíļĮ</w>
íĺĦìŀ¥</w>
ìĺĪë¹Ħ
ìłĲìĿ´ëĭ¤</w>
ëª¨ìĬµìĿ´</w>
investi
ged</w>
íĶĦë¡ľê·¸ëŀ¨ìĿĦ</w>
ìĭľë¦¬ì¦Ī</w>
ìĤ¬ìļ©íķĺëĬĶ</w>
ê²Įëĭ¤ê°Ģ</w>
hn</w>
ìĪĺìĽĲ
ëĶĶìĺ¤</w>
ìĿ¸íĦ°ë·°
ì£Ħ</w>
ìĿ´ìļ©íķ´</w>
ëĭ¤ìĨĮ</w>
ê¸°ìļ¸
within</w>
ìµľìłĢ
ëī´ìĭľìĬ¤</w>
ends</w>
íİ¼ì³Ĳ
control</w>
ì°¾ìķĦ</w>
íķĺëł¤ê³ł</w>
among</w>
ëĵľìĹĲ</w>
cent
ë¨¼</w>
ìĭľìŀ¥ìĿĦ</w>
ëĭĺìĿĺ</w>
ì±ĶíĶ¼
íģ´ëŀĺ
ìłķì¹ĺìłģ</w>
ority</w>
ê²ĥìĿ´ìĹĪëĭ¤</w>
ì§ĦìĿĢ</w>
íĶĦëĿ¼
ë¦¬ëįĶ
course</w>
field</w>
ëĤ´ìĹĲìĦľ</w>
ìĭľíĤ¤ê³ł</w>
ë©°
ë¯¸ìĤ¬
dow
ì¢ħêµĲ
ìĥĪë¡ľ</w>
ëĤĺë§Ī</w>
ë³µíķ©
íĻĶíķĻ
ë°°ìļ°</w>
cial</w>
ìłķì±ħìĿĦ</w>
ê¸Īì§Ģ
ì²´ìĿĺ</w>
ìķĦìĿĺ</w>
ìĺ¨ëĿ¼ìĿ¸</w>
republic
êµŃíļĮ
campaign</w>
la</w>
glo
fel
ëį¤
esday</w>
history</w>
ë¡ľë´
ë¶Ģë¡ľ</w>
ìĬ¤ì¹´
done</w>
íĶĮ</w>
ì°½ì¶ľ
ìĶ¨ë¥¼</w>
ìŀ¥ê´ĢìĿĢ</w>
went</w>
ìĵ´</w>
ê±°ëŀĺ</w>
ìĸµìĽĲìľ¼ë¡ľ</w>
pot
ë¡ľê°Ģ</w>
ìĬĪíį¼
ëĨįìĹħ
service</w>
asked</w>
ì§Ŀ
ëł¥ìĿĺ</w>
ê²¨ìļ¸
ë²¼
ë¶Ī</w>
ì£¼ë³Ģ</w>
ë©Ī
may
ãģ®
ì§ĢëĭĪ
ìĦ±ëıĦ</w>
dou
thre
milit
íĺ¼ìŀĲ</w>
ìķĦìĺĪ</w>
ëĭ¨ìĹĲ</w>
feel</w>
ëģĶ
stry</w>
organiz
æĸ
íķĢ
íĶĮëĿ¼
ì½ĺíħĲì¸ł
ë§¤ì¶ľ</w>
ìķĦë¥´
ëĮĢê·ľëª¨</w>
ìŀĲëĵ¤ìĿĦ</w>
ëıĻë¬¼
ëĭ¹ìĦł
ê¶ĮìĿ´</w>
íİ¸ìĿĺ
ë²½</w>
ê°Ĳëıħ</w>
ìłķìľ¼ë¡ľ</w>
ëĵľë¡ľ</w>
ìŀĲìľ¨
general</w>
ê¸Īë¦¬</w>
example</w>
obama</w>
ìĭľìŀ¥ìĿ´</w>
íķ´ì§Ħ</w>
concer
ìķĹ
ì²ŃìĻĢëĮĢ</w>
íĸĪê¸°</w>
ãĦ±
ê¹ĬìĿĢ</w>
ìłĦëĤł</w>
repres
thir
íĥľìĸĳ
care</w>
ìĸ´ë¦°</w>
ì¥Ĳ
ì¤ĳêµŃìĿĺ</w>
ìĭľê°ģ
ìĿ´ìłĦ</w>
ë°ľìĥĿíķľ</w>
ë°°ë¥¼</w>
ë°¸
ìķĦëıĦ</w>
head
ê±¸ì³Ĳ</w>
ìĿĳëĭµ
ìłľëıĦ
series</w>
bed</w>
ìĤ¼ìĦ±</w>
lat
ë§Īë¬´ë¦¬
ëĭ´ìĿĢ</w>
íķĺëįĶëĿ¼ëıĦ</w>
ë¶ĪëŁ¬
ìĿ¸ê°ĦìĿĺ</w>
íĺ¼</w>
ë¥ĺë¥¼</w>
ìĹĲê²ĮëıĦ</w>
local</w>
ëĶĶì§ĢíĦ¸</w>
ring</w>
ê·¸ê²ĥìĿĦ</w>
íĸīìĤ¬</w>
ours</w>
ìĹ°ê°Ħ</w>
den</w>
ê³łê°Ŀ</w>
ë°ĺë³µ
ì£¼ì°¨
ìĹ´ë¦¬ëĬĶ</w>
ê·¸ëħĢìĿĺ</w>
ìłĳì´ī
ìŀ¬ë°
ìĭľìĻĢ</w>
ëħĦìĿĺ</w>
hor
ê³Ħìķ½ìĿĦ</w>
ìĤ¬ìĹħìĹĲ</w>
ì¡°ë¥¼</w>
ë¯¸ìĦ¸
une</w>
ched</w>
ë¶Ģíĥģ
ê·¸ëĵ¤ìĿĺ</w>
ë°°ê²½
ëĲĺìĸ´
ington</w>
avail
ì§ĢìĹŃìĹĲ</w>
ìłĢëıĦ</w>
ê³³ìĿĦ</w>
ran
ê·¸ëŀĺ</w>
ta</w>
large</w>
íĺģ</w>
kind</w>
addi
íĸĩ
íļĮìĽĲ
investig
ìŀĲê¸Ī</w>
members</w>
ëŁ¬ìĭľìķĦ</w>
ìĸ¼</w>
êµ¬ìĹĲ</w>
ê¾¸ì¤ĢíŀĪ</w>
ury</w>
fully</w>
evi
ë³¸ë¶Ģ
ë¦¬ë©°</w>
íĮĮê´´
half</w>
íĨ¡
inste
ìľłëĭĪ
ìĿ´ìĸ´ìĦľ</w>
ìĹŃëĮĢ</w>
ãħłãħł</w>
ìľĦíĺĳ
';</w>
íķ¨ê»ĺ
ëŀį
ì§ĦíĿ¥
ëļľ
ëŁīìĿĢ</w>
ìłķì¹ĺ</w>
dom
ìį¼
ìĭłê²½
ëĮĢíĺķ
ë°ķê·¼
din
ëĤ¨ìķĦ</w>
mb
ìķĪìĹĲìĦľ</w>
ìĻ¸ìĹĲ</w>
ëĬĲê»´
íıī</w>
work
process</w>
da</w>
ë£¡
ìŀĪìĸ´
íĺĳíļĮ</w>
aring</w>
project</w>
ìĿ´ë²ĪìĹĲ</w>
tru
following</w>
ê³µìĽĲ</w>
íĮĲê²°
ìĭ¤íĹĺ
ìłģê·¹ìłģìľ¼ë¡ľ</w>
ë§ŀì¶°</w>
ê¸°ìĹĲëĬĶ</w>
ìŀĲëħĢ
ê³³ìĿĢ</w>
ìĤ¬ê³¼
others</w>
ìĭ¤ì²ľ
://</w>
ìķĬê²Į</w>
ìĹĲìĸ´
ëĿ¼ìļ°
ê°Ģê¹Įìļ´</w>
âĹĭ</w>
list</w>
width</w>
invol
ìĿ¼ë³¸ìĿĺ</w>
ê³µìĭĿ
ì§Ģêµ¬</w>
ëĤ¨ìŀĲ</w>
anal
ë§Īë²ķ
comes</w>
ìłĦìļ©</w>
ë¨¸ë¦¬
research</w>
ww
ìĵ¸</w>
íİĺìĿ´ì§Ģ</w>
ë¬¼ìĹĲ</w>
ming</w>
phone</w>
ëĵ¯íķľ</w>
ìĦłìĿĺ</w>
ìĤ°ìĿĦ</w>
ëĮĢìĻĢ</w>
ëĵłì§Ģ</w>
ë¶Īë²ķ
ìŀłìĭľ</w>
ìĦľìĹĲ</w>
ìľĦìĽĲìŀ¥ìĿĢ</w>
ëĤ¸ëĭ¤</w>
ì§ĪìĿ´</w>
ëĮĢëĭ¨
íģ¬ë¦¬ìĬ¤
ëĸ¨
ash</w>
months</w>
young</w>
ë²ĪìĹĲ</w>
ë¶ķ
ê°ĲìķĪ
ìĬ¤íĤ¬
ë°©ë²ķìĿĦ</w>
íıīê·ł
mer</w>
ìķĦì¹¨
test</w>
ãĢĬ</w>
kb
ìĥģìĹĲìĦľ</w>
íĨµíĻĶ
toge
ë¡ľëıĦ</w>
ìĭľìŀĳíķľ</w>
getting</w>
ì§Ģê¸°</w>
ë°°ì¶ľ
ëĵ±ìĹĲìĦľ</w>
ë¥Ļ
ìĥĿíĻľìĿĦ</w>
ê°Ģì¹ĺë¥¼</w>
ëĮĢì¶ľ</w>
ati
.)</w>
ìĭ¤ì§Ī
ì£¼ë¬¸
êµĲìĪĺ</w>
ìĿ´ë¡ľ</w>
ëĤĺë¬´</w>
ì°¨ìĿ´ê°Ģ</w>
cus
åı
office</w>
together</w>
ê´Ħ
íĺĦìŀ¥
ï¼į</w>
ë³´ë¥¼</w>
ëķĮëıĦ</w>
tty</w>
íķĺê²łëĭ¤ê³ł</w>
market</w>
ë°ľíĳľíĸĪëĭ¤</w>
descri
ìĤ¬ìĹĲìĦľ</w>
íģ¬ë¦¬
ë¹ļ
ìķĦë¬´ë¦¬</w>
ements</w>
âĸł</w>
ìķĦëıĻ
ì¹´ì¹´
ìĹ¬ìŀĲ</w>
dar
ìĭľì¼°ëĭ¤</w>
ê´Ģê°Ŀ
ìĭľíĤ¨</w>
ëŀľ</w>
ê¶ģê¸Ī
ip
ëį°ë¯¸
dev
lu
ì§ĳëĭ¨
ìĺ¬ë¦¼íĶ½</w>
íĿĲë¦Ħ
íģ¬ëĭ¤</w>
ë³´ë©°</w>
ìĿ´ë¦Ħ</w>
ìķŀìľ¼ë¡ľëıĦ</w>
ìĿ´ëĵ¤ìĿ´</w>
ë¹Ħìļ©</w>
ìĿ¼ìłķ</w>
ìĦ±ëĬ¥
ìĿ¸ê·¼</w>
ìĿ¸ìĥģ
ìĹī
ëĲĺìĹĪê³ł</w>
ìłĲìłĲ</w>
dly</w>
ê°ķëĤ¨
tran
det
íĮ©
ìŀĳìĦ±
ìĥģì§ķ
ì£¼ìĭľ
ëł¤ë©´</w>
ìłľìĹĲ</w>
ëĵ±ê¸ī
ì°½ì¡°
ëįķë¶ĦìĹĲ</w>
ê¶ĮìĹĲ</w>
ìłľíķľ</w>
ìĸ´ëłµëĭ¤</w>
ìĻĦë²½
chec
ìľĦì¹ĺíķľ</w>
ë¡łìĿĦ</w>
across</w>
ë²Ĺìĸ´
ìĩł
íĺĦì§Ģ</w>
room</w>
ë§ĪìĿĮìĿ´</w>
esp
ìĿ¸ê³µ
pt
que</w>
ìĭ¤ìĹĲìĦľ</w>
call</w>
ìĭłìĿ´</w>
ë¡ľìĿ´
ëĵ¤ìĹĪ
ë³´ìĪĺ
origin
back
ìĿ´ê±´</w>
ìłķëĭ¹
than
nov
ìļ°ë¦¬ëĤĺëĿ¼
ëĭ¬ëł¤
ë¨¹ëĬĶ</w>
ìĺĪìĤ°</w>
looking</w>
means</w>
tem
space</w>
ldn</w>
ìŀĲê²©
foc
north</w>
ì±ĦëĦĲ
íķ©ë¦¬
month</w>
ì¶ľìĭł</w>
ìĿ¸ìĹĲ</w>
ê°ĸì¶Ķ
ìĥģê³µ
ìĻĦë£Į
ìŀĲë¦¬ìĹĲ</w>
ìıŁìķĦ
ìľĪ
ëĦ·
ê±°ì£¼
íĬ¹ë³Ħíķľ</w>
intere
êµ¬ìŀħ
partic
ìķĦëĭĪê³ł</w>
ê³Ħìķ½</w>
cy
ëİ
bit
ole</w>
ìĨĮë¦¬ë¥¼</w>
ì¤¬ëĭ¤</w>
êµŃë¬´
bloc
international</w>
íļĮìĿĺë¥¼</w>
jus
ëĤĺê°Ģ</w>
ë§Īìĭľ
ì¦Ŀê±°
ìļĶì¦ĺ</w>
ë²Īì§¸
clear</w>
ìĿĮìĿ´</w>
ê·¸ìĹĲ</w>
ë¹Ħíĸī
associ
win</w>
ëĤĺìļĶ</w>
ground</w>
vari
believe</w>
ê¹Ŀ
ê³Ħê°Ģ</w>
ìłľê³µíķĺëĬĶ</w>
íĺĦì§Ģìĭľê°Ħ</w>
ìľĦê¸°</w>
player</w>
ener
ìĿ¸ì§Ģ
ëłĪë²¨</w>
ë§ŀì¶¤
ì¶Ķê°Ģë¡ľ</w>
scri
thought</w>
ê°ľê°Ģ</w>
law
ìĥģíĻ©ìĹĲ</w>
accoun
ìŀĲë£Įë¥¼</w>
ë¶Ģë¬¸</w>
who
ê·¸ê²Į</w>
ë³´íĹĺ</w>
ìĪ¨ìĿĦ</w>
ì°¾ëĬĶ</w>
ìĪľê°Ħ
ê¼¼
ìľĦë°ĺ
ëĶ±
íĽĮ
íĺ¸ìĿĺ</w>
ìĹł
ìĿ¸ëĵ¤ìĿĺ</w>
ìĿ¼ìĿ´ëĭ¤</w>
ë°©ìĹŃ
ê±°ëĵ
ê³§
ìłķìĿĺ</w>
ëĤ¨ìŀĲ
ìłģìĿĺ</w>
ìĸµìĽĲ
depart
ìĪĺìĦĿ
dn
ìĹ°ìŀ¥
ching</w>
ê³¨íĶĦ
íķ´ì£¼ëĬĶ</w>
ëĮĢë¶Ģë¶ĦìĿĺ</w>
íĬ¸ìĻĢ</w>
ìĿ¼ê³¼</w>
gram</w>
ìµľì¢ħ
ì£¼ë¯¼</w>
area</w>
ç¾
ë¨¸</w>
íİĢëĵľ</w>
nal</w>
ana</w>
íķĺë©´ìĦľëıĦ</w>
íĮĲìĿĦ</w>
dom</w>
jour
ì¶ľìĭľ</w>
type</w>
ê°Ģë¡ľ</w>
ëª¨ë¥¼</w>
ìļ±
ìĿĺìĭ¬
force</w>
ëĮĢíķľë¯¼êµŃ</w>
ì»µ
edit</w>
ìĤ¶ìĿĺ</w>
ìłĦìŁģ</w>
çĶ
ë²ķë¬´
êµĲìĪĺ
available</w>
ìĬ¹ë¦¬
ìĦľê°Ģ</w>
ler</w>
ìĪĺë§İìĿĢ</w>
ìĹ¬ë¶Ģë¥¼</w>
ìĹ°ìĬµ
ian</w>
makes</w>
deb
ëĲľëĭ¤ê³ł</w>
ê¸°ê¹Įì§Ģ</w>
fc</w>
prac
ìĤ¬ìĥģ</w>
announ
ë²ķìĹĲ</w>
foun
ìĽĶê¹Įì§Ģ</w>
almost</w>
ìĿ´ëĵ¤ìĿĺ</w>
instead</w>
ê·¸ê²ĥìĿ´</w>
problem</w>
åľ
resi
ê³µìŀ¥</w>
ê·¸ëķĮ</w>
ìĺ¤ëŀĺ
ë§Īë¥¼</w>
êµī
ìĺ¤íĶĦ
--------
ëĿĦ
ëł¥ìľ¼ë¡ľ</w>
ê²½ìļ°ëıĦ</w>
func
ì»¬</w>
stand
ï½
ìŀĳëħĦ</w>
exc
ìķĦìĿ´íħľ
ì§ĳìĹĲìĦľ</w>
ìķ¡ìĿĢ</w>
ìĦ±ê³¼ë¥¼</w>
ë°ľíĳľíķľ</w>
america</w>
ìł¤
íĻĶìĿĺ</w>
rac
board</w>
ner
identi
ìľĦíķ´ìĦľ</w>
?âĢĿ</w>
ìĤ¬íļĮìĿĺ</w>
ìĥĪë¡Ńê²Į</w>
ìĹ°ëĿ½
ê°Ģê²©ìĿ´</w>
íĽĦë³´ëĬĶ</w>
ëĨĵìĿĢ</w>
ëĵľëŀĺ
ë³´ëĭ¤
ë°ĶìĿ´ìĺ¤
ìĭ¤íĺĦ
âĸ¶</w>
john</w>
ìķĦìĿ´ëĶĶ
ìĿ¸ìĥĿ
ìĿ¼ìĹĲëĬĶ</w>
ow</w>
major</w>
ìĨįìľ¼ë¡ľ</w>
íĻį</w>
rights</w>
ìĤ¬ìŀ¥ìĿĢ</w>
ì§Ģíľĺ
ëħ¸ì¡°
compe
tin</w>
ì¸¡ìĿ´</w>
non</w>
compan
ìĨĮìŀ¬</w>
ìĭłìĿĺ</w>
ìĿ´ê±°</w>
ìŀĲê¸Ī
inf
ëĥĲê³ł</w>
ë°ľìĥĿ</w>
ë£©
ìŀĲëĵ¤ìĹĲê²Į</w>
issue</w>
ì¡°ì¹ĺë¥¼</w>
ìŀ¥ê´Ģ</w>
©ëĭĪëĭ¤</w>
ë¬¸ìŀ¬
ëĮĢë¹Ħ
ëĭ¬ëĿ¼ê³ł</w>
asn</w>
ê³łìŀĲ</w>
íĥ±
sus
ìĸ´ìļ¸
km</w>
ìłľê³µíķľëĭ¤</w>
ëĤ¨ë¶ģ
ìķĪëĤ´
íĮĢìĿ´</w>
hand
íļ¡
policy</w>
ìłĦíķľ</w>
gir
ì¢ħëª©
ìłľìĻ¸íķľ</w>
ì±ħìŀĦìĿĦ</w>
ìĭ¬ë¦¬
ìĪĺìĤ°
added</w>
simil
offic
ì¤ĳìļĶíķĺëĭ¤</w>
ì²ĺë²Į
ìĦ¸ê¸°</w>
ele
twit
deal</w>
secre
ìĪĺëıĦê¶Į</w>
ëĮĢìļ°
íĺĳ</w>
ê¸°ë¡Ŀ</w>
ìĪĺìĤ¬</w>
federal</w>
âĢľ
've</w>
along</w>
www</w>
ì´Į</w>
íĮĢìĿĢ</w>
ë§Īì°¬ê°Ģì§Ģë¡ľ</w>
long
ëĲĺëĬĶëį°</w>
rul
íĻľìķ½
ëĭ¤íĸī
íĤ¨
ëľ»ìĿĦ</w>
minu
ight</w>
ê²¹
ìļĶìĿ¼</w>
ìĿ´ê²ĥìĿĢ</w>
consider
íĳľë¥¼</w>
ê²Ģì°°</w>
ìĨĮíķľ</w>
ìıĺ
íĥľìĸ´
ì¤ĺ</w>
íĻĪíİĺìĿ´
ì£¼ê±°
ìłľê±°
impro
ìĿ¼ê¹Į</w>
ìĭľìĬ¤íħľìĿĦ</w>
ëĤĺìĺ¤ê³ł</w>
ìĺ¤ë¥¸
ëĤ´ë¶Ģ
tt</w>
ì»¤ë®¤
fav
ë£Įë¡ľ</w>
ê³ĦìĿĺ</w>
ìĿ¸ê¶Į
started</w>
ìĽ¹
beh
ì¤ĳíķľ</w>
ëª»íķ´</w>
ê°ľìłķ</w>
sion
ìłľìĿ¼</w>
ë¹łìł¸
íĸīìĤ¬ë¥¼</w>
ìĤ¶ìĿĦ</w>
ìĸ´ìĿĺ</w>
íĻķìĿ¸íķł</w>
ê³łìłķ
ëĬĺìĹĪëĭ¤</w>
ëħ¼ëŀĢìĿ´</w>
ìĬ¤íĬ¸ëłĪ
",</w>
ëĶ°ëľ»
wash
gar
ì§ģìĹħ
bill</w>
ë¹ĦëĤľ
íıŃë°ľ
ined</w>
ìĿ´ë²¤íĬ¸</w>
ìŀĲìłĦ
ìĻ¼
ah</w>
class</w>
êµŃìĿĦ</w>
rather</w>
ì¤ĳìĨĮê¸°ìĹħ
ì¡°íķ©</w>
ê²ĮëıĦ</w>
ìĬ¤íĥ
íĳľìĭľ
êµŃë¯¼ìĿĺ</w>
ê²½ê¸°ìĹĲìĦľ</w>
tively</w>
âĢ¦âĢ¦</w>
íĬĢ
ì²ŃìĨĮëħĦ
ë¿ĲìĿ´ëĭ¤</w>
ëĪĦêµ°
recent</w>
ìĬ¤íı¬ì¸ł</w>
scre
image</w>
ìłķëıĦìĿĺ</w>
sil
anim
ìĪĺì¶ľ</w>
ically</w>
ìĤ¬íķľ</w>
ê¸°ìŀĲíļĮ
ë¥ĺìĿĺ</w>
ine
ê°ĢëŁī</w>
ìķĦìī¬
ìĿ´ëķĮ</w>
ìĬ¤ì¼Ģ
ìĦ¯</w>
ëĭŃ
ented</w>
ches</w>
ìĹĺë¦¬
ë©ľ
íĮĮíĬ¸
pc
sty
ì»¤ë®¤ëĭĪ
ê¾¼
ìķĬëıĦë¡Ŀ</w>
ìĭ¬íķľ</w>
ìµľìĦłìĿĦ</w>
ë§ĲíķĺëĬĶ</w>
ãİŀ</w>
ìĺ¤ë¦¬
ê¹ľ
ê¸°ì§Ģ</w>
íİĺìĿ´ìĬ¤
ëĵ¤ìĸ´ê°Ģ
ended</w>
ìĿ¸ê¸°ë¥¼</w>
ëħĲ</w>
experience</w>
os
ë¯¸ëŀĺ</w>
south</w>
ì¡°ìĦł</w>
mom
ê°ľë¡ľ</w>
aining</w>
idea</w>
íĨ¤</w>
ìłĦìŀĲ</w>
ë¶ģíķľìĿĺ</w>
ì¦Ŀê°ĢíĸĪëĭ¤</w>
ë¬¸ìĿĺ</w>
ut
ìĤ¬ìĭ¤ìĿ´</w>
ë¯¸ë¥¼</w>
ë§ĪìŀĲ</w>
stration</w>
ëĮĢíĳľìłģìĿ¸</w>
ìĥģíĻ©ìĿ´ëĭ¤</w>
ì«ĵ
ìŀĪìĸ´ìķ¼</w>
ë§ŀì¶Ķ
ìŀħìĿĢ</w>
care
íķĺìĹ¬
star</w>
ëĤĺê²Į</w>
ë§Įìľ¼ë¡ľ</w>
ë§īìĿĦ</w>
ìĤ¬ìĹħìĿĢ</w>
íĺĳëł¥</w>
tit
ìĿ¼ìĸ´ëĤĺ
íļĮìĻĢ</w>
sib
sta
ëłĢ
íĺķìĿ´</w>
ë³´ì§Ģ</w>
ì§ĳê³Ħ
dru
íĹĪ</w>
ìĿĺë¯¸ë¥¼</w>
ì¶¤
ëĤ³
íģ¬ë¥¼</w>
center</w>
ìķĦë¦Ħëĭ¤ìļ´</w>
legal</w>
íĴį</w>
trying</w>
ìķłíĶĮ
íĺ¸ê°Ģ</w>
ìĺ¬ëł¤
ìĦłìĹĲ</w>
íĻĶëĬĶ</w>
íĬ¼</w>
west</w>
isn</w>
êµīìŀ¥
ëĭ¹ë¶Ģ
ê¸°ë¶Ģ
department</w>
ìĺ¬ëł¸ëĭ¤</w>
ëĵ¤ìĿ´
ëį°ìĿ´íĦ°
job</w>
íķ´ìĻĶëĭ¤</w>
ê°Ģê²©ìĿĢ</w>
íķĻëħĦ</w>
âĹİ</w>
%(</w>
ëĮĢíķ´ìĦľëıĦ</w>
program</w>
ìĭľìŀĳìľ¼ë¡ľ</w>
êµĲê³¼
ëįĶëĿ¼</w>
ìķĪìľ¼ë¡ľ</w>
ìľĦíķĺìĹ¬</w>
ë³´ìĿ´ì§Ģ</w>
ìĺ¤ê³ł</w>
ìĹħë¬´</w>
ìĥģìĬ¹</w>
ask</w>
ìķĮìķĺ
wed</w>
current</w>
ìĨĮë¦¬</w>
abo
ì¦ĪëĭĪ
ë³¸ë¶Ģ</w>
agre
ìĤ¬ìĿ´</w>
ëĪĦêµ¬ëĤĺ</w>
ë³´ì¦Ŀ
ìĿĺìĽĲìĿ´</w>
ãħĭãħĭãħĭãħĭãħĭ</w>
ë°¥</w>
ëĶ°ë¡ľ</w>
works</w>
ê³ĦìĤ°
military</w>
ìŀ¬ë°Į
ì§ģìłĳ
ìŀĸìķĦ</w>
ìĹĦì²ŃëĤľ</w>
compl
ìŀĪìĸ´ìļĶ</w>
ìŀħê³ł</w>
vidu
selves</w>
ances</w>
ãģĦ
ìĺ¹
ìĭ¬ìĤ¬
ë©į
ë¶Ħë¥ĺ
individu
ëĭ¤ìĿĮê³¼</w>
anything</w>
íĹĮ</w>
ëĲĺìŀĲ</w>
fail
íĶĮëłĪìĿ´</w>
íı´ë¦¬
pal
nothing</w>
med
ê³łê°ľë¥¼</w>
ë¬¼ìĸ´
ë°ľíĸī
source</w>
åŃ
sl
wards</w>
ëĬ¥ëł¥</w>
pay</w>
ì§Ħëĭ¨
íŀĺëĵł</w>
ëĸ¼
ëıĭ
ì´Īë°ĺ
ì´īêµ¬
ners</w>
taking</w>
twitter</w>
ìĥģëĮĢìłģìľ¼ë¡ľ</w>
ë²ķë¥ł
ê³µíķŃ
ìĿ´ëįĺ</w>
ë¹Ħë°Ģ
ëª©ìĨĮë¦¬
ê·¸ëłĪìĿ´
ines</w>
ough
ìĿ¼ë¶Ģ
ê²Ĳ</w>
íı¬íķ¨íķĺëĬĶ</w>
ìľłëªħ
ëģĪ
league</w>
admini
ards</w>
ators</w>
íĻĶìĻĢ</w>
ê³µìĭľ
lig
ê´ĢìĹĲìĦľ</w>
close</w>
ìī½ì§Ģ</w>
version</w>
ìĤ¬ëŀĮëĵ¤ìĿĺ</w>
taken</w>
ìĬ¹ìĿĦ</w>
ëĭ¹ìĹ°íŀĪ</w>
hon
ëĵ±ëıĦ</w>
íĮ½
tom
study</w>
ìłĦë¶Ģ</w>
ë°ķê·¼íĺľ</w>
ìĹĪëĬĶëį°</w>
æĹ
ëį´
ì½ĺ</w>
ë°ĿíŀĪ
film</w>
single</w>
ëĲ©ëĭĪëĭ¤</w>
plan</w>
ë¸ĶëŀĻ
ì§ĢìĹŃìĹĲìĦľ</w>
previ
ìºłíİĺ
ìļ°ì£¼
exper
êµ¬ì¡°</w>
ìŀĲë¦¬ìĹĲìĦľ</w>
ìĬ¤íĤ¬</w>
ìĨĮìĿĺ</w>
êµŃìĹĲ</w>
ìºĲë¦ŃíĦ°</w>
ëª¨ëĭĪ
ìĬ¤íģ¬</w>
ë§ĪìłĢ</w>
ê°Ħëĭ´
woman</w>
ìĤ¬ì§ĦìĿĦ</w>
ëĤĺìĺ¬</w>
íģ´ë¦¬
íĻĶìĿ´
ë§İìķĺëĭ¤</w>
ìłĦë¶ĢíĦ°</w>
ìŀ¥ì¹ĺ</w>
íķĦ</w>
ìľłê°Ģ</w>
behind</w>
ìļ°ë¦¬ëĤĺëĿ¼</w>
ë§ĲìĿĢ</w>
comb
ì¿¨
energy</w>
question</w>
ë§Īê°Ĳ
ëĲĲê³ł</w>
ìĺ¤ëŀĺ</w>
car</w>
ìłķê¸°
íĨµìĭł</w>
ëĤ¨ìķĦ
ëª¨ë¥´ëĬĶ</w>
ì¢ģ
arti
ãħľ</w>
ì¢ĭì§Ģ</w>
ëĭ¹ìŀ¥</w>
ìĤ¬ìŀ¥</w>
ìķ¼êµ¬
ma</w>
ered</w>
hand</w>
ious</w>
ëĭ¹ì´Ī</w>
ìĭłìĨį
ëĮĢì²´</w>
ìĬ¤ìĹĲìĦľ</w>
ê´ĢëŀĮ
ìĭłíķľ
death</w>
ëĤĺì§Ģ</w>
ê³¼ìłķ</w>
ì£¼ì§Ģ</w>
ë¯¸ëĭĪ
ëª©íĳľë¡ľ</w>
íķľë°ĺ
fy</w>
ìŀ¬ëĤľ
ìķĻ</w>
ë°ľìłĦ</w>
ë¬¼ë¦¬
ë°ľêµ´
ë¬´ê¸°
ìĿĮìĹĲëıĦ</w>
ëķĮë¶ĢíĦ°</w>
ê²¸
isra
ê°Ħëĭ¨
ë³ĢíĻĶë¥¼</w>
íĽ¼
ìŀĳíĴĪ</w>
ìłģìľ¼ë¡ľëĬĶ</w>
ìĹĺ</w>
ì½ĺìĦľ
adver
del</w>
six</w>
ëĴ¤ìĹĲ</w>
ìłĦìĿĢ</w>
ìĹŃìĤ¬</w>
íĺľíĥĿìĿĦ</w>
ering</w>
ëªħê³¼</w>
development</w>
ë¬´ëĦĪ
íĥľëĭ¤</w>
ëĭĮ</w>
êµ¬ì²´ìłģìĿ¸</w>
terr
squ
ìłķë¹Ħ
ìĺ¬ë¦¼íĶ½
points</w>
íķłìĿ¸
ê°ĻìķĦ</w>
pan
íŀĺìĿ´</w>
ised</w>
front</w>
ë¼
bal</w>
ëıĮíĮĮ
ì¶Ķ</w>
ìłģìĸ´ëıĦ</w>
ëĲĺëıĦë¡Ŀ</w>
ìĥģíĴĪìĿĦ</w>
ìĤ¬ëŀĳìĿĦ</w>
food</w>
íĿī
íļĮëĭ´
ìĦ¸ë¡ľ</w>
ë²ķìĿ¸</w>
ìĨĮëĵĿ</w>
third</w>
ìĦ¸ìĿ´
ì²łíķĻ
ide</w>
ê°¤ëŁŃ
ìĭľë¯¼</w>
sex
everything</w>
ê°ĢëĬ¥ìĦ±ìĿĦ</w>
ê°Ģë¡ľ
ss
ê³µíĻĶ
ìĹ¬íĸī</w>
ëĸ¨ìĸ´ì§Ħ</w>
ëıĻìĽĲ
ìĥĿì¡´
íĭĪ
ì°©</w>
ìŀ¡ìķĦ
discus
íĽĦë°ĺ
due</w>
blo
di</w>
ì°¸ìĹ¬</w>
ìķ±
ìķĦëŀĺ</w>
ìĺ¤íĶ¼
studi
ãĢĭ</w>
ference</w>
ë°©íĸ¥ìľ¼ë¡ľ</w>
ëĵľìĻĢ</w>
ì¹ĺê²Į</w>
someone</w>
ë°©ìĹĲ</w>
ëĸ¡
ìĨĮë¦¬ê°Ģ</w>
ë§ĲìĿ´ëĭ¤</w>
ìĥģê³¼</w>
ì°¨ë¡ľ</w>
ì¶©</w>
ìĨĮìĹĲìĦľ</w>
ëĤĺë©´</w>
ìĦłìĹĲìĦľ</w>
ì±ĶíĶ¼ìĸ¸
exec
saying</w>
ì»¤íĶ¼
ëĦĺìĸ´</w>
ê´ĳìĹŃ
ë¹ł</w>
ìĿ¸ê¸°</w>
.âĹİ</w>
ìĭ¬ì§Ģìĸ´</w>
ìĥģê´Ģ
tax</w>
effor
ìĿ¸ì¦Ŀ
ëħ¸ëł¥ìĿĦ</w>
cham
ë°ķë¬¼
ingly</w>
ë¬¼ìĿĢ</w>
ëĶĶìĺ¤
ìĦłì§Ħ
ìķĦë¬´</w>
ained</w>
ì·¨ìķ½
ìĸ¼ë§Ī</w>
chall
true</w>
ìĹ¬ìĦľ</w>
ìłĲëıĦ</w>
ìħī
lg</w>
spor
defin
ëĤ´ìļ©ìĿĢ</w>
ìķĮê²Į</w>
clint
ham
ìĦłë°ľ</w>
ä»
ìĹĪì§Ģë§Į</w>
wanted</w>
remain
íĬ¸ëŀ
íķ¨ìĿ´</w>
uses</w>
ì¶°
íĺ¸ëĬĶ</w>
rest</w>
íĻĺìŀĲ</w>
ì§ĢëĤĺ</w>
ë¶ĦìĦĿ</w>
íĨµìĿ¼
ê³µìĹ°</w>
ë®¤ì§Ģ
ap</w>
íķ´ìĨĮ
ë¬¸ìŀ¬ìĿ¸</w>
ëĥĦ
ìĿ´ë¡ł
íģ´</w>
ìĿ´ìķ¼ê¸°</w>
ä¹
ì¦Ĳê¸¸</w>
mess
ëĤ´ìļ©ìĿ´</w>
íħĮíģ¬
ëį®
ê°ĢìĬ¤</w>
ìľłëıĦ
ëıĦìĻĢ
ëĮĢê¸°
ê°ģìĿĦ</w>
ìľłìłĢ
ìĭ¬ìĿ´</w>
rap
infl
ë°Ł
ê´Ģê³Ħê°Ģ</w>
ìĦłê³ł
ìĺģìĥģìĿĦ</w>
íĿĶëĵ¤
ëĨĢëĿ¼
ê·Ģ</w>
ìĪĺë¹Ħ
ìłĦê°ľ
ìĨĮíĻĺ
ìłĦëĤ¨</w>
êµŃíļĮìĿĺ
ë¯¸ìĦ¸ë¨¼
nific
ìĦłìĿĢ</w>
ê³µì§ģ
ìĭĿìĿĺ</w>
ìľĦìĽĲìŀ¥</w>
ë²ķìĿ´</w>
ê²Ģì°°ìĿĢ</w>
kbs</w>
ëĵ±ê¸ī</w>
íļįëĵĿ
ìĺĪì¸¡
ìłĪëĮĢ</w>
ìĿ´ìłľëĬĶ</w>
ìŀĳìĹħìĿĦ</w>
ols</w>
docum
ìŀĪëĬĶì§Ģ</w>
ë§ĮìĿĢ</w>
ë§Įëĵ¤ê¸°</w>
ì¹Ļ</w>
êµ¬ìĦ±ëĲľ</w>
gress</w>
åĲ
ëĽ°ìĸ´ëĤľ</w>
ë¯¹
ë°ĶìĿ´ëŁ¬ìĬ¤</w>
ê°ĢìĿ´
turned</w>
bad</w>
íĮĢìĿĺ</w>
ë°Ľê²Į</w>
ê²½ìļ°ëĬĶ</w>
íĬ¹ì§ķìľ¼ë¡ľ</w>
ë¨¸ë¦¬ë¥¼</w>
ê°ĸì¶ĺ</w>
ë§ĮëĤľ</w>
ëıĮëł¤
ìķĦì§ģëıĦ</w>
educ
probably</w>
ìĭľê°ĦìĹĲ</w>
mit
cir
ëĲĺìĸ´ìķ¼</w>
initi
ìłĦìļ©
ëĮĢíķĺìĹ¬</w>
ì²ĺë¥¼</w>
ì¢ĭìķĦíķĺëĬĶ</w>
ëŁīìĿĺ</w>
ë¶Ģê³¼
ë´Ĳìķ¼</w>
ìĨĮëħĢ
ãĢĪ</w>
ëķĮë¬¸</w>
ê²°ì½Ķ</w>
ëª©ìłģ
ìķĺê³ł</w>
ê¸°ê¸°</w>
ìķĪìłĦ</w>
ëł¥ìĹĲ</w>
íķĺëł¤</w>
ì§ĢìĪĺëĬĶ</w>
stom
íİĺ</w>
ìĺĪìļĶ</w>
ê°Ģì¹ĺ</w>
ption</w>
ë§Įíģ¼
ê·¸ëŀ¬
ìĪŃ
although</w>
ìĹĨìĸ´
sat
ì¹ľêµ¬</w>
íĬ¸ìĹĲìĦľ</w>
ìŀĲëıĦ</w>
ê³¨ìĿĦ</w>
ë³´ëĭ¤ëıĦ</w>
ì§Ģë©°</w>
ì±Ħê¶Į
ëĳĲëł¤
pap
íĬ¸ìľĦ
ë°©ì§Ģ
pes</w>
ga</w>
íĸ¥ìĿ´</w>
tries</w>
ë¶Ħë¦¬
ection</w>
ìķīìķĦ</w>
íĬ¹ìĦ±
further</w>
building</w>
ìĪ²
íĻķìŀ¥
ìĤ´ê³ł</w>
ìļ´ëıĻìĿĦ</w>
êµ¬ë¶Ħ
ì¼ĵ</w>
ith</w>
ìĬ¤ë§ĪíĬ¸íı°</w>
ê·ľìłľ</w>
ìĪ«
íĿ¬ìĥĿ
ìĺ¤íĶĪ
ìłķíĻķíķľ</w>
stop</w>
ê¸°ìŀĲíļĮê²¬
íĤ¬
either</w>
ë¶ĢëıĻìĤ°
clinton</w>
ì²ĺë¦¬</w>
ìĵ°ëŁ¬
ìĦ¸íĬ¸</w>
ëĪĪ</w>
ê¸°ìĨĮ
ëıĻìķĦ
liber
ìĪĺì¤ĢìĿĺ</w>
ê¸°ì¡´ìĿĺ</w>
ìĿ´ìĿµ</w>
íĻĪíİĺìĿ´ì§Ģ</w>
ribu
termin
ada</w>
ë°ĺëıĦì²´</w>
ãĪ
ì£¼ìłľë¡ľ</w>
ìĪĺìĹĲ</w>
value</w>
ìĿ´ëıĦ</w>
ìŀĪìĹĪê³ł</w>
washington</w>
ì¹ľëĭ¤</w>
ëĵ±ìĿ´ëĭ¤</w>
ë¶Īë²ķ</w>
ìĺĪìłķ</w>
ì£¼ìĹĲ</w>
ê´ĢìĿĺ</w>
ìłľìŀĳ</w>
êµ°ìĿĦ</w>
eu</w>
ìĥĮ
thy</w>
íķĻìĥĿëĵ¤ìĿ´</w>
ë°ĺë°ľ
ëı¼ìķ¼</w>
ëº
final</w>
ìłĦëħĦ
ì¶Ķêµ¬
ìĭľë¡ľ</w>
ë¬´ë¥¼</w>
olog
scen
ìĤ¬ìĿ¸</w>
êµ°ìļĶ</w>
ëĮĢìĦł</w>
row</w>
êµŃìłľ</w>
attem
ìĸ¼êµ´ìĿĦ</w>
create</w>
**
ë¦Ń</w>
ìŀĦê¸Ī
ëĲĺ</w>
ìĭ¤ìłģ</w>
ìĸ´ëł¤ìĽĢìĿĦ</w>
ê°ľíİ¸
deli
cept</w>
ìĪĺíķľ</w>
ëĶ±</w>
ëĤ´ìĦ¸
fire</w>
bru
ëıĻìĿĺ
ãħĭãħĭãħĭãħĭãħĭãħĭãħĭãħĭãħĭãħĭãħĭãħĭãħĭãħĭãħĭãħĭ
íĺ¹</w>
ëĦ¤ê°Ģ</w>
ë¹Ħìĥģ
íĳľì¤Ģ
ìľĦë°ĺ</w>
íĮĢìĿĦ</w>
aver
íĥģ</w>
ê²½ìĺģ</w>
ìŀ¥ë¹Ħ</w>
ê²½ìłľìłģ</w>
íĻĶëł¤
ìĤ¬ëŀĳ</w>
ist
ìķĦê°Ģ</w>
ê³łê°Ģ</w>
ìĤ¬ê±´ìĿĦ</w>
ìĪĺë¦½
envir
ëĲ¨
ê°Ģê¹ĮìĿ´</w>
ìĺ¤ëŀľ</w>
ë§Ĳê¹Įì§Ģ</w>
ìĭľíĹĺ</w>
ë§Įëĵ¤</w>
íķłìĿ¸</w>
everyone</w>
ìĦ¤ì¹ĺ</w>
ìĥģë°ĺê¸°</w>
code</w>
ê»ı</w>
music</w>
ìŀ¬ê°Ģ</w>
signific
ë¶ī
ounds</w>
ëī´ìļķ
allow
ë°ľíľĺ
ìĪĺìĻĢ</w>
ìĨĮëħĦ
ìĦĿìĿĦ</w>
ë§Īì¼ĢíĮħ</w>
mean
inve
íı¬íķ¨íķ´</w>
ìĺ¬íķ´ëĬĶ</w>
nei
íķĺìĹ¬ìķ¼</w>
ì°¨ìĹĲ</w>
ìŀ¥ìĿ¸</w>
ê·¸ëłĩì§Ģ</w>
ìĥģíĥľëĭ¤</w>
ê³µê²©ìĿĦ</w>
environ
ìļ´ìĺģíķĺëĬĶ</w>
ëĵľëĿ¼ë§Ī
ê¸°ê³Ħ
ìĬ¤íħĮìĿ´
ì°¨ìĽĲìĹĲìĦľ</w>
ê½¤</w>
ìŀĪìľ¼ëĤĺ</w>
laun
stern</w>
ìĳ
ìłĲìľł
ìĭľëĮĢ
ìĪĺìłķ
ìļ°ëł¤ê°Ģ</w>
continue</w>
ìĸµìĽĲìĿĺ</w>
ëĶĶìŀĲìĿ¸</w>
ìĿ´ìļ©íķľ</w>
ìĸ»ìĿĦ</w>
ì·¨ìĨĮ
ìłĦë¶ģ
him
âĳł</w>
ëĬĶê±°
ëª¨ëĳĲê°Ģ</w>
ë¨¸ë¦¬</w>
reported</w>
ges</w>
ìĺĢê³ł</w>
ëĤĺì¤ĳìĹĲ</w>
ì¢ħìĿĦ</w>
ìĥģìĥģ
ìĦłëĭ¤</w>
ìĬ¤ìľĦ
ìĿ´ìļ©</w>
ëĮĢìĭł
ë¶Ģì§Ħ
ìķĦë²Ħì§Ģ</w>
íĤ¨</w>
ëª¨ì§ĳ
meas
reco
ëĵ¤ìĿ´ëĭ¤</w>
ê·ľìłľ
íľ´</w>
ì£¼ê¸°</w>
ëŀĦ
town</w>
íļĮìĿĺìĹĲìĦľ</w>
ëĬĶê±°</w>
íĸ¥ìĿĦ</w>
pped</w>
ìĤ¬ìłĦ</w>
ìłľì£¼</w>
íķ¨ìĹĲ</w>
íķĺëĤĺë¡ľ</w>
ìļķ</w>
ë¬¶
ë¬´ìĹĩë³´ëĭ¤</w>
ëĤ´ë¦°</w>
ìĿ¸ëĵ¤ìĿĢ</w>
bir
tell</w>
íĤ¤ëĬĶ</w>
ë¬¼ë¡ľ</w>
jan
ìĿ¸ë¬¼</w>
éģ
ìµľì´Ī</w>
ë¬¼ìĹĪëĭ¤</w>
ë§¤ë§¤
ìĬ¤ìĬ¤
ë¦¬ë©´</w>
êµīìŀ¥íŀĪ</w>
ëĤ´ë¶Ģ</w>
ìķ¼ì§Ģ</w>
ëįĶë¶Īìĸ´
ìĿ´ëŀĳ</w>
íĥĢìŀĦ
ê±°ê¸°
down
benef
ìĺĽ
íĢ´
photo
ìŀ¬ìĥĿ
china</w>
ëıĻìĥĿ
mov
attack</w>
dist
ëĭ¥</w>
êµĲì²´
ìĻĢìĿ´
ë¹Ħì¦ĪëĭĪ
ìķĦíĶĦ
ë§Īë¥´
ë°ĿíŀĮ</w>
ìĹ°ìĿĦ</w>
ìĪĺìĹħ
regul
íĺ¸íĿ¡
ë§ĿìĿĦ</w>
íķĺëł¤ë©´</w>
ëĮĢíĳľê°Ģ</w>
artic
ba
ì¶©ê²©
democr
ëĭ¤ë£¨
below</w>
ìĿ´ìĿµìĿĦ</w>
ê±´ë¬¼</w>
ìª½ìĹĲ</w>
ëĮĢíķ´ìĦľ</w>
ìķĦë¹ł
íĺķíĥľë¡ľ</w>
protec
ìĦŀ
íķ´ë³´
access</w>
ë°ĺìĿĳìĿĦ</w>
ê³¼ìĹ°</w>
íĻĶë¡ľ</w>
ê²°ê³¼ê°Ģ</w>
ëĮĦ
ëªħíĻķ
mbc</w>
far
íĬ¸ë¡ľ
ìĨĮë¡ľ</w>
ìĤ¬ë²ķ
íĬ¸ëłĮ
mm</w>
ê±°ì§ĵ
ëª»íķł</w>
ë°į
ails</w>
ìŀĲìĦ¸íķľ</w>
box</w>
ë´ĲëıĦ</w>
ê³½
ìłĦëŀµ</w>
íķłë¨¸ëĭĪ
ê³µë¬´ìĽĲ</w>
special</w>
íķ´ìĺ¨</w>
economic</w>
åĪ
ê´ĳê³ł</w>
ì½Ķë¡ľëĤĺ
ues</w>
word</w>
âĶģ
êµ¬ì²Ń
ì¹´íİĺ
street</w>
ìķĦì¹¨</w>
íĻľë°ľ
íķ¸
ê¹ĥ
late</w>
played</w>
ligh
ìķłëĭĪë©ĶìĿ´
ign</w>
ê°Ĵ</w>
ãĢı
ì¦Ŀê°Ģíķľ</w>
ëĮĢë¦¬
ìĦłíĺ¸
ë§Įëĵ¤ê³ł</w>
wro
ë°°íĦ°
ê¸°ìĤ¬
result</w>
officials</w>
ìĥģíĥľìĹĲìĦľ</w>
them
cy</w>
ë³µê·Ģ
students</w>
decision</w>
ëĦĺ</w>
ëĤĺìĦł</w>
Â´</w>
ë¦ī
ëĲĲëĭ¤ê³ł</w>
vid</w>
ê²½ëĤ¨</w>
ìŀĳê°Ģ
ìĭľìĦ¤ìĿĦ</w>
gle</w>
ìŀĲê·¹
ê¸°ìĥģ
ê±°ë¦¬ë¥¼</w>
ë¹µ
ìĭľë¶ĢíĦ°</w>
ë©Ķë¦¬
ural</w>
ì§Ħìŀħ
ê²½íĹĺìĿĦ</w>
ëļ«
ì§Ħíĸīíķľëĭ¤</w>
ë§¹</w>
íķĺëĬĲ
íķĺìĦ¸ìļĶ</w>
êµ¬ê°Ħ
ê°ĳ</w>
services</w>
íĮ¨íĦ´
ì£¼ìĭĿ</w>
ìĤ¼ìĦ±ìłĦìŀĲ</w>
ìķĦìĽĥ
ê²ĢìĤ¬ë¥¼</w>
íı¬ë¥¼</w>
ëĿ¼ìļ´ëĵľ</w>
ìłģíķ©
election</w>
ìĿ¸ê°Ħ</w>
sters</w>
ë¨¹ìĿĦ</w>
issues</w>
ëĭ·
gres
addre
ìĸ¸ìłľ</w>
ìĦ°
ê°ĢëĬ¥</w>
ë¨¸ë¬¼
ìĿĮìķħ</w>
suppor
ì¹ĺìĹ´
ì¹ĺë¡ľ</w>
companies</w>
ê·¸ëł¤
ê³µíķŃ</w>
íĪ¬ìŀĲë¥¼</w>
ëĿ¼ìĿĺ</w>
sug
íĺ¸íħĶ</w>
matter</w>
wrote</w>
return</w>
íļĮìĤ¬ìĿĺ</w>
ìķĦìĿ´</w>
ìĨĲìĹĲ</w>
ê°ľìµľ</w>
ê²°ìĬ¹
ê²½ë¶ģ</w>
ially</w>
íŀĮëĭ¤</w>
pm</w>
ë³µìŀ¡
dem
thin
sam
íĺĶëĭ¤</w>
mind</w>
ìĿ´ë¥¸
ëĤĺê°ĢëĬĶ</w>
ë¬´ëł¤</w>
isl
ëĭĺìĿĢ</w>
âĳ¡</w>
cop
ot</w>
batt
ëĮĢíıŃ</w>
íĻľìļ©íķ´</w>
ìłĢì¶ķ
ìķ¨ë²Ķ</w>
whole</w>
stro
ëī´</w>
ìĸ´ëĸł
ìĤ¬ìĹħìĿ´</w>
ald</w>
ë¶Ħëħ¸
ied</w>
cost</w>
ëłģ
íĬ¸ëłĪìĿ´
ì¡°ìļ©
ìľĦìĽĲ</w>
);</w>
ìĤ¬ìĹħìĿĺ</w>
ë§Įëĵ¤ìĹĪëĭ¤</w>
ì¡°ìĭ¬
ìĺĪê³ł
ne</w>
ìĿ´ìļ©íķł</w>
ìĪĺì¤Ģìľ¼ë¡ľ</w>
running</w>
ê³µê°Ħ</w>
similar</w>
earli
ìĹ°êµ¬ìĽĲìĿĢ</w>
ê¸°ìĤ¬</w>
ìĿ´ë§Ī
ì¹ĺìĿĺ</w>
ê¹Ģìłķ
ëª¨ëį¸</w>
ìĹħë¬´ë¥¼</w>
lea
ìĽĲìŀĲ
ì²©
face
sources</w>
outside</w>
ìĿį
migr
ê¸°ë§Į</w>
reason</w>
ëıĦì¿
statement</w>
ii</w>
ãģª
trav
tically</w>
released</w>
ë´Ħ</w>
ìķĦëĵ¤</w>
sequ
talk</w>
ê²łìĬµëĭĪëĭ¤</w>
ìĿ´ëĭĪ</w>
ê·¸ê±´</w>
ìĪĺìļĶê°Ģ</w>
ì§ĦíĸīëĲľëĭ¤</w>
ë²ķìĿĢ</w>
inc
role</w>
photo</w>
gets</w>
ìľĦìĽĲíļĮëĬĶ</w>
êµ¬ìĹŃ
amoun
íĺķìĿĺ</w>
ìµľìĨĮ</w>
ìŀĲê³ł</w>
cat
íķľëĤĺëĿ¼
íķµ</w>
ëķĮê°Ģ</w>
execu
ê¶ĮìĿĢ</w>
ford</w>
ëĭ¤ìĭľ
ë¹Ľ</w>
ìĹ°íķ©</w>
ìķ½ê°Ħ</w>
íĶĦë¥¼</w>
íİ¸ìĿ´ëĭ¤</w>
ìĭ¤ìĹĲ</w>
hit</w>
ìķĦíĶĦë¦¬
arch
ì§ĦìĿĺ</w>
desp
ìŀ¬ëĭ¨</w>
ìĿ¸ìĹĲê²Į</w>
playing</w>
ëªħìĺĪ
ending</w>
ì´Īê¸°</w>
íķ´ê°Ģ</w>
ê³³ìľ¼ë¡ľ</w>
technology</w>
ë¹ĦëĮĢ
enter
ëĮĢì±ħ</w>
ë¸Ķë¡Ŀ
ìķĦì¹´
íŀĺ</w>
ëģĶ</w>
short</w>
ê¸°ìĺ¨
chr
release</w>
ìĭľìķĦ</w>
ìłĪì°¨ë¥¼</w>
ìłĢì§Ģ
ìĿĺë¯¸ê°Ģ</w>
ìĹĨì§Ģë§Į</w>
ìłĦë¬¸ê°Ģ</w>
ë¬¸ìłľìĹĲ</w>
ëıĻìĿ´</w>
ìķĦëĭĮê°Ģ</w>
ìłķì²´
ì½ĺíħĲì¸ł</w>
pus
ëĳĲìĤ°
ëĮĢê²°
ì¡°ìĦ±</w>
page</w>
ë¹Ĺ
seems</w>
share</w>
mur
hours</w>
ìĹĲê²ĮìĦľ</w>
ì¡Įê³ł</w>
ì·Ħ
ë¦¬ê²Į</w>
ìĦ±ìľ¼ë¡ľ</w>
condi
gam
íĨµíķ©</w>
ìĿ´ìŀ¬
íĻķì§ĦìŀĲ</w>
êµ¬ë§¤</w>
usi
ìĭ¬ê°ģíķľ</w>
ê°ĲìĤ¬íķ©ëĭĪëĭ¤</w>
online</w>
ìľłëªħíķľ</w>
ìķĦíĶ
watch</w>
ìķĦëĭĪìĹĪëĭ¤</w>
ë¥Ń
above</w>
spir
ìļ¸ìĤ°</w>
by
ìĨįëıĦ</w>
progr
ìĽ¨ìĿ´
reas
foot
science</w>
ëıĻìĿĺ</w>
ê·¸ë§Įíģ¼</w>
ëĭ¹ê³¼</w>
ìŀĦìĭľ
ê±´ìĿ´</w>
quar
aìĶ¨ëĬĶ</w>
´ëĭ¤</w>
term</w>
ë°Ģ</w>
ë¹ĦìĦľ
ìĥĿê°ģíķĺëĬĶ</w>
íĲ
tation</w>
ìłģê·¹ìłģìĿ¸</w>
ì½©</w>
''</w>
ìķķë°ķ
ì·¨ëĵĿ
ê´Ģê´ĳ</w>
march</w>
ëĭ¹ìĹĲ</w>
ìłĢìŀ¥
director</w>
ê¸°ìķĦ
ëĵľìĹĲìĦľ</w>
sense</w>
ê¸°ë°ĺ</w>
ìŀ¬ë¬´
mal
ì§ģíĽĦ</w>
ë³ĳìĽĲ
ë³ĳìĿĦ</w>
ë¬¼ëŁ¬
ìĹ°êµ¬ìĽĲ</w>
íİ¸ì§ĳ
compu
íĴĢìĿ´
ë°ľìłĦìĿĦ</w>
tee</w>
ë²łë¥´
event</w>
ë©´ìłģ</w>
ë¬¼ì§Ī
cli
simply</w>
ìĩ¼</w>
íĶĦë¡ľìłĿíĬ¸</w>
ìłĦíķ´ì¡Įëĭ¤</w>
road</w>
ëĭ¬íķĺëĬĶ</w>
ì¶ķìłľ</w>
íķ´ì¡Įëĭ¤</w>
ìłĲì°¨</w>
ì°¨ëĭ¨
ê²Ł
æĿ
ì£¼ìĹĪëĭ¤</w>
espec
ly
ëį°ë·Ķ
ëŃĶê°Ģ</w>
super
íŀĲ</w>
íĺĦëĮĢ</w>
http</w>
ì·¨ê¸ī
ê³µê¸ī</w>
ìĤ¬ìļ°
ì¡°ìłĪ
íĤ¤ë¡ľ</w>
ë°©ìķĪ</w>
íĨµìĥģ
fig
lost</w>
custom
ìķĪë³´
ëĤłìķĦ
ë¶ĦìľĦê¸°ë¥¼</w>
ëıĮìķĦê°Ģ
ìĺ¬ë¦°</w>
ìľłíĬľë¸Į</w>
nation</w>
åį
êµŃë¯¼ìĿĺ
ìĿ¸êµ¬</w>
article</w>
standing</w>
ëĭ¬ìĿĦ</w>
mean</w>
ìĭ¤ìĿ´</w>
ãħĩ</w>
ê¶Įíķľ
ìĿĢíĸīìĿĢ</w>
dol
ìŀħì£¼
ìľ¼ëĭĪê¹Į</w>
ì£½ìĿĮ
ëĪĪê¸¸ìĿĦ</w>
ìĸ´ëĬĲ
ìĹĲìĦľë§Į</w>
extr
lead</w>
ìĭłì¢ħ</w>
proper
changes</w>
ìĤ¬ëŀĮëĵ¤</w>
ìĭĿìĹĲ</w>
ìŀĪìĹĪì§Ģë§Į</w>
ê·¸ìłĢ</w>
ìłľëª©
ìłķíķĺëĬĶ</w>
ìĹ°ê¸Ī
especially</w>
record</w>
ÃĹ</w>
ê¸°ê´ĢìĿĺ</w>
ìł¸ìĦľ</w>
ê¿ĪìĿĦ</w>
religi
ìŀĦê¸Ī</w>
ìĿ´íĸī
ë°ĺëĮĢ</w>
'll</w>
ìľĦìĻĢ</w>
ãĢī</w>
ê¸´ëĭ¤</w>
shot</w>
ites</w>
sw
ìĸ´ëĳ
despite</w>
éĩ
figh
tou
abl
'âĢ¦</w>
moder
ë¶Ģì²ĺ
ìĿ´ê²ĥìĿ´</w>
ky</w>
words</w>
ìĺģìĸ´
ìŀĪìĿĮìĿĦ</w>
ê´ĢìĹĲ</w>
ìĪĺìĽĲ</w>
ìĭ¤ë¡ľ</w>
íķ´ëĭ¹íķĺëĬĶ</w>
scienti
ì§ģíķľ</w>
ìĥģëĭ¹íķľ</w>
institu
ìľ¡ìĦ±
ê³łëĵ±íķĻêµĲ</w>
flo
ìĨĮíĶĦíĬ¸
ì¡°ìĽĲ</w>
ëªħìĿ´ëĭ¤</w>
ë²¤ì²ĺ
ìĿ¼ê°Ħ</w>
ì§Ħë³´
ê±´ìĿĺ</w>
ë¶Ģë¶ĦìĿ´</w>
industry</w>
ë²ķë¥ł</w>
ë¬¸ìłľë¡ľ</w>
ì§ģìĿĦ</w>
íĥĢë¥¼</w>
shoo
graph
ì¢ħíķ©</w>
ê¹Ģìĺģ
provide</w>
ëĿ¼ìĦľ</w>
ë¥ĺê°Ģ</w>
phys
ìķĦë¬´ëŁ°</w>
himself</w>
multi
cred
ì¤ĳê³µ
ê¾¹
ëıĦëĤ´</w>
êµ¬íĺĦ
ë¬´ìĦľ
ìĿ´ëĵł</w>
ëĭ¨ìĪľíŀĪ</w>
began</w>
ìĮĢ
site</w>
íĶĦë¦¬ë¯¸ìĹĦ</w>
ì²´íĹĺ</w>
ë¡ľìį¨</w>
ê¹Ĳ</w>
ì¤ĳê°Ħ
groups</w>
ìĭłìĦ¤
ìĿ´ìĥģìĿĦ</w>
tun
ìĦ¸ìĹĲ</w>
ìĦłìłķ</w>
ê°Ģêµ¬
ìĹ¬ë¦Ħ</w>
ë³´ë©´ìĦľ</w>
(-</w>
evidence</w>
ê¸°íļĮê°Ģ</w>
global</w>
ìĺĽ</w>
ìľłëĭĽ
ëĬ¥ëł¥ìĿ´</w>
strong</w>
ì§ĢìĹŃìĿĦ</w>
ìĿ¸ìĤ¬</w>
ê±°ë¦¬ê°Ģ</w>
ë¬´ê¸°</w>
kt</w>
ì¹ľíĻĺê²½</w>
ìŀĪìľ¼ëĭĪ</w>
facebook</w>
suff
íĻľìĦ±íĻĶ</w>
countries</w>
ë§Ĳíķł</w>
became</w>
ìĿį</w>
ëĬĺìĸ´ëĤĺ
ëª¨ë¥¸ëĭ¤</w>
ê·¸ë¦°</w>
ìĵ°ëłĪ
ination</w>
mark</w>
ê·¸ëĵ¤ìĿ´</w>
ìĭľìŀĳ</w>
ib
ëıĦë§Ŀ
saw</w>
ëĮĢíļĮ
pretty</w>
ëįķ</w>
ê·¸ë¦°
ëħ¸ì¶ľ
imp
ìĤ¬ëĵ¤ìĿ´</w>
piec
ë§Īë¦¬
ìĿ´ìĬ¤
ë²Ħë¦°</w>
situ
ìĦ¸ìĥģìĿĦ</w>
clim
ìĬ¤ë§ĪíĬ¸íı°
ë°ľë§¤
ëıĻìĹĲ</w>
ìĥĿê¸´</w>
ìĿ¼ëıĦ</w>
ì¦Ŀëªħ
íĨµê³Ħ
ë§Īì¼ĢíĮħ
zz
~~
forward</w>
ìĿ´ë¥¸ë°Ķ</w>
od</w>
itself</w>
ë¶Īê°ĢëĬ¥
íķŃê³µ</w>
sor
ê·¸ë¦¬ìĬ¤
ìľłê¸°
vision</w>
íķĻìĿĦ</w>
tter</w>
crimin
duce</w>
ê¸°êµ¬</w>
ëĭ¤ë¥´ëĭ¤</w>
build</w>
diffic
rely</w>
ìĹĪëĭ¤ê³ł</w>
ples</w>
ëĪĪìĿ´</w>
ìħ°
pay
ì¡°ìłķ</w>
ê»ĺìĦľ</w>
ìļ´íĸī
ëĮĢìĿĳ</w>
ëıĻë£Į
ì§ĪíĻĺ
ë·°</w>
íĢĺ
ken</w>
related</w>
kore
å°
ëª©ìĨĮë¦¬ê°Ģ</w>
ells</w>
ìĺ¥</w>
ì£¼ìļĶ
via</w>
ê¸´ê¸ī
ê³µë¬´ìĽĲ
movi
ìĪľíĻĺ
ë³´ìĥģ
ìĭ¤íĸī
ì²łëıĦ</w>
earlier</w>
ì£¼ì£¼
ê·ł</w>
ê´Ģê´ĳê°Ŀ
vote</w>
ref
'.</w>
aged</w>
ìĦĿìľł
ë£¸
ìĸ¸ëĭĪ
iev
wasn</w>
ì°¨ì§ĢíĸĪëĭ¤</w>
íĺĦìŀ¥ìĹĲìĦľ</w>
ëģĿê¹Įì§Ģ</w>
íķłì§Ģ</w>
ìĸ¸ìłľëĤĺ</w>
ë³´ëıĦíĸĪëĭ¤</w>
ìĥĪëĪĦë¦¬ëĭ¹</w>
íĴįë¶Ģ
ê¸°ìŀĲ</w>
ë§ŀìĿĢ</w>
ìĹĶíĦ°
ê°ľë°©
gs
ê²Įìĭľ
ìłĢëł´
ìĬµëĭĪê¹Į</w>
íĴĢ</w>
needs</w>
æ°
windo
ëĭ¤ìļ´
anti</w>
ê²ĢìĿĢ</w>
ê³łìļĶ</w>
ìĦĿìĿ´</w>
ì´ĪìĹĲ</w>
íĻľìļ©íķľ</w>
âĢ¦'</w>
ìľłìĿ¼íķľ</w>
ìłĳìĪĺ
ìĿ¼ëŁ¬
ê·¸ëĤĺë§Ī</w>
ìŀĪê²ł
ìĪĺìĪł
ì¶ľìłĦ
ë°©ë¬¸</w>
ëĭ¤ëħĢ
ëĭµë³Ģ
ìĤ¬ëł¹
íķ©ê²©
ì´Īëĵ±íķĻêµĲ</w>
ì´Ŀë¦¬ëĬĶ</w>
forman
chie
ê°Ĳìłķ
ìĹĲìĬ¤
needed</w>
ê¸°ë°ĺìľ¼ë¡ľ</w>
near</w>
ëį¸
ê±°ëĵŃ
íķĺìħ¨
iter
ì£¼ìĭľ</w>
íĮĲìłķìĿĦ</w>
uk</w>
themselves</w>
quite</w>
ë²ķìłģ</w>
ë§ŀì¶¤íĺķ</w>
sh</w>
ìŀĪìĹĪëĬĶëį°</w>
ì£¼ê´Ģ
vers</w>
ìĭľíĭ°</w>
ë³´ìĹ¬</w>
ìĹĲëĦĪì§Ģ
ëª©ìĨĮë¦¬ë¥¼</w>
ìĭ¬ìĿĺ
ìĥģíĥľë¡ľ</w>
ìĪĺì¤Ģ</w>
'd</w>
íĽĮë¥Ń
power
ìłł</w>
ê¹Įì§ĢëıĦ</w>
ban</w>
ggest</w>
ì»¨ìĦ¤
ëĤ´ëł¸ëĭ¤</w>
ë¶Ģë¶ĦìĿĦ</w>
ìĿ´ê°ĻìĿĢ</w>
ë§İìķĦ</w>
ì§ĳì¤ĳ</w>
íĺ¼ëŀĢ
friends</w>
shows</w>
ìŀ¥ëĤľ
style</w>
ìłĲê³¼</w>
ëĿ½ìĿĦ</w>
íĸīìľĦë¥¼</w>
google</w>
na</w>
finan
íķľë§Ī
ìĸ´ì©Į
ê·¼ë³¸
ìłĢëħģ
ìĦ¸ëĬĶ</w>
ìłľìĻĢ</w>
ticip
ê¿Ģ
bul
ìĽĮìĦľ</w>
ì¡°ìĸ¸
ì°½ìĽĲ
ë¶Īë¦¬ëĬĶ</w>
ê°ĢìĪĺ</w>
ìĿ¸ìĥģ</w>
include</w>
ìĺģìĸ´</w>
ective</w>
ëĤ´ìĿ¼</w>
ìłľìķ½
ìŀ¥íķĻ
ìķĦìļ°
ba</w>
ë¦ĩ
total</w>
íĸīìľĦ</w>
ìľĦíķ´ìĦľ
midd
langu
ê·¸ëłĩëĭ¤ë©´</w>
ëĭµíĸĪëĭ¤</w>
êµ¬ìĹŃ</w>
ë¡ľìŀ¡
recently</w>
tivity</w>
ëĤ´ê¸°</w>
ìłĦê¹Įì§Ģ</w>
fight</w>
ìĺ·ìĿĦ</w>
ëĬĲëĤĦ</w>
íĺĲìĿĺë¥¼</w>
ìłĦëŀµìĿĦ</w>
ì¤ĳìĿĺ</w>
ìĭĿìĿĢ</w>
ì§Ģëĭ¤</w>
ìĥģìŀ¥
íıīìĨĮ</w>
ìķŀ</w>
ë¬´ë¦
candi
íľ´ëĮĢ
ìĹ´ìĸ´</w>
ìĿĺìķ½
ë°ĺëĮĢë¡ľ</w>
sent</w>
ëĤĺìĿ´</w>
ì§ĢìŀĲì²´
ìķ¡ìĿĦ</w>
ìłľëıĦë¥¼</w>
íĦ±
ìķĮëł¤ì§Ħ</w>
ëĲĲëįĺ</w>
ìĺģìĹħìĿ´ìĿµ
ìĿ´ê¸°
ê·¸ëŁ¼
ìĭ¤ìĿĢ</w>
common</w>
ìĿ´ìĤ¬</w>
ìŀĳíĴĪìĿĦ</w>
ì£½ìĿĢ</w>
ì§ĢìĽĲíķĺëĬĶ</w>
ìŃ
ì¢ħìĿ´</w>
íļĮìŀ¥ìĿ´</w>
ì§ľë¦¬</w>
ì§Ģìĭľ
cn
applic
ë§ĺ
ìĹ°ìĺĪ
interest</w>
ì¢ĭìķĦ</w>
minister</w>
ì¡°ìŀĳ
sle
ê·¸ëŁ¬íķľ</w>
promis
held</w>
ì¹´ì¹´ìĺ¤
íļĮê³Ħ
íĥĦìĥĿ
íĺ¸ìĨĮ
ë²Ħëł¸ëĭ¤</w>
god</w>
ë¹ĦìĿĺ</w>
ë§¤ëĭĪ
ëª©ìłģìľ¼ë¡ľ</w>
ãħĭãħĭãħĭãħĭãħĭãħĭ</w>
ìĨĶë£¨
ston</w>
ëĵ¤ìĹ¬
ê°Ģìĭľ
ë³¸ê²©ìłģìĿ¸</w>
ì§Ħìłķíķľ</w>
ëĤ¨ìĦ±
ì°©ìļ©
ë¡ľìĦľìĿĺ</w>
model</w>
ìĥīìĿĦ</w>
ë¶ĪìĿĦ</w>
ê³µìĤ¬
ëĤ«
íĶĮëŀĺ
ë¯¸ê°Ģ</w>
ìłķë¶ĢìĻĢ</w>
ì°½ìĿĺ
dd</w>
âĹı</w>
ë°©ìĭĿìĿĦ</w>
íĮ¨ë¥¼</w>
ì¢ħìĤ¬
ëĪĮ
ê²°ìłķìĿĦ</w>
ëł¤ìĦľ</w>
ì¶ľíĮĲ
ìĥģëĮĢ</w>
band</w>
ê¸°ëıħ
jects</w>
ë²Īíĺ¸</w>
ìĤ¬ëŀĮëĵ¤ìĿĦ</w>
ìĿ´ìłľ
consum
network</w>
ìĦ¬</w>
ills</w>
ê¸°ë¡ĿìĿĦ</w>
ë¹Ħë¡Ŀ</w>
fran
ìĿ´ìĹĲìļĶ</w>
ëĲĺê¸°ëıĦ</w>
dig
augh
íĶĮëŀ«íı¼</w>
ë¶Ħìķ¼ìĹĲìĦľ</w>
official</w>
ror</w>
ìĭ±</w>
rate</w>
ë°°ê°Ģ</w>
ëıĪìĿ´</w>
ì§§ìĿĢ</w>
ìĶ¨ìĻĢ</w>
ìĿ´ëªħ
êµ¬ì¶ķ</w>
tory</w>
ìĿ´ëŁ°
ìĺģìĽħ
ë¡ľë´ĩ
ìĦ±ìŀ¥ìĿĦ</w>
ëĭ¹ë¶ĢíĸĪëĭ¤</w>
ë§ĪìĬ¤íģ¬</w>
ëĦĵìĿĢ</w>
ìĿ¸ëł¥</w>
ìĿĺì¡´
ë°ľíĳľ</w>
ëĿ¼ê°Ģ</w>
ided</w>
ë©Ķë¥´
val</w>
sa</w>
êµ°ìĹĲ</w>
ë²ħ
ì§ĢìĪĺ</w>
ëĬĺìĸ´ëĤľ</w>
ë§Ĳíķ´</w>
ë¶Ģì¡±íķľ</w>
price</w>
ê°Ģë©°</w>
íģ¬ëĬĶ</w>
ìĦŃ</w>
ìĪľìľĦ</w>
ìĦ¹
ëĮĢì±ħìĿĦ</w>
add</w>
ains</w>
ëıĻê¸°</w>
íĹ¨
performan
expected</w>
âħ
ìĭľìĺ¤</w>
íĻĺê²½ìĿĦ</w>
==
ìķ¨ë²Ķ
lv</w>
ì§Īë¬¸ìĹĲ</w>
íģ¬ê°Ģ</w>
ìŀĲëĵ¤</w>
sk</w>
ì¡°ì§ģ</w>
ìĦ¤ëĵĿ
anyone</w>
ì¹ĺê¸°</w>
ì§ĢìĿ¸</w>
pose</w>
ì°¸ì¡°</w>
else</w>
ìķķëıĦ
ê²½ê¸°ëıĦ
ìĬ¹ë¦¬ë¥¼</w>
step</w>
íĴĢìĸ´
ì¦īìĭľ</w>
ë°±íĻĶìłĲ</w>
ê³Ħê¸°ë¡ľ</w>
ì¤ĳìĭ¬ìĿĺ</w>
ë³´ìĹ¬ì£¼ëĬĶ</w>
ìĿ´ìĽĥ
ìĿ¼ìĥģ
ëĭ¿
ìĺ¤ìĹ¼
easy</w>
ë²łíĬ¸ëĤ¨</w>
syst
emer
ê±¸ìĸ´
íķĺëĿ¼ê³ł</w>
necess
conserv
gan</w>
ëĵľëłĪ
ì¤ĳìĨĮê¸°ìĹħ</w>
ë»Ķ
ê²°ìłķ</w>
ëĪĦìłģ</w>
ìĥģìŀĦ
ìĿ´ìĬĪ
original</w>
ë¹Ħì¤ĳìĿ´</w>
ìµľëĮĢ
ì§ĢìŀĲ</w>
íĺķìĿĢ</w>
lower</w>
ìļ°ìĬ¹</w>
ìĹ´ë¦°ëĭ¤</w>
ì£¼ìĦ¸ìļĶ</w>
believ
ë²ł</w>
opport
ê°Ģë§¹
ìµľëĮĢíķľ</w>
ë§ŀê²Į</w>
mental</w>
íĭ´</w>
em</w>
ë¬¸íĻĶë¥¼</w>
ìĿ´ê°ĻìĿ´</w>
ê²ĮìŀĦìĿĦ</w>
actions</w>
ìħľ
íĿĺëŁ¬
follow</w>
íĨµìłľ
ìłĦê³¼</w>
ì¡°ìĹĲ</w>
ë°ĶëŀĮìĹĲ</w>
ê´Ģëł¨íķľ</w>
design</w>
gun</w>
ony</w>
ë¯¼ìĿĺ</w>
ì¢ĭê²łëĭ¤</w>
webs
ìĹ°êµ¬ìĨĮ</w>
ê°Ģë¦¬
ê°ĻìĿĢ
ëĭ¤ëĭĪ</w>
ìĹĦë§Ī</w>
],</w>
inten
ë¯¸ìķĪ
ëĭ¤ìĿĮëĭ¬</w>
íķľêµŃìĿĢ</w>
jap
pc</w>
íĸĪìĸ´ìļĶ</w>
ë¦¬ìĬ¤</w>
aug
ëķĲ</w>
íĶĮëŀ«íı¼
ìĪĻ</w>
ê°ĻìķĦìļĶ</w>
heav
mee
ì§ĳìľ¼ë¡ľ</w>
ì²ŃìĨĮëħĦ</w>
ìłľìĸ´
mission</w>
invest
ë°Ń
ìĿ¸ê·¼
ë¸Įëŀľëĵľ
higher</w>
tan
ê°Ģìķ¼</w>
ì¦ĺ
ëĭ¹ìĤ¬
íķľìłķ
ë§¤ê°ģ
june</w>
ìĬ¤ë§ĪíĬ¸</w>
íķĺëĬĶì§Ģ</w>
ì°Į</w>
ë³´ìĻĦ
larg
indic
ëĭ®
ìĻ¸ë¶Ģ</w>
ìĸĳìĿĦ</w>
ìŀĪìĿĦê¹Į</w>
íķĦìĪĺ
íĮ¨ìħĺ
wide</w>
ë§ĪìĿĮ</w>
ê³µíı¬
ìĦ¸ìĿĺ</w>
ìĦ¤ìĿĦ</w>
ìºĶ
ëłĪë²¨
ëª¸ìĿ´</w>
ê°ĻìĿĢëį°</w>
æŃ
íĲģ
ë©Ķëī´
inj
ê°ķìłľ
ê³µê°ĦìĿĦ</w>
ëĮĢìĥģìĿ´</w>
ëħ¸ìĿ¸
ìĤ¬ìĿ´ìĿĺ</w>
ìĿ´ëıĻ</w>
ìĽĮíģ¬</w>
ëª¨ìľ¼
soon</w>
ë¶ĦëªħíŀĪ</w>
ë³µì§Ģ</w>
íĻķìĿ¸</w>
íĹĮë²ķ
ëħ¸ëŀĺ</w>
sign</w>
ìłĦëł¥
ìŀĦìĿ´</w>
ìĦ¼</w>
ìĽĶìĹĲëĬĶ</w>
park</w>
wers</w>
private</w>
chur
íĥķ</w>
ì¹ĺë©°</w>
ë¶Ģìŀ¥
ë§ĲëıĦ</w>
íı¬ì§Ģ
íħĮë§Ī
ìľĦê¸°
weeks</w>
ì¹ĺë£Į</w>
results</w>
ê²ĥìĿ´ê³ł</w>
ëª°</w>
ìł¸ìķ¼</w>
íĬ¹íĹĪ
ëĭ¨ê³¼</w>
colle
ë¸Ķë£¨
ì¦ĿìĿ´</w>
distr
ìĦľìļ¸ìĭľ</w>
ìŀ¬ëĬĶ</w>
ìĨĲíķ´
ê¸°ì¤ĢìĿĦ</w>
certain</w>
ê·¸ëŁ¬ë©´</w>
eg
ëĭ¤ëĭĪëĬĶ</w>
strate
íıĲê¸°
ëª¬</w>
fa</w>
ì§ĢëĭĮ</w>
ìĺ¬ëĿ¼</w>
ì²ŃëħĦ</w>
íı¬ë¥´
ìŀ¬ë¡ľ</w>
esses</w>
íĩ´</w>
ìĪĺìĺģ
êµĲíĨµ</w>
ìĭľëĭ¤</w>
ëĭĲ
ê½ĥ</w>
child</w>
ì²´ëĬĶ</w>
ìĤ°ìĹħìĿĺ</w>
ìıł
íĽĦë³´ê°Ģ</w>
ëĤ´ëĤ´</w>
ì»¬ëŁ¬
ë¶Ģì§Ģ
stra
ìĿ´ë¦ĦìĿ´</w>
ì¹´ëĵľë¥¼</w>
fem
ìķĦìĿ´ê°Ģ</w>
increas
ìłģìłĪíķľ</w>
ëĴ¤ë¥¼</w>
ê³łê¸°</w>
dr</w>
hope</w>
content</w>
íķĺë°ĺê¸°</w>
ëį°ìļĶ</w>
ë¹Ħìļ©ìĿĦ</w>
ê°Ģê²Į</w>
ìĽĶëĵľì»µ</w>
moved</w>
ëĬ¦ê²Į</w>
ê¸°ëĮĢëĲľëĭ¤</w>
ë³´íĺ¸</w>
ades</w>
ëķĮìĹĲëĬĶ</w>
ëħ¸ì¡°</w>
corpor
ë¡ľëĵľ
hold</w>
ìļ°ìĪĺíķľ</w>
ë¶Ģëĭ´ìĿĦ</w>
ì¤Ģë¹Ħ</w>
ol</w>
ê°ĸëĬĶ</w>
ë¹ĦêµĲìłģ</w>
ëª©íĳľë¥¼</w>
íĪ¬ëªħ
ìłĢëħģ</w>
prote
acked</w>
republican</w>
ë³´ê¸ī
íķłê¹Į</w>
êµĲíĻĺ
syri
ìĻ¸ìĿĺ</w>
ìŀłìŀ¬
íĮĮíĬ¸ëĦĪ
ìłĦìľ¼ë¡ľ</w>
ë°ľìĥĿíķĺëĬĶ</w>
ëĮĢíĻĶë¥¼</w>
ìĦ¸ìĽĶíĺ¸</w>
extre
ëıĻìĿ¼íķľ</w>
ny</w>
ê³Ħì¸µ
ë§ĪìĿĮìĹĲ</w>
íİ¸ë¦¬
ëĭ¤ë¥´ê²Į</w>
tiz
foreign</w>
ìŀĲëĵ¤
ì¤ĳìĹĲëĬĶ</w>
ìµľì´ĪìĿĺ</w>
longer</w>
ê²½ìŁģëł¥ìĿĦ</w>
ìĿ´ìľł</w>
ìķ¼êµ¬</w>
tom</w>
âĻ
íķľë²Ī
ë³´ìķĪ
ìĸ´ê¹¨
ë¦¬ê·¸
ìĤ¬ìľł
ìĤ´ìĿĦ</w>
ì¹ĺë£Įë¥¼</w>
ìĥģìĹħ
ìħĶìĦľ</w>
ëĵ±ìŀ¥</w>
ëĿ¼ë¥¼</w>
íıĲ</w>
ê°ľìĿ¸ìĿĺ</w>
íĸ¥ìĥģ
íĥĳìŀ¬
cm</w>
ë²Ķíķľ</w>
íĽĦìĿĺ</w>
ìĿ¼ì£¼
ìľłëıĻ
ka</w>
ìŀ¥ë©´
ë§Įëªħ</w>
ë°ľìĤ¬
ê±°ë¡ł
ìĤ¬ê±´ìĿ´</w>
administration</w>
íĻĢ</w>
austr
ìºĲëĤĺ
ãİ¡
ìłĪë°ĺ
inside</w>
ìĨĲìľ¼ë¡ľ</w>
mater
ë²Įìį¨</w>
email</w>
billion</w>
ë£¬</w>
ry
ëģĹ
ìĦ¸ëĮĢ
ê¸°ë¡Ŀíķľ</w>
ìĦĿìĿĢ</w>
club</w>
ëĤ´ë¦¬
ì§Ģë°©ìŀĲì¹ĺ
ê¸īì¦Ŀ
ê¸°ìĹħìĹĲ</w>
intro
íķĦìļĶ</w>
nh
ê³łëł¹
refer
lon
potential</w>
ì¶©ëĤ¨
ìĿĺíķĺë©´</w>
ë³´ì¡°
ëģĿëĤľ</w>
un</w>
".</w>
ìĹĲíĶ¼
ê°ĲìĨĮ</w>
ìĺ¤ë©´</w>
?'</w>
ëĤ´ëĭ¤
workers</w>
ìĿ´ìľłê°Ģ</w>
íħĲëį°</w>
created</w>
ë³¸ê²©ìłģìľ¼ë¡ľ</w>
íĽĦë°ĺ</w>
ê·¸ë¦¬</w>
ì¶ķíķĺ
ë³µìĿĦ</w>
cali
ìĤ¬íķŃìĿĦ</w>
íķĺëĤĺê°Ģ</w>
yed</w>
ìľĦìķĪ
ìĿ´ìĹĪê³ł</w>
ìĥģíĥľ</w>
íĻľìļ©</w>
ë¬´ì¡°ê±´</w>
ìĭľìĽĲ
cut</w>
ê°Ģì¹ĺê°Ģ</w>
ëĭ´ëĭ¹</w>
ìĿĺì§Ģë¥¼</w>
ëª°ìķĦ
ìĿ´íķľ</w>
metho
ëį°ìĿ´</w>
ìĤ¬ìłĦ
ëĵ¤ìĸ´ê°Ģ</w>
ë¶ĦìĿĢ</w>
ë³ĢíĻĶ</w>
íĶ¼ê³ł
ì¶ľìŀħ
íĭ°ë¸Į
wle
tish</w>
íħĮìĿ¸
íĮ¨íĤ¤
understand</w>
íĶĦë¡ľ</w>
ìłľê³µ</w>
ë°©ìĿ´</w>
íĻľìĦ±íĻĶ
july</w>
ëĤ´ìļ©</w>
ìłĪëĮĢ
ëĤ¨ìĦ±</w>
radi
ãĪľ</w>
bring</w>
êµĲìĤ¬</w>
ëĵ±ìŀ¥íķĺëĬĶ</w>
wel
ê·¸ë¦¼</w>
internet</w>
íĺĦìŀ¬ê¹Įì§Ģ</w>
íķĺìĹĲ</w>
ìĿĳìĽĲ
ached</w>
ie</w>
ìĭľìĹĲëĬĶ</w>
ìĨĮìĥģê³µ
êº¾
ìĺģêµŃ
âĢ¦âĢ¦."</w>
íĮĮìĽĮ
íĤ¤ìĽĮ
ìķĮëł¤ìł¸</w>
minutes</w>
ìŀĳê°Ģ</w>
australi
ì²´ê³Ħ</w>
trade</w>
ìŀ¥ê¸°</w>
èĢ
free
íİ¸ìķĪ
ëł·
cru
ìĻĦìłĦ</w>
mak
ë¶ĢìĿ¸
int</w>
ê·¸ë§Į
ìŀĲê¸ĪìĿĦ</w>
middle</w>
ìĹ´ìĹĪëĭ¤</w>
íķĺìĺĢê³ł</w>
ë°Ķë¥´
ê²¸</w>
ìļ´ìĺģíķĺê³ł</w>
ìłĦë¬¸ê°Ģëĵ¤ìĿĢ</w>
ril</w>
ìĻĦíĻĶ
íİĻ
ì°¸ìĦĿíķľ</w>
financial</w>
ê²Ģìĥī
ëĭ´ê¸´</w>
ëª»íķľëĭ¤</w>
ê±°ë¦¬ëĬĶ</w>
ìĿ´ëŀĺ</w>
íħĮìĿ¸ë¨¼
ìłģì§Ģ</w>
ì§ķìĹŃ</w>
ìķ½íķľ</w>
ìŀī</w>
ì§ĢìĨįìłģìĿ¸</w>
ëĴ¤ë¡ľ</w>
ìĿ¼ìłľ
íı¬íķ¨</w>
âĸ·</w>
living</w>
ëĤ¨ìĿĦ</w>
ëĦ¤íĬ¸ìĽĮíģ¬
ê°ķìĿĺ</w>
íĮĮíģ¬</w>
ê¸´ìŀ¥
nearly</w>
ëĤ¸
ê³µíĨµ
ë²ķìĿ¸
mary</w>
ëĵľëĿ¼ìĿ´
íķľíĻĶ
ìĿ¸ê³µì§Ģ
ìĺĢì§Ģë§Į</w>
ëĤĺë¦¬
bat
êµĲíļĮ</w>
ìĭłì²Ń</w>
ë³´ê°Ģ</w>
ê¼´
ìĥĿê°ģíķĺê³ł</w>
ìĤ¬ëŀĮëĵ¤
kets</w>
ìĤ¬íķŃ</w>
ê°ĢìĻĢ</w>
ìŀĲëĤĺ</w>
users</w>
íıīìĿĦ</w>
ë°©ë²ķìĿĢ</w>
ê³łë§Ī
ìĹ°ëł¹
ëıĻë°ĺ
ì¹´ìļ´
ì½Ķë¦¬ìķĦ
êµ¬ìĦ±</w>
personal</w>
ìĹ¬ê¸°</w>
ë§ĮìĽĲìľ¼ë¡ľ</w>
ìĭ¸ìĽĢ
ìĦłëıĦ
ê°ĲëıħìĿ´</w>
íĭ´
ëĲľëĭ¤ë©´</w>
contribu
phil
society</w>
ëĳĲëĬĶ</w>
ëģĦëŁ¬
ok
ëª¸ìĹĲ</w>
chief</w>
ãħĭãħĭãħĭ
gri
ê²½ì°°ìĹĲ</w>
ìĤ¬ìĿ´ìĹĲìĦľ</w>
ì§Īë³ĳ
audi
íĻķì§ĦìŀĲê°Ģ</w>
íģ´ëŁ½</w>
ê±¸ë¡ľ</w>
note</w>
ìĸĳìĿĺ</w>
ëª©ìĿ´</w>
leave</w>
ìĿ¸ìĤ¬ë¥¼</w>
íķĢ</w>
dy
cc</w>
ëŀĢíŀĪ</w>
ê·ľëª¨ê°Ģ</w>
íĥĦìĿĦ</w>
argu
average</w>
ê¸°íļĮ
sen</w>
ëĵ¤ìĹ¬</w>
íĥĵìĹĲ</w>
establ
ë§µ
íķľëĭ¤
íķĻêµĲìĹĲ</w>
ìĪĺì¹ĺ
íķ´ìļ´
ë¯¸ëĶĶìĸ´</w>
ë¶ģíķľìĿ´</w>
ìĤ¼</w>
æķ
ëĿł
ìłĦë©´</w>
ë§Ĳíķľ</w>
nia</w>
college</w>
bank</w>
è¨
ìĿ´ìĬ¹
ê²½ê¸°ê°Ģ</w>
ìĭľíĭ°
ê²©íķľ</w>
allow</w>
ìķĦìķĦ
âĹĭ
you
ìŀ¥ì°©
ë§Ĳìķĺëĭ¤</w>
ìĨĮìĻĢ</w>
pati
ìĿĺëıĦ
ìĭľëĮĢìĿĺ</w>
ìłĦê¸°</w>
íķĺì§ĢëĬĶ</w>
ì£¼ìĿĺë¥¼</w>
indepen
ìłĦìĹĲëĬĶ</w>
íĪ¬ìĸ´</w>
ê´Ģë¦¬ë¥¼</w>
micro
ìĥģíĺ¸
ëĭ¹êµŃìĿĢ</w>
ê³ģ
justice</w>
ìĿ´ìľłë¥¼</w>
ìŀħíķĻ
ë°©ë²ķìľ¼ë¡ľ</w>
ë°©íĸ¥ìĿĦ</w>
questions</w>
ìĪĺíķĻ
ìĨįìĿĦ</w>
risk</w>
ëĤ´ìļ©ìĿĺ</w>
ì§Ģíĳľ
íİł
ë³´ëĤ¸</w>
å¾
ëģ¼</w>
íĦ°ê°Ģ</w>
ê·¸ëŁ´</w>
ê±´ì¶ķ</w>
ìĿĺê²°
competi
ê³ĦìĹĲ</w>
ìĹĨìĸ´ìĦľ</w>
oil</w>
mp
geor
íĨ¨
ê·¸ëħĢê°Ģ</w>
app</w>
ìĥģìľĦ</w>
cover</w>
tradi
published</w>
ì±ĦíĥĿ
pun
problems</w>
april</w>
íķŃìĿĦ</w>
covered</w>
ê³µìĤ°
gni
ands</w>
ë§Īì£¼
ìķ¡ìĿ´</w>
íĸīìľĦ
ìĭłê³ł</w>
ior</w>
ìĤ½
ë³´ìľłíķľ</w>
ìĤ¬ìĿ´íĬ¸</w>
weap
ê³¡ìĿĦ</w>
ê¸°ìŀ¬
íĴĪì§Ī
ê°ķíķĺê²Į</w>
ëĭ¬ëŁ¬ë¥¼</w>
reve
mas
ì°¸ìĹ¬íķľ</w>
ìĦ±íıŃ
friend</w>
ê¸°ìĹħìĿĦ</w>
ë¼Ī
ìĭłìĿĢ</w>
ëĸ¨ìĸ´ìł¸</w>
ë°©ìĿĺ</w>
ìĹ°ì£¼
maybe</w>
êµŃê°ĢìĿĺ</w>
ëĦĺê²Į</w>
ìłķìŀĳ</w>
ê²°ê³¼ìĹĲ</w>
sugge
ìŀ¥ëıĦ</w>
ìĿ´ìĹĪì§Ģë§Į</w>
ëĮĢíĻĶ</w>
ìľµíķ©
ìĨįìĿĺ</w>
ìłĦíĺķ
ì±ĦëĦĲ</w>
cj
tures</w>
íķĻìĥĿëĵ¤ìĿĺ</w>
ê°ĲìĿĢ</w>
ëĲĺê²Į</w>
ì£¼ëł¥
ë°±ìĭł</w>
imag
íĥĢëĬĶ</w>
lows</w>
received</w>
íĨ±
ìĤ¬ê³łê°Ģ</w>
ìĦ±ìłģ</w>
ìłĦë¶ģ</w>
ìľĮ
currently</w>
íĺ¸ìĦł</w>
ê²½ìŁģëł¥</w>
ê²ĥìĿ¸ê°Ģ</w>
ê·ľëª¨ë¡ľ</w>
ë¶ĢìĹĲìĦľ</w>
ëķĮìĿĺ</w>
ê¸°ëĬ¥</w>
check</w>
ëģĬìŀĦ
ìłķì°©
ê³µì²ľ
ìĥģìľĦ
ath
ê°Ļìķĺëĭ¤</w>
ìĶ»
ëĭ¨ìĿ¼
ê°ģìĿĺ</w>
ëıĦëįķ
explo
ìķĦìĿ´ë¥¼</w>
ì§ĢìĤ¬</w>
green</w>
response</w>
david</w>
ì¡°ê°Ģ</w>
ë©´ìĦ¸
ê·¸ê±¸</w>
ìĻĶëįĺ</w>
ìŀĦëªħ
ë§Īì§Ģë§īìľ¼ë¡ľ</w>
ìħĺìĿ´</w>
ìĭľì²Ń</w>
ìĭľìŀĳëĲľ</w>
adverti
ouldn</w>
size</w>
ìŀĲë£Į</w>
ë§İìķĦ
ìĤ¬ë§Ŀ</w>
ì²´ìĹĲ</w>
defense</w>
staf
americans</w>
ê°±
ìĺ¤ë°Ķ
perf
bb
reports</w>
ê·¸ê²ĥ
ë¹łì§Ħ</w>
ìĨĮë¹ĦìŀĲ</w>
ëį°ìĿ´íĦ°ë¥¼</w>
unity</w>
ê°ľë°ľìĿĦ</w>
increase</w>
ê³łëł¤íķ´</w>
ëĮĢë³ĢìĿ¸ìĿĢ</w>
ë¬´íķľ
ìĦ¸ëĭ¤</w>
ì¨
ìĦ¤ëªħìĿ´ëĭ¤</w>
ìķĦë¬´ëıĦ</w>
ìĹĨìĹĪëįĺ</w>
ìĭ¬ìĿĺ</w>
ëıĦìŀħ</w>
bloo
isis</w>
ë§¤ìĪĺ
ìķķ</w>
ses
ë°©ìĤ¬
íİ¸ìĦ±
inte
ìķħìĿĺ</w>
ìĺ¤ë¹ł
ried</w>
fans</w>
ì¦Īë¥¼</w>
ìłĲìĿĺ</w>
ìĸ´ë¦°ìĿ´</w>
ë§ĳ
ì§Ħíĸīíķĺê³ł</w>
ìĺ¤ì§Ģ</w>
ìĽĲìłĦ</w>
íĪ¬ìŁģ
ê°ĢëıĻ
ê±´ê°ķ</w>
ìĥĺ
aul</w>
ìĭ¶ìĸ´</w>
haps</w>
ìĤ¬ëŀĮëıĦ</w>
friday</w>
ê´Ģê³¼</w>
ìĺ¤ë¥´ëĬĶ</w>
lines</w>
inci
íĺģìĭł</w>
ìłĦê³µ
íĻĪëŁ°
sett
ì·¨</w>
won
ìĪĺìĤ¬ë¥¼</w>
ê±´ìľ¼ë¡ľ</w>
ìŀ¥ìķłìĿ¸</w>
ëĭī</w>
ìĿĺê°Ģ</w>
ê°Ģìķ¼
pd
Â·
ì¿¼
effect</w>
ë°Ķë¥¸</w>
íĤ¬</w>
ìĺĪìĤ°ìĿĦ</w>
ë§ĪìĬ¤íģ¬
amount</w>
ê°ĢìĿĦ
ìĻķìĿĺ</w>
ìħľ</w>
ëĵ¤ëł¤
coo
íĨłì§Ģ
ìĹ¬ëªħìĿ´</w>
íĸĪëĭ¤ê°Ģ</w>
ìĹ°íŀĪ</w>
ëª¨ìķĦ</w>
ê¸°ìĹħìĿĢ</w>
ë¶ĢíĻľ
ê³§ë°Ķë¡ľ</w>
ì§ĢìĹŃìĿĢ</w>
exten
ì§Ģìłķ</w>
active</w>
ìĨĲê°Ģ
cle</w>
ëĤ´ë©°</w>
europe
íĸīëıĻìĿĦ</w>
ë°ķëŀĮ
ìłĦíĻĶë¥¼</w>
ë°©íĸ¥</w>
mac
ì²ŃìĿ´</w>
performance</w>
cannot</w>
certain
bab
ery</w>
ê¹¨ëģĹ
father</w>
announced</w>
conn
ëĤ´ê²Į</w>
perhaps</w>
ë¬´ê²Į
ì¶ķêµ¬</w>
ê¸ĭ
committee</w>
ìĺĨìĹĲ</w>
ìĭľê°ĦìĿĢ</w>
ì°¨ìĿĺ</w>
ë³Ģê²½</w>
ë¯¼ê°Ħ</w>
intel
cases</w>
ìķ¼ë§Ĳë¡ľ</w>
ëģĮê³ł</w>
ë²ĦìĬ¤
ì§Ģíķĺ</w>
íķľêµŃëĭ¹</w>
elling</w>
ìĽ¨ìĸ´</w>
ìī¬ìļ´</w>
ìĥĿìĦ±
psy
ìłĦíĻĶ</w>
ìĭľê¹Įì§Ģ</w>
ëĭ¤ë³´ëĭĪ</w>
ëĭ´ë³´
ìļ°ìĪĺ</w>
mach
ë§¤ìŀħ
determin
ceo</w>
íĽĪëł¨</w>
íģ´ëĿ¼ìļ°
íĨµíķ´ìĦľ</w>
ëĨįíĺĳ
ions</w>
ëį±
sex</w>
medical</w>
ì§ģìŀ¥
ìĿ¸ê¸°
relation
ë§Īë¬´
ê°ľíĺģ</w>
ãħİãħİ
hic
store</w>
ìĹĶíĦ°íħĮìĿ¸ë¨¼
ì£¼ë©´</w>
russia</w>
ìķĬì§Ģë§Į</w>
ë²Ħë¦¬
ìĿĺê²¬ìĿ´</w>
east</w>
chris
ë¬¸ìĦľ</w>
cratic</w>
leader</w>
connec
ìĨŁ
________
ëĭ¹ìĭłìĿ´</w>
ë¯¸ëĬĶ</w>
ê²ĢíĨł</w>
ë§¡ìĿĢ</w>
ìĭ¤ìĹħ
ë°ĸìľ¼ë¡ľ</w>
ë¶Ħìķ¼ìĿĺ</w>
ë¶Ģê°Ģ
æĪ
ëŀľëĵľ
ëĤłìĿ´</w>
ê°ĲìĹ¼</w>
jer
ê³¼íķĻê¸°ìĪł
ëª¨ìĹ¬</w>
ì¦ĪëĬĶ</w>
íķ´ìĦł</w>
ê³¼ëıĦ</w>
ê¹Įì§ĢìĿĺ</w>
ëĦĪëĬĶ</w>
ram
ë³ĢíĻĶê°Ģ</w>
ê¸Īìľ¼ë¡ľ</w>
ë¹ĦíĮĲíĸĪëĭ¤</w>
impl
ëį°ë·Ķ</w>
íĶĦëĿ¼ìĿ´
êµŃëĤ´ìĻ¸</w>
ìĥģíĺ¸</w>
íı¼
dates</w>
union</w>
production</w>
ë§ĽìĿĦ</w>
ëĨ¨ëĭ¤</w>
ê±´ë¦½
ë¯¸ëŀĺë¥¼</w>
ê°ľë§ī
ìľĦê¸°ë¥¼</w>
æĺ
ìĹĨê²Į</w>
ìĪĺì¤ĢìĿ´ëĭ¤</w>
íĸ¥íķľ</w>
íĺĲìĿĺ</w>
ëĵľë¦½
íĻľëıĻìĹĲ</w>
íĺ¼ìŀĲ
ë°©ë²ķìĿ´</w>
ìĺģìĽĲ
ìĶ©
ì£¼ìĿ¸ê³µ</w>
ìĥĿê¸°
íĬ¹ìľłìĿĺ</w>
êµ³ìĿ´</w>
âĢķ</w>
camer
quick
ìłĦìĦ¸
county</w>
ë¶Ħìĸĳ</w>
ê°Ĳíķľ</w>
ë²Ħë¦¬ê³ł</w>
ìĽĥìĿĮìĿĦ</w>
ìĬ¤íĬ¸ë¦¬
finally</w>
ëŃī
ëĶľ</w>
ê²ģëĭĪëĭ¤</w>
íĮ¨ë°°
ì¯¤
ë»Ĳ
ìŀĲìĤ°</w>
íģ´ëŁ½
íĻĶìĹĲìĦľ</w>
ìĭľë²Ķ
stop
wrong</w>
involved</w>
ìķĦë¥¼</w>
íıĲìĩĦ
ë¡ľë§Į</w>
ëĮĢìĤ¬
ê²ªê³ł</w>
ì§Ģê¸ĪëıĦ</w>
æ³
ìķĦë§Ī</w>
íļĮìĤ¬ê°Ģ</w>
ì´Ŀë¦¬</w>
ë³´ìĹ¬ì¤Ģëĭ¤</w>
ë¶Ģì±Ħ
ë¹¼ìķĹ
ëıħíĬ¹
ëĤĺìģľ</w>
vil
âĢĿ.</w>
ìĭĿíĴĪ</w>
Ã©
ë¹ĦìĻĢ</w>
ìĺ¬ëŀĲ
ìĨĶì§ģ
ìŀĲë¬¸
ê°ĢëĵĿ</w>
ëĤ´ìĿĺ</w>
ëĮĢì²ĺ
ë¦¬ìĸ´</w>
ìĹŃëŁīìĿĦ</w>
ìľłìŀħ
ëĶ°ëľ»íķľ</w>
ê·¸ìĹĲê²Į</w>
immedi
ë§Ľ</w>
íĺĳìķ½
skíħĶëłĪ
ä½
ìĹŃìĤ¬ë¥¼</w>
ì¶ľë§Ī
ìĹĲê²Ĳ</w>
íĺĦìŀ¬ëĬĶ</w>
ì¸¡ìĹĲ</w>
ip</w>
gol
ë²Ķì£Ħ</w>
arg
ìĭľì¼°
ìĹĨìĬµëĭĪëĭ¤</w>
ìĬ¤íĬ¸ë¥¼</w>
race</w>
ex</w>
íķĺëĤĺëĬĶ</w>
acking</w>
ê·ĢìĹ½
ìķĦëĭĲ
ì¸¡ìĿĺ</w>
bi</w>
worked</w>
ìŀ¡ìĿĢ</w>
ì²łëıĦ
monday</w>
ìĿ´ëĭĿ</w>
ìĸ»ìĿĢ</w>
ê±°ëĮĢíķľ</w>
fall</w>
ëļ±
ìĪľìľ¼ë¡ľ</w>
bud
donald</w>
terms</w>
ìĹŃìľ¼ë¡ľ</w>
construc
please</w>
ì¶Ķì§Ħíķĺê³ł</w>
ë¯¸ìĦ¸ë¨¼ì§Ģ</w>
sometimes</w>
ìĿ¼ë³´</w>
atten
ìĭľíĤ¨ëĭ¤</w>
íķ¨ê³¼</w>
ë©´ìľ¼ë¡ľ</w>
cast</w>
user</w>
repe
ìķĦíĭ°
ìĤ¬ìĭ¤ìĿĢ</w>
san</w>
ìķĦìĿ´ëĵ¤ìĿ´</w>
ìĪĺì¤ĢìĿĦ</w>
ìĥĿê°ģíķ´</w>
ìķĪíĥĢ</w>
íķĻë¶Ģëª¨
ëª©íĳľ</w>
âĢĿ,</w>
ìĦ¸ê³Ħë¥¼</w>
ëľ¨ê±°ìļ´</w>
ìĸ´ìłľ</w>
ìĬ¤íĥĢìĿ¼
ì§Ħë£Į
lives</w>
íĻķìĭ¤íŀĪ</w>
ëĭĮ
ê³¼ëıĦ
ê°ľë´ī
constitu
nature</w>
norm
amaz
ë¶Īë¦¬
ìĭ«ìĸ´
ì£¼ëħĦ</w>
ìĽĲìŀ¥ìĿĢ</w>
ìĬ¤íĤ¤
ëĶĺ
killed</w>
??
ë²ĶìľĦ</w>
ê¸°ëĮĢíķľëĭ¤</w>
ê°ĢëĬ¥ìĦ±ëıĦ</w>
ê²°ê³¼ëĬĶ</w>
ê²½ê³Ħ
ëª¨ìĬµìľ¼ë¡ľ</w>
christi
ëĭ¤ìĪĺ</w>
ëĤ¨ìĿĺ</w>
ë¯¸ëĶĶìĸ´
success
plat
education</w>
íļĮìŀ¥ìĿĺ</w>
ì°½ìĹħ</w>
served</w>
ìĹħì¢ħ
êµŃíļĮìĿĺìĽĲ</w>
íĶĮëŁ¬ìĬ¤</w>
ê°ĢìĬ¤
ìĸ´ë¥¸
ë¶ĦìĦĿíĸĪëĭ¤</w>
ì¦Ĳê±°
ì¡°ìłľ</w>
êµĲìľ¡ì²Ń</w>
ìº¡
ìĭ¬íĮĲ
ëĭ¤ìĪĺìĿĺ</w>
ÂŃ</w>
íļĮëĭ´</w>
tuesday</w>
íķ©ë¥ĺ
ëŀ©
íķľë°ĺëıĦ</w>
ì°¾ìĿĦ</w>
ê²½ê³ł
sbs</w>
nel</w>
commis
ì¤ĳíķĻêµĲ</w>
ë§ĮìĽĲìĿĺ</w>
íĭ¸
ê±´ì¡°
ìĽĥ</w>
itten</w>
becom
íķĺê¸°ìĹĲ</w>
íĶĦëĬĶ</w>
íı¬íķŃ
ìłĸ
ë¬´ëĬĶ</w>
ìĦ¸ìĥģ</w>
åĮ
ì²Ńë¬¸
ë¶Ģëĭ´ìĿ´</w>
ê²ĥìĿ´ëŀĢ</w>
ë¶Ģëª¨</w>
forces</w>
ë¨¹ìĸ´
ê°¤ëŁ¬
ë¬¼ê³¼</w>
ìĪĺìĿµìĿĦ</w>
ìĦ¸íı¬
ì§Ģìĥģ
alist</w>
ì£¼ìĸ´
ë¶ĢíĴĪ
ë¯¸ì¹ĺëĬĶ</w>
âĢ¢</w>
íĻķìĿ¸ëĲĲëĭ¤</w>
ê²ĥìĿ´ë©°</w>
ì§Ģë°©</w>
nar
íĺĦìŀ¬ìĿĺ</w>
íĽĦìĽĲ
influ
ë§ĪìĿĺ</w>
goes</w>
built</w>
ëģĦëĬĶ</w>
ì§Ħì§ľ
ìłķìĭłìĿĦ</w>
ãĢį
ê³łìĥĿ
nu
mother</w>
ëĤĺëĿ¼ìĿĺ</w>
ëĭµ</w>
íĮĮìĿ¼</w>
ìĭľëĮĢìĹĲ</w>
ê°ĪìĪĺë¡Ŀ</w>
worth</w>
ë°ľëĭ¬
uary</w>
ìŀĲë§ĪìŀĲ</w>
íİ¸ìĿĺ</w>
histor
ë©Ķìĭľì§Ģë¥¼</w>
ê¾¼</w>
íĻķìĤ°</w>
ê°ĲìĹ¼ì¦Ŀ</w>
ìĿ´ëĵ¤ìĿĦ</w>
ìĿ´ìłĦìĹĲ</w>
intellig
takes</w>
ë°©ë¬¸íķ´</w>
íĮĮëĬĶ</w>
ìĪĺê¸ī
ìĿ¸íķĺ
ìĸ¸ìĸ´
ìĦłë°ķ
ì°¸ìĹ¬íķĺëĬĶ</w>
sav
ìĹ¬ë¶Ģ</w>
station</w>
ìĹĦì²Ń</w>
serve</w>
ìķĬìķĦëıĦ</w>
ê²½ìĥģ
advertise
paul</w>
ê°Ģìĥģ
ists</w>
ì²´ìĿ¸</w>
ìĸĳìĦ±
thro
íĥĳ</w>
arri
base</w>
ìĨĮìĭĿìĿĦ</w>
ê°Ģê¸°</w>
ìĹħëį°ìĿ´
íĺķíĥľìĿĺ</w>
ì§ĦíĸīëĲľ</w>
ëĭ¹ìĹĲìĦľ</w>
ë¦¿</w>
ìłĦíĪ¬</w>
ìĤ¬íļĮìĹĲ</w>
communic
ì¤ĳìĭ¬</w>
ìłľê³µíķĺê³ł</w>
simple</w>
íģ¬ìĿĺ</w>
goal</w>
tel
ëĭ¤ëŀĢ</w>
íŀĪê³ł</w>
][</w>
ìłķìĭĿ</w>
ë°©ìĨ¡ìĿĦ</w>
ìĦ±ê³µ</w>
ëĵľëŁ¬ëĤ¬ëĭ¤</w>
íķĻìłģ</w>
ìĨįëıĦê°Ģ</w>
staff</w>
ê¹Ģì¢ħ
ë¬´ìĹĩìĿĦ</w>
ìłģìĿĳ
popular</w>
ëĬĲê¼
ìĿĢíĸīìĿĺ</w>
íĺķìĤ¬
ìĹĪëĭ¤ëĬĶ</w>
mit</w>
ized</w>
ê³µê²©ëł¥</w>
ê°ĢëĵĿ
íħĮëŁ¬
ë¹ĽìĿĦ</w>
particip
ìĿ´ìķ¼ê¸°ê°Ģ</w>
ê´Ģì°°
ëĵ¤ìĸ´ê°Ķëĭ¤</w>
ological</w>
ëĬĶëį°ëıĦ</w>
ëĶ¸</w>
ìĨĮë¹ĦìŀĲ
octo
ë¹Ħë¡ľ</w>
ë§¤ì£¼</w>
ê³µëŀµ
ë¶Ģìĥģ
ìļ°ê°Ģ</w>
moment</w>
ìľłëªħ</w>
ì¢ħë£Į
thous
ê³¼íķĻ</w>
confir
alism</w>
ê²Ģì¦Ŀ
è¡
ë©ķ
meeting</w>
ìĩ¼íķĳ</w>
ìĦ¸ê³ĦìłģìĿ¸</w>
thur
ìķ±</w>
difficult</w>
ê·ľì¹Ļ
íĸīë³µíķľ</w>
ëĲĲì§Ģë§Į</w>
ê³µê°ľíĸĪëĭ¤</w>
ilities</w>
ìĭ¤ë¬´
period</w>
ë§ĮëĤł</w>
íĶ¼ë¥¼</w>
ì´Īì²Ń
ìĻ¸ë¡ľ</w>
citiz
ì¶©ëıĮ
january</w>
íħľ</w>
ê¸°ìĹħëĵ¤ìĿ´</w>
ìĭľê¸°
ê·¸ëŁ¼ìĹĲëıĦ</w>
blue</w>
grow
ìĭ¤íķľ</w>
ìĤ¬íĥľ</w>
ëĲĲëĭ¤ëĬĶ</w>
ìĹ°ê¸Ī</w>
range</w>
character</w>
ìĦłìĤ¬
ê·¸ëłĩëĭ¤ê³ł</w>
chance</w>
ìĺ¤ëŀ«
ì°¸ê³łë¡ľ</w>
ìĽ¨ìĿ´</w>
ë¸Ķë¡ľ
thern</w>
central</w>
ìłģëıĦ</w>
ìĥĿê°ģ</w>
events</w>
swe
ë²ĪìĹŃ
ìĿĺìĤ¬ë¥¼</w>
ë¶Ħê°Ħ</w>
ì§Ħì¶ľ</w>
íĺ¹ìĭľ</w>
ëį°ëł¤
pon
ë©Ķëª¨
ê³°
ìłĳíķľ</w>
ê²ĥìĿ¸ì§Ģ</w>
sept
ìĤ¬íļĮë¥¼</w>
morning</w>
ì¶©ë¶ģ
ìĿĺë¢°
ìĦłìŀĦ
ìĭľìĥģ
ëĲĺì§Ģë§Į</w>
ëĴ¤ì§ĳ
ìĽĶëĵľ</w>
ìĥĿê°ģíĸĪëĭ¤</w>
ìŀĲìĹ°ìĬ¤ëŁ½ê²Į</w>
fle
íĸĪìĸ´</w>
íķĻêµĲë¥¼</w>
ëĤĺìĺ¤ì§Ģ</w>
ìĸ´ëĸłíķľ</w>
ìķĦë¬´ê²ĥëıĦ</w>
íĶĦë¦°
ìĿµìĪĻ
íĨłë¡Ŀ</w>
entire</w>
ìķĦëĭĪì§Ģë§Į</w>
ì²´ê³Ħë¥¼</w>
ê³µìĹ°ìĿĦ</w>
ìĦłìľ¼ë¡ľ</w>
ham</w>
ìĥĿê²¨
dg
views</w>
european</w>
ìĹĨìĿĮ</w>
language</w>
íĮĮê²¬
ê²łì§Ģ</w>
ëĳĳ
images</w>
ê³µìķ½
ìŀĲìĿ´
mp</w>
ê²½íĹĺìĿ´</w>
september</w>
ï¼ļ</w>
broad
gas</w>
ìĭłê·ľ
íĻĪ</w>
pro</w>
ê°ĲëıħìĿĺ</w>
å±
ë°©íķ´
ê¸°ê´ĢìĿ´</w>
ìķĬê¸°</w>
ëĨįìĤ°
ãģĹ
tioned</w>
ëĭĺìĿĦ</w>
ì¦ĪìĿĺ</w>
november</w>
sand
ìĽĲìĿ¸</w>
ìķ¼ë§Į</w>
reading</w>
beha
ë¯¸êµŃê³¼</w>
íĽĪëł¨ìĿĦ</w>
kin
ë§Īì¹ľ</w>
pass</w>
ë¶ĢíĴĪ</w>
âī
ìĹĲíĶ¼ìĨĮ
íķĺìĸ
ìļ°ìĬ¹ìĿĦ</w>
ìĹĨê¸°</w>
ì²´íı¬
ë³´ìķĺ
op</w>
ê²Ĳ
ì§ģë¬´
bert</w>
ìĥģíĥľë¥¼</w>
íĶ¼ë¶Ģ</w>
ì¹´íİĺ</w>
íĶ¼íķ´ê°Ģ</w>
ads</w>
ìĹĲìĦľë¶ĢíĦ°</w>
agency</w>
ë³´ìĪĺ</w>
íİ¸ìĿ´</w>
ë³´ìĬ¤
íĻķì§Ħ</w>
ìĥĿê²¼
íķ´ì¤Ģëĭ¤</w>
democratic</w>
ëĮĢìŀ¥
íĶ¼ìķĦ
alized</w>
ì§Ĳ</w>
ìĤ¬ìŀ¥
hur
ìĬ¤íĥĢíĬ¸
êµ¬ë¡ľ</w>
website</w>
iso
ëĭĪìķĦ</w>
movement</w>
ìľłíĸī
ëĬĺê³ł</w>
ê¶Įê³¼</w>
ì¹ĺë©´</w>
oud</w>
íı¬ìĬ¤ì½Ķ
ëĦ¤íĬ¸ìĽĮíģ¬</w>
ëª¬ìĬ¤íĦ°
ëĸłëĤĺ
íĶĦê°Ģ</w>
ë¡±</w>
ìĺ¤ë¸Į</w>
ìĨįëıĦë¥¼</w>
ë§Īì¹¨
ëª¸</w>
ëĶĶìŀĲìĿ¸
figure</w>
ordin
alter
economy</w>
ë¶Ģë¶ĦìĿĢ</w>
smo
,,</w>
teams</w>
ìŀħì¦Ŀ
ìĿ¸ë¯¼
ìļĶë¦¬
training</w>
ìķĦë²Ħì§Ģê°Ģ</w>
ëĤĺìĦ¤</w>
career</w>
ìľłìĿ¼íķĺê²Į</w>
buy</w>
ìĤ¬ìĹħìľ¼ë¡ľ</w>
ê·ľëª¨ëĬĶ</w>
happened</w>
expres
ëª¨ìĬµ</w>
íĨłëĮĢë¡ľ</w>
ìĬ¤íĬľ
ì¹ĺìĹĲ</w>
ëĮĢíķĻêµĲ
ìŀ¡ìķĺëĭ¤</w>
ìĤ´ìĿ´</w>
israel</w>
ê°Ŀê´Ģ
enjo
ìĤ°ìĿ´</w>
ì£¼ìĻĢ</w>
ë°°ìłľ
ì²ľìķĪ
ëª¨ëĭĪíĦ°
gave</w>
âĶģ.</w>
ìĿ´ë¥´ëĬĶ</w>
file</w>
ê·¸ìĻĢ</w>
ëĲĲìľ¼ë©°</w>
ìĺģìĿĢ</w>
ì²ŃìĹĲ</w>
ìĬ¤ì½Ķ</w>
ìŀĺëª»ëĲľ</w>
promo
ier</w>
ëĦī
plans</w>
ëĭ¨ëıħ</w>
ìĿĺë£Į</w>
ë²Īì§¸ë¡ľ</w>
íĮ¨ìħĺ</w>
decided</w>
round</w>
ìĸ¸ëĭĪ</w>
ìĿ¼ë°©
íĭ±
ìĤ¬ë¡Ģê°Ģ</w>
upon</w>
ìĦ¸ìĥģìĹĲ</w>
estim
stage</w>
âĺħ</w>
afric
ëĤ¨ë¶ģ</w>
stoc
ìļĶêµ¬íķĺëĬĶ</w>
íķľì¸µ</w>
ãģŁ
systems</w>
ì§ĢìĨį</w>
whose</w>
íļĮë³µ</w>
fast</w>
ì§ĦìĪł
focus</w>
ìĦ¸ê³ĦìĿĺ</w>
week
reduc
ë³¸ìĿ¸ìĿ´</w>
ë¯¸ìĤ¬ìĿ¼</w>
ãĥ¼
ìĤ¬ë¡ľìŀ¡
ë¡¯ëį°</w>
written</w>
ì»´íĵ¨íĦ°</w>
íķ´ì§Ħëĭ¤</w>
ê²½ìŁģ</w>
ìķĬìĿĦê¹Į</w>
kes
ìĭłì²ŃìĿĦ</w>
satur
possib
ê¶ģ</w>
ìĹħê·¸ëłĪìĿ´
ë°°ëĭ¹
october</w>
ëĤ®ìķĦ
congress</w>
ì°¨ì§ĢíķĺëĬĶ</w>
ìĭľëĮĢë¥¼</w>
ê²½ìĿ´</w>
vehic
ìĻĦ</w>
íĻĶíķĻ</w>
tax
ê¹ĬìĿ´</w>
ìĥīìĿ´</w>
ê·¸ëŁ¬ë¯Ģë¡ľ</w>
ê¶¤
ì´Īë°ĺ</w>
ëĭ¤ë¥¼</w>
ê³³ìĿĺ</w>
ìĺ¤ëŀ«ëıĻìķĪ</w>
ìĽ°
acti
ë³´ìľłíķĺê³ł</w>
situation</w>
ìħĺìĿĢ</w>
electr
ë³´ê´Ģ
!!!</w>
ìĹ°ë°©
ë§īê¸°</w>
signed</w>
ê°ľêµŃ</w>
ê¸°ê°ĦìĿĦ</w>
íĮĲìĹĲ</w>
ãģ¦
natural</w>
ìŀĲê¸°ê°Ģ</w>
break</w>
ìĹĪìĿĦ</w>
ìĤ¬ëŀĮëĵ¤ìĹĲê²Į</w>
ìĿ´íĥĪë¦¬ìķĦ</w>
íĬ¹ì§ķìĿ´ëĭ¤</w>
ì°¾ê¸°</w>
ë²Ĺìĸ´ëĤĺ
ëıĦìĹĲìĦľ</w>
summer</w>
íķ´ì§Ģê³ł</w>
ëįľ</w>
fall
entation</w>
ì¤Ģë¹Ħë¥¼</w>
ë¶Īê°ĢíĶ¼
sday</w>
íĮĮíĭ°
russian</w>
ìĿ´ë¯Ģë¡ľ</w>
ê²¨ìļ°</w>
ê²½ìĿĢ</w>
significant</w>
ê·¸ëŁ¬ìŀĲ</w>
cause</w>
ìĹ°ìŀ¥</w>
ãħĭãħĭãħĭãħĭãħĭãħĭãħĭ</w>
growth</w>
ë§İê³ł</w>
ìľĦê¸°ìĹĲ</w>
ì§ĢìĹ°
ëĭ´ìĿĦ</w>
ë³ĢëıĻ
que
heard</w>
íĹĪê°Ģ</w>
ì£¼ê°Ħ</w>
ìłĢíķŃ
cil</w>
ê°ľìŀħ
ìĭľê¸°</w>
ê²°ìłľ
ì§Ģíĸ¥
ëĭ¨ìĪľíķľ</w>
ìĿ¸íĦ°ë·°ìĹĲìĦľ</w>
solution</w>
ìĸ´ëĳĲ
moun
canada</w>
íķĺëĦ¤</w>
"(</w>
ëĭµê²Į</w>
ech</w>
ìĺ³
ìĭľíĤ¤ê¸°</w>
felt</w>
ë¬´ë£Į</w>
íĽĦìĹĲëĬĶ</w>
ìĺĪë°©</w>
smar
separ
ëĭ¤ë¦¬</w>
califor
ëĨįì´Į
mid
íĻįì½©</w>
ëıĻìŀĳ
ëĭ¹ìĭłìĿĢ</w>
ìĥĿë¬¼
ì¢ĭìĿĢ
conduc
numbers</w>
ê°ĲìĤ¬</w>
neigh
íıŃìĿ´</w>
ëĤ®</w>
ê¹ĢìĦ±
ëł¸ê³ł</w>
ë§Īì³¤ëĭ¤</w>
ê¸°ê°ĦìĿ´</w>
ì¶©ì¡±
ë³´ëĥĪëĭ¤</w>
íĺĳìĥģ</w>
dential</w>
ê°ĢëģĶ</w>
íķĦë¦¬
ëĭĪê°Ģ</w>
ìĭłë¬¸</w>
êµ¬ì¡°ë¥¼</w>
ìĸ´ì§Ģ
aliz
ì°¾ìĿĢ</w>
ê°ľë°ľìĹĲ</w>
ìĬ¤íĥł
ë¸Ĳ
ìķĦëĿ¼
ìľĦìĽĲìĿĢ</w>
ì§ĳê³ĦëĲĲëĭ¤</w>
êµŃìĹĲìĦľ</w>
wedn
ì¶Ķìĸµ
ì¥¬
ì¼Ħ
hosp
íķ´ì§Ī</w>
ìľłë¥¼</w>
ë¹Ħìľ¨ìĿ´</w>
ë¯¿ê³ł</w>
ìĿĢíĸīìĿ´</w>
ê³±
ìĺģíĺ¼
heart</w>
sea</w>
ìĹ¬íĸīìĿĦ</w>
ì¤ĦìĹĪëĭ¤</w>
ìłĪìĿĦ</w>
ê³łìľĦ
ìļĶìĨĮ
ìĬ¬íĶ
å¤§
ê³łë°ľ
ìķĪíĮ
ìĪĺì§ĳ
íĿĶíŀĪ</w>
ìĦ¤ë¦½</w>
ëĭ¤ìĦ¯</w>
eling</w>
ì´Īê³¼
ë§ŀìĿ´
âĢ¦âĢ¦.</w>
ê°¤ëŁŃìĭľ
ì¡°ìĤ¬ëĲĲëĭ¤</w>
ì´Ŀìŀ¥</w>
ì£¼íĸī
leav
ëģ¼ë¦¬</w>
íĺĳëł¥ìĿĦ</w>
ìĤ¬ê¸°</w>
areas</w>
ìĥģíĥľê°Ģ</w>
íĮ¡
ëħķ</w>
íĻ©ìĿĦ</w>
conven
ìłģìļ©</w>
ê·¼ì²ĺ
ìĺ¤íĨł
grad
ìĿ¸íĶĦ
ìķĪìĭ¬
íĻĶëł¤íķľ</w>
usion</w>
ìĭ¤ìłľ
ë°ľìĥĿíĸĪëĭ¤</w>
vels</w>
verse</w>
ë°©ìĭĿ</w>
ìĻ¸íĻĺ
itor</w>
ê°ĢìŀĲ</w>
ì¤ĳìĹĲìĦľëıĦ</w>
ìĪĺë¡Ŀ
ë³´ê²Į</w>
ìĹĲëĭ¤</w>
ëıĻíĺĦ
cau
ìļķìĿĦ</w>
ìĪĺëĭ¨
íĨ±</w>
ra</w>
treat
ìŀ¥íķľ</w>
dead</w>
ê²½ìļ°ìĹĲ</w>
ì°½ìŀĳ
wednesday</w>
ë¶Ħê¸°
ëĭ¬ë¦¬
âĳ¢</w>
dang
ìĺģíĻĶë¥¼</w>
ì´ĿìĦł</w>
íĺĦìĭ¤</w>
ì´¬ìĺģ</w>
achi
ë¦¬ì¡°
âĢ¦.</w>
obvi
pit
church</w>
avo
ìĽ¨ìĸ´
surve
stance</w>
ë³į
ìĤ¬ëŀĳìĿĺ</w>
europe</w>
ìļĶê¸Ī
{{
ì©į</w>
ìĿ¼ë°ĺìłģìľ¼ë¡ľ</w>
behavi
ìĿ¼ìľ¼ì¼
íķ©ìĿĺ</w>
ì¸¡ìłķ
sional</w>
ugg
ë°Ķê¿Ķ
ìĦ±ëĤ¨
wall</w>
ì¶©ì²Ń
ë¯¸êµŃìĿĢ</w>
ìķĦëĵ¤
ìłĦëĤł
ê°ĲìĨĮíĸĪëĭ¤</w>
íķĺë¯Ģë¡ľ</w>
hood</w>
dail
couple</w>
correc
ëĥĦìĥĪ
ê²½ê¸°ìĹĲ</w>
account</w>
ìŀĲìķĦ
ìĤ¬ìļ©íķľ</w>
íıīê°ĢíĸĪëĭ¤</w>
íĮ¨ëŁ¬
ìĤ¬ê³łë¥¼</w>
ãħľãħľ</w>
ëĲĺìĹĪìľ¼ë©°</w>
íķ´ì§ĢëĬĶ</w>
ëĭ¹ìĭłìĿĺ</w>
ìĸ¼êµ´</w>
íĻľìļ©íķł</w>
íķľë¯¸
thursday</w>
anti
ê±°ëŀĺë¥¼</w>
ê´Ģì¸¡
ìĥģìĬ¹íĸĪëĭ¤</w>
ìłķíĻķíŀĪ</w>
ìĺģìĿ´</w>
ìĺģìĸĳ
ëŁ¬ìĭľìķĦ
íļĮìĤ¬ëĬĶ</w>
ìĹħê³ĦìĹĲ</w>
ìĤ°ë¦¼
ìĭ¬ìľ¼ë¡ľ</w>
ë¡ľìĹĲ</w>
ìĿĮìĭĿìĿĦ</w>
ìĺ¤íĶĪ</w>
immigr
ah
ìľłë°ľ
illing</w>
seven</w>
structure</w>
there
ëĮĵê¸Ģ
ìĭľê¸°ìĹĲ</w>
íļŁ
ìĿĺë¯¸</w>
ìĿĺìĽĲìĿĺ</w>
happy</w>
rules</w>
ìłĬìĿĢ
stay</w>
ê±´ëĦĪ
british</w>
ê°Ģê¹Ŀ
íķĺëĤĺë¥¼</w>
spi
ì§Ģìĥģ</w>
ê°Ģê²©ìĿĦ</w>
ë©´ìĿĺ</w>
ê°ľë°ľíķľ</w>
êµŃíļĮìĹĲìĦľ</w>
ìĦľìĦľ</w>
sof
ëħ¸ë¬´
sunday</w>
ì¢ĭìķĦìļĶ</w>
ëıĻì°¸
íĸĪìĹĪëĭ¤</w>
bey
climate</w>
ìĪĺìļĶ</w>
writ
ìĹĨìķł
ëħ¸ìĦł</w>
ìŀĪìľ¼
ìĤ°ìĿĺ</w>
íķĺì§Ģ
ë°ľìĥĿíķł</w>
ë¹Ħë¡Ģ
ìĦłê³¼</w>
onto</w>
ê¸°ê°ĦìĹĲ</w>
ë¡ľëĵľ</w>
ì¶©ëĤ¨</w>
ë°Ģìĸ´
ê·¸ë£¹ìĿĺ</w>
ê·¸ê±°</w>
population</w>
bom
ìĿ´ë²¤íĬ¸ë¥¼</w>
lic
ëĨĴìĿ´</w>
erous</w>
review</w>
list
previous</w>
ë³¸ê²©</w>
ëĴĢëĭ¤</w>
ìĦľìĻĢ</w>
ëĵ¤ìĸ´ê°Ħ</w>
ìķĦëĭĪëĥĲëĬĶ</w>
hen
ìĭľìŀĳíķľëĭ¤</w>
paper</w>
íĥĪì¶ľ
california</w>
ëıħìĿ¼
ìĦľêµ¬</w>
ìĿ´ëĦ¤</w>
ìĤ¬ëĥ¥
ìķħíĻĶ
ìłĦíĻĺ</w>
å¯
ìĤ¬ëŀĳíķĺëĬĶ</w>
íĥĢëĭ¹
ìĬ¤íĮĮ
ëĤĺìķĦê°Ģ</w>
ìĸµìĽĲìĹĲ</w>
ë¯¸êµŃìĿ´</w>
êµĲë¥ĺ
ì²łìłĢíŀĪ</w>
rol
vil</w>
books</w>
ìĦľìļ¸ëĮĢ</w>
ë¬¸ìĿĢ</w>
ê²¨ì§Ħ</w>
ëĬĲëĤĮìĿĦ</w>
abor
ì¡°ì¹ĺ</w>
ãģ£
âĦ
wish</w>
ti</w>
ì§Ģì¶ľ
ë©ķìĭľ
ê¸Īë¦¬
august</w>
im</w>
ê·¸ë§Į</w>
ì²ĺë¶Ħ
ëĭ¬ìķĦ</w>
ìĬ¤íĨłë¦¬</w>
eth
ìłĦë§ĿíĸĪëĭ¤</w>
ëĤ¯
demon
ìĿ´ìĬ¬
ê±°ëĳĲ
introduc
ê°Ģë³į
ì¸µìĿĺ</w>
paid</w>
sns</w>
ê¸°ìĹħê³¼</w>
analys
ìĹ°íķľ</w>
ìŀħìĸ´</w>
ìĿ¼ì¢ħìĿĺ</w>
ê³³ìĿ´ëĭ¤</w>
shor
ìºłíį¼
forms</w>
íģ¬ë£¨
ì§Ģíķĺì²ł</w>
ìĻģ
ë§İìķĺ
aging</w>
ì²´ë¡ľ</w>
acts</w>
quality</w>
ault</w>
ìĦ±íķľ</w>
ì§ĢìĤ¬ëĬĶ</w>
allowed</w>
tives</w>
ë¸ĶëŀĻ</w>
ìľłìĤ¬
ê³µê°ľëĲľ</w>
offen
ë²ĪìĿĺ</w>
íķĺëĿ¼ëĬĶ</w>
ëĮĢê±°</w>
ê°ĴìĿ´</w>
íĻķë³´</w>
ìĿ¸ìļ©
ìĪĺìĨĮ
oh</w>
íĿ¥</w>
ìĭľëıĦ</w>
ìĿĺìĤ¬</w>
ìĿ´ëĤ´</w>
ëįĶë¶Īìĸ´ë¯¼ì£¼ëĭ¹</w>
ëĦĮ</w>
ìĨĮìĦ¤</w>
complete</w>
ë¬¼ë¥ĺ
íī
ìŀ¬ëĬ¥
ê³µëĭ¨</w>
ì¡°ëĬĶ</w>
ëĭ¬ìķĦ
ë°©ìķĪ
quickly</w>
looks</w>
ìĿ¸ëĭ¹</w>
ìķĪìłķìłģìĿ¸</w>
micha
ì¡°ê¸°</w>
ë§Īë¦¬</w>
bon
ìĿ¸ìŀ¬
íķĻìĬµ</w>
ëķĢ
íļĮìŀ¥
íĦ°ìĹĲ</w>
sort</w>
ëŀĺëıĦ</w>
wood</w>
íŀĪë¡ľ
interview</w>
alli
ê²ĥìĿ¸
ë§¡ê³ł</w>
present</w>
ìŀ¥ë¥´
ëįĺëį°</w>
earth</w>
ìĨĮëª¨
ìĺģìŀħ
ë¬¸íķĻ</w>
ê°ĵ
ìķĬëĬĶëĭ¤ëĬĶ</w>
ìĿ´ëģĮìĸ´
ìį¼ëĭ¤</w>
ì¡°ê¸ĪìĶ©</w>
íĥľíıī
ëª¨ìĥī
ì£¼ìµľ
ëª¨ëĵ
ì¹ĺëªħ
huge</w>
spent</w>
ìĿ´ëªħë°ķ</w>
ë°°ëĭ¬
êµ¬ìĻĢ</w>
ëĵ¯íķĺëĭ¤</w>
ìļ´ìĿ´</w>
various</w>
êµŃíĨłêµĲíĨµ
ëĤĻ</w>
ìŀ¬ê°ľ
fix</w>
gor
dan
íķĺëŁ¬</w>
ê²°ë¡ł
¬ëĭ¤</w>
council</w>
bun
íĶĦíĬ¸</w>
ìĸ´ëĶĶ</w>
ì¢ħì¢ħ</w>
ìĺ·</w>
ìĦ¼íĦ°ë¥¼</w>
ìĨįìĦ±</w>
ëī´ìļķ</w>
ì§ĢìĽĲíķľëĭ¤</w>
stly</w>
ë³Ħë¡ľëĬĶ</w>
ìķĦë¦¬
ê°Ĳê³¼</w>
ë°Ķëĭ¤</w>
ëª©ìĹĲ</w>
impact</w>
ë§ĪíĬ¸</w>
ðŁ
ìľ¼ë¡ľìĦľìĿĺ</w>
ë§ŀì§Ģ</w>
ìŀ¬ë£Į
ìĭłìĦł
ìĿ´ìĸ´ì§ĢëĬĶ</w>
ìķĪëı¼</w>
included</w>
å·
ìĦ¸ê³ĦìĹĲìĦľ</w>
ì¹¸</w>
ë¥ľ
ë©´ìłĳ
ê¸°ìĪłìĿ´</w>
fal
ìĤ¬ëŀĮìĹĲê²Į</w>
ë©¤ë²Ħ</w>
ìľ¼ë¡ľë§Į</w>
fc
fication</w>
ìĿ´ìĬ¤ëĿ¼
ì¶©ë¶Ħíķľ</w>
íİĺìĬ¤íĭ°
ëĵľë¦°ëĭ¤</w>
ìŀĺëª»</w>
var
ì¹¨ìĿĦ</w>
ëĤĺìĹĲê²Į</w>
ãĥ»</w>
ìķĬìľ¼
match</w>
ê°ľìĦ¤
london</w>
ìĹ¬ìĦ±ìĿĺ</w>
ë©Īì¶Ķ
susp
ee</w>
ê¸įìłķìłģìĿ¸</w>
offer</w>
ps
ìĿ´ë²ĪìĹĲëĬĶ</w>
éĽ
ìłķê³¼</w>
ìľłìļ©
ìĹ°ìĿ´</w>
ì¹´ìĿ´
ëĶĶì§ĢíĦ¸
wants</w>
ì§Ħíĸīíķł</w>
ë°©ìĹĲìĦľ</w>
sound</w>
ì¤ĺìķ¼</w>
ìľłì¶ľ
ì§ĢìłģìĿ´</w>
ìĭłíĺ¸
function</w>
writing</w>
knew</w>
ìŀ¥ê´ĢìĿ´</w>
íĺĳìķ½ìĿĦ</w>
ìľĦìĽĲíļĮë¥¼</w>
ë³´íĨµ
uck</w>
íĻįë³´</w>
ìĵ°ì§Ģ</w>
december</w>
scho
ìŀĲìĭłìĹĲê²Į</w>
aren</w>
ìłľíĴĪìĿĢ</w>
ì±Ħìļ©</w>
ì§Ħê³¼</w>
ìĭ±ê°Ģ
íķĺê¸°ëĬĶ</w>
ìłĦíĮĮ
ìķŀëĳĶ</w>
nc
ìĸ´ì©Ķ</w>
íĹĲ</w>
ìĸ´ìł¸</w>
met</w>
ey
ìĸ´ë¨¸ëĭĪ</w>
ëĸ¨ìĸ´ì§ĢëĬĶ</w>
ëĮĢì²´ë¡ľ</w>
ìĦłì¶ľ
jobs</w>
address</w>
íļĮìłĦ
å¿
ìĹī</w>
ìµľê·¼ìĹĲëĬĶ</w>
íĦ°ë¯¸
ëĮĢë¯¸
culture</w>
ìĿ´ìłķ
ìĿ¸ì¦Ŀ</w>
ìĦłë³´ìĺĢëĭ¤</w>
êµĲìĤ¬
ìĦłìĪĺëĵ¤ìĿ´</w>
ìĿ´ìĸ´ì§Ī</w>
leading</w>
conference</w>
xim
attention</w>
ìĿ´ë¦Ħìľ¼ë¡ľ</w>
ê°Ĳìĭľ
pain
aled</w>
ì»¤ëĭ¤ëŀĢ</w>
ìĹ¿
pping</w>
êµ°ê³¼</w>
ìłķëĭ¹</w>
confi
íļ¨</w>
ìĿ´ìĥģìĿ´</w>
ë¶ĦìŁģ
ê·¸ë£¹ìĿĢ</w>
ìķħíķľ</w>
êµ¬ëıħ
ëĤĺìĦłëĭ¤</w>
ìĹ¬ê²¨
cement</w>
ê±´ê°ķíķľ</w>
ëŀĢëĵľ</w>
chin
íĦ¸ìĸ´
íĥĢìĿ´íĭĢ
ìĭľíĸī</w>
ìĻ¸ë¶Ģ
ì¶©ë¶ģ</w>
ëĮĢë¦½
tried</w>
sexual</w>
moving</w>
ìĿ¸íĶĦëĿ¼
century</w>
ê²°íĺ¼</w>
ëĵ±ë¡Ŀ</w>
ëĤĺìģĺ
ê±´ë¬¼
ì°į</w>
ê³Ħì¢Į
dings</w>
ìĻķìĿ´</w>
track</w>
kg</w>
ef</w>
ìĿ´ëĤł
ê·¸ê²ĥëıĦ</w>
íĺĦìĥģìĿ´</w>
card</w>
ìĸ´ë¦¬
íķĻìĥĿìĿ´</w>
tely</w>
ë®¤ì§ģ
latest</w>
ìĭ¬ìĤ¬</w>
ëĭ¬íķľëĭ¤</w>
die</w>
ê±´ìĹĲ</w>
ìĿ´ìŀĲ
ê³ĦìĨįíķ´ìĦľ</w>
íĸĪëĬĶì§Ģ</w>
ëªħì¹Ń
ê³łêµ¬
ê¹Ģíĥľ
íĽĮë¥Ńíķľ</w>
gn
ë¦¬íı¬
gd
ê±°ê¸°ìĹĲ</w>
íĻľìĦ±íĻĶë¥¼</w>
íĨµìĿĦ</w>
ëį°ëĬĶ</w>
ìĨĮìļĶ
daily</w>
íķĺë°ĺ
ëĨĴê²Į</w>
standard</w>
inning</w>
íĦ°ëĬĶ</w>
guy</w>
learn</w>
survi
ìłĦëł¥</w>
ë¡ľìĦľëĬĶ</w>
ë°Ģíķľ</w>
ë°į</w>
íĮĶ</w>
ë¸ĮëłĪìĿ´
tary</w>
ëĤĺëĿ¼ëĬĶ</w>
ìĺĪìĪł</w>
ëĵ¤ìĸ´ê°ĢëĬĶ</w>
ìłľê³µíķł</w>
giving</w>
ì·Ħëĭ¤</w>
ìĿ¸ìĭĿ</w>
ìĭľê³ł</w>
emy</w>
ìĻĢëıĦ</w>
san
ìķĬìķĺì§Ģë§Į</w>
talking</w>
ì»¤íĶ¼</w>
ser</w>
íĬ¸ëłĪ
ìłľì¡°</w>
ì§ĳìĿ´</w>
regar
ê³Ħê¸°ê°Ģ</w>
íĭ°ë¸Į</w>
ê²¨ìļ¸</w>
happen</w>
hous
musli
ìĦ¼íĦ°ëĬĶ</w>
âĶĢ</w>
pa</w>
ìĥģë°ĺ
íĶĦìĿĺ</w>
ëĵľëĶĶ
ë§¤ìŀ¥</w>
ëĤļ
ëħ¹ìĥī
ìĺģíĸ¥ìľ¼ë¡ľ</w>
gm
changed</w>
ëĮĢíķ´ìĦł</w>
ìĸĺê¸°ë¥¼</w>
canc
ë¶Ģë¶ĦìĹĲ</w>
íĻĶìŀ¬</w>
ë¹łìł¸</w>
leaders</w>
features</w>
born</w>
ìĤ´ìķĦ</w>
aching</w>
ëĮĢíļĮìĹĲìĦľ</w>
ìĦłë³´ìĿ¸ëĭ¤</w>
ìłĢëŁ°</w>
ìĭłë¶Ħ
ëĨĴìĺĢëĭ¤</w>
ë°ķìĬ¤</w>
ë¬¼ë¡ł
ìĹĪìĬµëĭĪëĭ¤</w>
movie</w>
named</w>
åī
íĸĪëĭ¤ë©´</w>
india</w>
ëħ¸ëŀĺë¥¼</w>
parents</w>
ìĤ¬ìĥģ
seem</w>
ì¢Į</w>
ishing</w>
íķĻìĽĲ</w>
porters</w>
ìĦłë°°
beyond</w>
ì¶ķìĨĮ
ë²ķìĿĺ</w>
drug</w>
ëĭ¤ëĵ¤</w>
ì°¨ê¸°</w>
ê¸°íĽĦ
psych
employe
mel
ë¶ĦìľĦê¸°ê°Ģ</w>
doll
ëĭ¤ë¥¸
ìĥĿëªħ</w>
ê¹İ
pp</w>
ê·¼ìľ¡
limited</w>
íĺĳìķ½</w>
gun
äºº
ê·łíĺķ
au</w>
syn
ìĤ°ìĹĲ</w>
ìĽĲìŀ¥</w>
ë§ŀê³ł</w>
ìĪĺìŀħ</w>
depen
ëķħ</w>
ê¸ĪìĿĺ</w>
ëĸ¨ìĸ´ì¡Įëĭ¤</w>
íķ´ì§Ģ
senate</w>
ìľ¤ë¦¬
ray</w>
ìĦłìĪĺê°Ģ</w>
ëĳĺëŁ¬ìĭ¼</w>
ëĳĺì§¸</w>
ë¦¬ëĿ¼</w>
ì¤Į
ì¡°ë¡Ģ
ê°Ħíĺ¸
íķĺìŀĲëĬĶ</w>
what
ìł¤</w>
íģ¬ê³ł</w>
íĻĶíķľ</w>
bt</w>
ë§¤ì¶ľìĿ´</w>
investigation</w>
parts</w>
ìĹħì²´ê°Ģ</w>
êµ¬ì²´ìłģìľ¼ë¡ľ</w>
ìļĶì¦ĺ
íĮĮë¡ľ</w>
write</w>
ì£½ìĿĦ</w>
ë£¡</w>
ëĮĢìĤ¬</w>
ëıĻë§¹
ê°Ħíİ¸
ì¦Īê°Ģ</w>
íĨµë³´
chan
brought</w>
ëĨĢìĿ´
ì¶ķìĤ°
ìĺ¤ëŀľ
ìĺĪìķ½
íĪ¬íĳľ</w>
hands</w>
orities</w>
ê·¸ê°Ħ</w>
lions</w>
exac
title</w>
ëĦĪë¬´ëĤĺ</w>
ê²°ìłķíĸĪëĭ¤</w>
íķľêµŃìĹĲ</w>
willi
ëıĮìŀħ
ê³łìĿĺ</w>
qui
product</w>
message</w>
ira
íķĻêµĲìĹĲìĦľ</w>
nuc
ym
ëĭ¹íĻ©
native</w>
ì¿ł</w>
ëıĻë¶Ģ
load</w>
michael</w>
ëĮĢë§Į</w>
ê³łìĨįëıĦë¡ľ</w>
ë§Īì¹ĺê³ł</w>
ë©ĶìĿ¸</w>
ë³ĳìĿ´</w>
mari
ë¬¸ìĹĲ</w>
text</w>
ëĮĢíļĮë¥¼</w>
ìĦľìķ¼</w>
å¥
atic</w>
ìľĦì¹ĺ</w>
profes
ê¸°ìģ
ìĿ´ìĥģìľ¼ë¡ľ</w>
istic</w>
ìłģë°ľ
mob
ìĬ¬</w>
ë§ĪëĬĶ</w>
éŁ
ìĭ¸ìļ°
íĻĶíķĺëĬĶ</w>
cies</w>
ëīĺ
ì¹´ë©ĶëĿ¼</w>
ëĦ·</w>
particular</w>
ìĭ¤ìłģìĿĦ</w>
alleg
ë°°ëł¤
ìĺ®ê²¨
event
ìĥģìĥĿ
ìŀ¬íĮĲë¶ĢëĬĶ</w>
ìĿ¼ìĭľ
ê³¼ìłķìĹĲ</w>
ëĵ±ìŀ¥íķľëĭ¤</w>
apple</w>
ìĿĺíķĺìĹ¬</w>
roc
ê³łíĸ¥
ì§ĦíĸīíĸĪëĭ¤</w>
ten</w>
ìľłì§Ģ</w>
era</w>
ìĺ¤ëĬĺìĿĢ</w>
ìĸ»ê³ł</w>
ìĦ¸ë¯¸
laws</w>
favor
íĺĦíĸī</w>
unities</w>
ìĿ´ìĸ´ì¡Įëĭ¤</w>
fer</w>
ì§±
modern</w>
remember</w>
ë£°</w>
football</w>
ëļľëł·
ë¶ĪìĿ´</w>
army</w>
specific</w>
drive</w>
ê¸°ìŀĲíļĮê²¬ìĿĦ</w>
ë³´ì¡´
ìĹ¬ìĿĺ
majority</w>
western</w>
ë§Īì¹¨ëĤ´</w>
ëħ¼ëŀĢ</w>
ë§Įëĵ¤ìĸ´ì§Ħ</w>
ë°ĽìķĦìķ¼</w>
ìĹ°ë§¹</w>
íĸīìłķ</w>
íķĺê³łëĬĶ</w>
ë§Ļ
ìĹ´ìĿĦ</w>
bm
ê±°ìłĪ
ìĸ¼êµ´ìĿ´</w>
ë§Īíģ¬</w>
ëĦĪìĬ¤</w>
ìŀ¡ìĿĦ</w>
ìĿ¸íĶĦëĿ¼</w>
ë°Ľê¸°</w>
íĪ¬ìĪĺ</w>
ë¹Ħìłķê·ľ
ì§ĪìĿĺ</w>
nic
violence</w>
individual</w>
revol
occu
advertisement</w>
ìĤ¬ê±´ìĿĺ</w>
ì²ĺìĿĮë¶ĢíĦ°</w>
ìķĦì£¼
ì§Ģë¶Ħ</w>
safety</w>
ì´īì§Ħ
ëģĬìŀĦìĹĨìĿ´</w>
strugg
ê´´</w>
ìķĦíĬ¸
íĩ´ì§ģ
íķ´ìł¸</w>
íľ©
íĸīíķľ</w>
ì§Ģê¸ĪìĿĺ</w>
íķĺìĿĺ</w>
ë°©ìľ¼ë¡ľ</w>
pack
íĦ°ìĿĺ</w>
ë¶ĪíĻķìĭ¤
ìĸĳìĿ´</w>
usually</w>
íĺĳìĿĺíļĮ</w>
ìłĢë¥¼</w>
ë¦¬ìļ°
ì¹¨íķ´
sports</w>
ìĭľëĤĺë¦¬
ê°ľë³Ħ
ëª©ìĪ¨ìĿĦ</w>
chers</w>
ëĤ´ìķ¼</w>
ê°Ģê²Į
ë§¤ëł¥
kr</w>
ëıħíĬ¹íķľ</w>
ì¶ľë²Ķ
ëŀ¨
particul
):</w>
ìķĬìķĺëįĺ</w>
ĶìĿĦ</w>
ë§ĽìĿ´</w>
íĨµíķĺìĹ¬</w>
ìłľìĿ¼
ì°¨ëıĦ</w>
james</w>
ìŀħìŀ¥ìĿ´ëĭ¤</w>
stories</w>
ê°ķìĽĲ</w>
intelligence</w>
~~</w>
success</w>
ë¶Ħëªħ</w>
ê¸°ëĬ¥ìĿ´</w>
core</w>
ìĭ¬ìĿĢ</w>
ìĽĲìŀĳ
officer</w>
ê¾¸</w>
medic
íıĲì§Ģ
ìłķë¶ĢìĹĲ</w>
ìķĪíĮİ
starting</w>
ë°ĺë°ķ
ìĪ²</w>
íķ´ìĪĺ
ì§Ħìłķ
ìĦ±ê³µíĸĪëĭ¤</w>
ì²Ńìķ½
ìĿ´ë¦ĦìĿĢ</w>
ìĪĺë¦¬
íĽĶ
ë¬´ìĥģ
ìĦ¸ìĽĮ
ets</w>
ì£¼ë¯¼ëĵ¤ìĿĺ</w>
recogni
ê¸Īë©Ķ
she
ë¦¼ìĿĦ</w>
íļĮìĤ¬ë¥¼</w>
accep
ì§Ģê¸ī</w>
gger</w>
íĿ¡ìĪĺ
íĤ¤ê°Ģ</w>
ì¶ľê·¼
ìłľìĿ´
continued</w>
ë¬´ëĮĢ</w>
xed</w>
ìĺ¬ë¦¬ëĬĶ</w>
predic
ë¯¼ìĿ´</w>
ìľłì¹ĺ</w>
ë°Ķë¥¸
ìķĪìłĦíķľ</w>
íĶ¼ë¶Ģ
ìĽĲíĻľ
ìŀĳëıĻ
ìľĦìĽĲíļĮê°Ģ</w>
ìĽĮëĤĻ</w>
coin</w>
approach</w>
ìĿ¼íķĺëĬĶ</w>
ìŀİ
ë¹ĦìķĦ</w>
ìĦ¯
ìĿ¼ê°ģ
ìĹĦë§Īê°Ģ</w>
ëıĦìĦľê´Ģ</w>
sns
ships</w>
ë°ĶëŀĮìĿ´</w>
íĻĪëŁ°</w>
ìľĦìĽĲíļĮìĿĺ</w>
considered</w>
ì¡°ëĭ¬
ìĹ°ìĿĺ</w>
éĿ
lp
ì§ĢëĤĺì¹ĺê²Į</w>
ì¸¡ë©´ìĹĲìĦľ</w>
practice</w>
ìŀĶ</w>
web</w>
piece</w>
ëªħíĸĪëĭ¤</w>
ìĦłë¬¼</w>
ê·¸ëħĢë¥¼</w>
ëĦ£ê³ł</w>
ìĺģìĿĺ</w>
answer</w>
insi
ë°ľëıĻ
ê¹ľì§Ŀ</w>
aks</w>
ê°Ģë©´ìĦľ</w>
ê¸°ëĮĢë¥¼</w>
ëª¨ìĬµìĿĢ</w>
íķĺëĿ½</w>
ìĤ´ìĿ¸
ëĬĶëĭ¤ëĬĶ</w>
episo
ëĮĢíĨµëł¹ê³¼</w>
cles</w>
ë¶ĢëĶ
ìĭľìĦłìĿĦ</w>
ìĿ¸ê¸°ê°Ģ</w>
íĿ¬ëĬĶ</w>
ìłķëıĦê°Ģ</w>
ì¶©ìłĦ
ë¹ĦìłĦ</w>
ë¶Ħìķ¼ìĹĲ</w>
pick</w>
ëª¬ìĬ¤íĦ°</w>
ìľłë¡ľ
ìĭľëĦĪ
anced</w>
ê°Ģê³µ
ìĤ¬íĩ´
ìĭłìŀħ
ì£Ħë¥¼</w>
ìĿ¸êµ¬
ìĦ¼íĦ°ìĹĲìĦľ</w>
ìķĬìķĺê³ł</w>
ml</w>
ë§Įëĵłëĭ¤</w>
ê°ľë³Ħ</w>
ë¦ĦìĿ´</w>
êµŃëĤ´ìĹĲìĦľ</w>
!âĢĿ</w>
ì½Ķë¡ľëĤĺë°ĶìĿ´ëŁ¬ìĬ¤</w>
ìĺ¤ëĬĺëıĦ</w>
ê³łìļ©</w>
ki</w>
lad
ê²ī
ê¸°ë³¸ìłģìľ¼ë¡ľ</w>
ìŀĳê³¡
íķľìĿĺ</w>
ê±°ëĵł</w>
íķĻìĥĿëĵ¤ìĿĢ</w>
credit</w>
ê°Ģì¡Įëĭ¤</w>
ëªħìĹĲê²Į</w>
ì²¨ëĭ¨</w>
ê°Ħìłĳ
ëł¸ëįĺ</w>
ë°ķìłķ
ìľ¼ë¡ľìĿĺ</w>
íĥĢê²©
officers</w>
ë§Īëł¨íĸĪëĭ¤</w>
ì¢ħë£Į</w>
ìĻľëĥĲ
ìĿ´íķĺìĿĺ</w>
ë§Īê°Ģ</w>
certainly</w>
íĻįì½©
ê°ľìĦłìĿĦ</w>
ë¦¬ìĬ¤íĬ¸</w>
ê³łê°ĿìĿ´</w>
ìĿ¼ë°ĺìłģìĿ¸</w>
ê¸¸ìĹĲ</w>
å¹
ì¶ľìĹ°</w>
placed</w>
speed</w>
].</w>
ì¤ĳê°Ħ</w>
ìĿĮìĭĿ</w>
sv
organization</w>
ìĨįíķľ</w>
ì§ĢìĹŃìľ¼ë¡ľ</w>
ëĶ°</w>
guar
ìĿ¸ê³µì§ĢëĬ¥</w>
ì»¤ì§Ģê³ł</w>
ìľĹ
ëĭ¹íĸĪëĭ¤</w>
non
ì·¨ìŀ¬
distri
cd</w>
ãģ«
íļĮë¡ľ</w>
ìĸ´ë¥´
ì³ĲìĦľ</w>
asse
ìłķì±ħìĹĲ</w>
ìĿĺë¯¸íķľëĭ¤</w>
details</w>
ëŃĺ</w>
íĬ¹ìłķ
ì¡°ê°ģ
prime</w>
ì§ĳëĭ¨</w>
seem
ìĿĺíĺ¹ìĿĦ</w>
beau
ëħķ
distribu
ìķĦë©Ķë¦¬
ì²´ìłľ</w>
ë³¶
comments</w>
íĺķìľ¼ë¡ľ</w>
ologi
ìĺĪìĥģ</w>
ì¹Ńì°¬
ëıĦì¿Ħ
ë°°íĦ°ë¦¬</w>
ê·¸ìķ¼ë§Ĳë¡ľ</w>
wise</w>
ìķĮë¦¬
ì¡´ì¤ĳ
tin
through
ë²ķìłķ
ê°ĢìĨį
kids</w>
ê±°ìĺĪìļĶ</w>
ìĤ¬íķŃìĿĢ</w>
ìłĦì²´ìĿĺ</w>
ì¤ĳêµŃìĿĢ</w>
ìĭľìĹĲìĦľ</w>
ìľłíĨµ</w>
ê·¸ëĿ¼
ìĹŃìĤ¬ìłģ</w>
mou
ìłľíĴĪìĿĺ</w>
ìłĦê¸°ì°¨</w>
ì¡Įëįĺ</w>
ê°ĢëĤľ
ê²°ìłľ</w>
íķĺìŀĲë©´</w>
ì¡°ê±´ìĿĦ</w>
deep</w>
ê°Ĳê°ģ
ë¦¬ìĬ¤íĬ¸
ê²ĥë³´ëĭ¤</w>
ìĨĮìĨ¡ìĿĦ</w>
ìĿ´ëŀĢ
ìŀ¬ìłķ</w>
attacks</w>
eight</w>
êµ¬ìļĶ</w>
ê³µìĤ¬ëĬĶ</w>
ìĦ¸ìļ°
ìĿ¸ê°ĦìĿ´</w>
ë©Ģë¦¬</w>
íħĮíģ¬</w>
ê¸Īíĺ¸
ëĭ¬ì½¤
íķĻê³¼
levels</w>
ëıĦìłĦ</w>
ìĤ°íĻĶ
ìĭłê¸°
essor</w>
íĬ¹ë³Ħ</w>
plus</w>
ìĿ´ë¯¸ì§Ģë¥¼</w>
nucle
door</w>
ì²ĺìĿĮìĹĲëĬĶ</w>
íģ¬ëĿ¼
alone</w>
ê¸°ëıĦ
fun</w>
softw
executive</w>
ëĮĢê¸°ìĹħ</w>
íĥĢìŀĦ</w>
ìĹ°ê´Ģ
ìļ©ìĿ¸
ë¶Ģê°ģ
ë¹Ħì¦ĪëĭĪìĬ¤</w>
ìŀĪëĭ¤
claims</w>
ëªĩëªĩ</w>
ì±ħìĿĢ</w>
ì§Ħì§Ģ
ìĥĪë²½</w>
ë¦¬ìĸ¼
attemp
íĽ¼ìĨĲ
ìĶ¨ìĹĲê²Į</w>
ë¶Ģë¥´ëĬĶ</w>
çĽ
dered</w>
ëĦĲë¦¬</w>
ìŀħì°°
girl</w>
ìĹĨìľ¼ë©´</w>
ken
acted</w>
particularly</w>
ìª½ìĿĢ</w>
ìµľìĨĮ
crow
ì»·
consider</w>
ìĿ¼ì°į</w>
growing</w>
ëĭ´ê³ł</w>
ìĹ°êµ¬ë¥¼</w>
ìĹ°ê·¹
ìļĶêµ¬íĸĪëĭ¤</w>
products</w>
ê²½ì°°ìĿ´</w>
ë§ģìĿĦ</w>
saturday</w>
looked</w>
ìĺ¤ëĬĺìĿĺ</w>
ìłĦì£¼
ìķĦëĭĻ
ëĭ¬ëŁ¬ë¡ľ</w>
ê¸´ê¸ī</w>
ìĿĺíĺ¹</w>
ë§ĪìĬ¤</w>
ë¬´ë£Įë¡ľ</w>
tual</w>
ë¶ĢëĶª
ë³ĢíĻĶìĹĲ</w>
super</w>
ê°ĸì¶Ķê³ł</w>
ìĿ¸ìĥģìĿĦ</w>
ë¶ĢëĮĢ
claim</w>
ac</w>
íĨ¡</w>
ìī¬</w>
ìĿ´ë¡ľìį¨</w>
nom
ëĤĺë¦Ħ
ì¶Ķì§Ħíķł</w>
ë¡¬
bing</w>
ë²Ħëł¤
thinking</w>
ê³ĦëĬĶ</w>
ì·¨ìŀĦ</w>
ê¸Ģë¡ľë²Į
ëĦ£ìĸ´</w>
secu
ë¹Ļ</w>
ë²Ħë¦¬ëĬĶ</w>
ìĭ¶ìĸ´
ëĿ¼ìĿ´ë¸Į</w>
ëĪĪë¬¼ìĿĦ</w>
êµŃê³¼</w>
ìĨĮë¹Ħ</w>
kes</w>
software</w>
ìĸ´ìĻĢ</w>
íķĻëħĦ
ë§ĪìĬ¤íĦ°
ìĿ´ëħ¸
ìĿ¼ìľ¼íĤ¤
ìķŀìŀ¥
completely</w>
íĬ¹ìĪĺ</w>
ê¸°ëĮĢíķĺê³ł</w>
ì£ĦìĨ¡
ëĭ¨ëıħ
íĮĿ
died</w>
ħëĭĪëĭ¤</w>
activi
damage</w>
choice</w>
ëĵľëĶĶìĸ´</w>
expen
èĪ
zer
ê°Ģì§Ī</w>
onic</w>
éĻ
ìĭ¤ìĭľê°Ħ</w>
ìĪĺìĭł
ìĨĮìĻ¸
ì£¼ë§Ĳ</w>
íĺģëªħ</w>
ëĲĺëĬĶ
ë¹Ħìļ©ìĿ´</w>
ìłĲê²Ģ</w>
edi
ë°©ìĹŃ</w>
ê°ķìĿĦ</w>
ì§ĢìĽĲíķł</w>
ìĤ¬íļĮìĹĲìĦľ</w>
ë²Ĺìĸ´ëĤĺ</w>
ëĭ¦
ëłĮ</w>
ë²ķìľ¼ë¡ľ</w>
ê³łê°ĿìĿĺ</w>
tab
ê¸°ê°ĦìĿĢ</w>
íķĺê¸´</w>
search</w>
spokes
ê³łê¸ī
íķľëķĮ</w>
ìĹŃìĹĲìĦľ</w>
ëª°ëŀĲ
ëĤĺê°Ķëĭ¤</w>
ê³µê¸°
ë§ĪìĤ¬
ëĤĺíĥĢëĤľ</w>
ëĺĲëĭ¤ìĭľ</w>
ëª¨ì§ĳ</w>
ê¶ĮìĹĲìĦľ</w>
ëįĶëĿ¼
ì¹´ë¥´
ìĥĿê°ģíķ´
serious</w>
ì°¨ìĽĲìĿĺ</w>
ê²łìĸ´</w>
ìį¸
ìĬ¤ëŁ°</w>
ê³łíķľ</w>
ëł¥ëıĦ</w>
ê°ĴìĿĦ</w>
ìķĦëĭĪëĿ¼ëĬĶ</w>
ë§ĮìĿ¼</w>
ëł¬íķľ</w>
ëª«
ìķĦë²Ħì§Ģ
ìĤ¬ë¡Ģë¥¼</w>
ë°±ìĿĦ</w>
ë§¤ë¥¼</w>
ëĨĴìĿ´ëĬĶ</w>
ìĥĿê°ģíķĺë©´</w>
ìĿ´ë©´ìĦľ</w>
ìłķëıĦëĬĶ</w>
ëĵ¤ìĹĲê²ĮëĬĶ</w>
opportunity</w>
ìĿĺìĭĿìĿĦ</w>
biggest</w>
ìĿ´ëĥĲ</w>
êµ¿
ìłĦìĿ¸</w>
íĬ¹ìĦ±ìĿĦ</w>
ìĦ¸ìĽĮ</w>
ê´Ģìľ¼ë¡ľ</w>
analysis</w>
íĺĦìĥģ
ë²ķìĽĲ</w>
student</w>
ìļĶìĸĳ
ìĿĺë¡ľ</w>
ì°¸ìĹ¬íķł</w>
ëŀĦ</w>
ë¸Įë¥¼</w>
ìĤŃìłľ
ë³´ìĿ¼</w>
ëĺĳê°ĻìĿĢ</w>
íķ´ì£¼ê³ł</w>
ëĮĢë¡ľ
ê¸°ëĭ¤</w>
ëıĻíķ´
ìĺ¤ì§ģ</w>
ëĲĺê±°ëĤĺ</w>
ê±´ìĿĢ</w>
addition</w>
ìĥĪë²½
ìķĪê³ł</w>
lish</w>
ë§Įìľ¼ë¡ľëıĦ</w>
ìķĦìĿ´ëıĮ</w>
ìĭľë¯¼ëĵ¤ìĿĺ</w>
ê¸Īê°Ĳ
reality</w>
ìĬ¤íİĺìĿ¸</w>
challeng
ìĿ´ìĦ±
ë¬´ëĮĢë¥¼</w>
ë¯¼ìĿĢ</w>
ìŀĲë¦¬ê°Ģ</w>
ì´Ŀê´Ħ
exactly</w>
ëĭ¤ìĿ´ìĸ´
ìŀĲìĭłëĵ¤ìĿĺ</w>
ì½ľëĿ¼
ëª¨ëį¸ìĿĦ</w>
ìļ´ìĨ¡
ëŁŃ</w>
ëį¤</w>
ë¶Ħê»ĺ</w>
weight</w>
section</w>
ëĮĢíĳľìĿĺ</w>
ìŀĲë°ľ
region</w>
ë³´ëıĦ</w>
ë©ĶìĿ´íģ¬
íķĺëĭĪê¹Į</w>
ìĽĲëĵ¤ìĿ´</w>
enced</w>
ìļ°ìļ¸
ê°ĸê²Į</w>
ê±°ëĿ¼ê³ł</w>
ìĺ¤ë²Ħ
ìŀ¬ìĿĺ</w>
ê³µìĤ¬ê°Ģ</w>
ê°ĲìĹĲ</w>
ìĦłíĥĿ</w>
ìĤ°ìĿĢ</w>
ìķĦë²Ħì§ĢëĬĶ</w>
additional</w>
ë¯¸ìĿĺ</w>
ì½ĺìĦľíĬ¸</w>
control
íĺĳìĥģ
ëłĪìĿ¸
ëĬĲëĤĮìĿ´</w>
cele
lgìłĦ
íĻĶìŀ¥íĴĪ</w>
ìĹ°ê¸°</w>
ìŀĪìľ¼ë¯Ģë¡ľ</w>
ìĤ¬íļĮê°Ģ</w>
íķľêµŃìĹĲìĦľ</w>
yp
emo
febru
ìª½ìĹĲìĦľ</w>
è¦
korea</w>
ëĤľìĿ´
ìĿ´ê±°ëĤĺ</w>
ëģĵ
ë³¸ìĿ¸ìĿĺ</w>
êµ¬ë¹Ħ
ëĮĢíĳľíķĺëĬĶ</w>
ê²½ìłľìĿĺ</w>
ì£¼ëħĦìĿĦ</w>
soft</w>
multiple</w>
february</w>
íĸīìĤ¬ëĬĶ</w>
shar
ë¹ĽìĿ´</w>
interesting</w>
ìĬĪ</w>
ìŀ¥ë¹Ħ
aling</w>
ê°ĲìłķìĿĦ</w>
ìĦ±ìłģìĿĦ</w>
ëĭ¹ìĿ¼</w>
íĺ¸ì£¼</w>
ìĿĺê²¬</w>
ultim
ìĥģíķĺ
ë³´ìĿ¸</w>
ê±°ë¦¬ëĳĲ
ìķĦìĿ´íħľ</w>
ìĿ¸ëıĦëĦ¤
íİĺìĿ´ìĬ¤ë¶ģ
ãĢı,</w>
ë¡¤</w>
ê°ĸ</w>
district</w>
ìķĦë²Ħì§ĢìĿĺ</w>
ë¯¸êµŃìĹĲìĦľ</w>
ëĭ¬ëĿ¼ëĬĶ</w>
ëĦ¤ìĿ´ë²Ħ</w>
ëıĦì¤ĳ</w>
ëĤĺíĥĢëĥĪëĭ¤</w>
required</w>
ìĽĶëĵľì»µ
ìłĪë°ĺ</w>
ëĭ¹íķ´</w>
ëıĻìĸĳ
rad
ê²ĥìĿ´ëĿ¼</w>
ê°Ģë²¼
ìŀĲìĽĲ</w>
income</w>
ìĦłëĳĲ
ì§Ģë¦¬
êµ½
ìĤ¬ìłĦìĹĲ</w>
ìĿ¼íĸī
ëł¹ìĿĦ</w>
ìĦľë¯¼
choo
ìķĦëģ¼
ë¶ĢëŁ¬
ê³µìĤ¬ë¥¼</w>
ìķĦíĮĮíĬ¸
èª
ìĹŃìĿ´</w>
ì²´ëł¥</w>
windows</w>
ëıĻêµ¬</w>
ë¶ĢìĿ¸</w>
ë¶Īê³¼</w>
ìĽĮìĭ±
ê¸Īë¦¬ë¥¼</w>
ìĭ¤ìĭľíķľ</w>
ìŀĳìĹħ</w>
ë¶Ģëĭ´</w>
ìĿ¼ìłķ
íĶ¼íķ´ìŀĲ</w>
angel
domin
ìĦ¸ìļ´</w>
ê¸īìĹ¬
van
éĢ
ë³´íİ¸
íķ´ì¤Ħ</w>
ê¸°ë¡Ŀíķĺë©°</w>
ì¤ĦìĿĦ</w>
ìĭŃìĭľìĺ¤</w>
ë°Ľìľ¼
ìĬ¤ìĽ¨
íĶĦë¡ľëĵĢ
ìĩĦ</w>
íĤ¤ìļ°
ìĤĲ
ì§ĦíĸīëĲĲëĭ¤</w>
ìĺ¨ê°ĸ</w>
íı¬ì¼ĵ
ìĭľëĤ´
ê°Ģìłķ</w>
ë¬ĺìĤ¬
ìĤ¼ìĦ±ìłĦìŀĲëĬĶ</w>
ì°Ķ
ìĿ¼íĻĺ
ì·¨ìĹħ</w>
ìĹŃìĹĲ</w>
ìķłë¥¼</w>
êµĲë¥¼</w>
ë¯¼ì£¼ëĭ¹ìĿĢ</w>
sli
ì¤ĳêµŃìĿ´</w>
ì¹ľêµ¬ê°Ģ</w>
ê²łìĸ´ìļĶ</w>
coach</w>
ì§ĦíĸīëĲĺëĬĶ</w>
ìĺĢëĬĶëį°</w>
ë°ķíķľ</w>
ì´Īëŀĺ
ë§Ĳíķĺê³ł</w>
ì¹¼</w>
âĢľ(</w>
ë°Ľìľ¼ë©°</w>
ìĿĳê¸ī
ìķµ
rang
gone</w>
dation</w>
ë¶ĵ
ì£¼ë§Ĳ
íķ´ìĥģ
capital</w>
ìłľìĭľíĸĪëĭ¤</w>
ìĤ´íķ´
........
meet</w>
ìķĦëĭĪëĿ¼ê³ł</w>
ìļ´ìĺģìĿĦ</w>
íĹ¤ìĸ´
ste</w>
ì²ľì²ľ
ë§ĪìĿĮìľ¼ë¡ľ</w>
ë¶ĪëŁ¬</w>
ìĪĺëĬ¥</w>
scene</w>
analy
()</w>
êµŃë¯¼ìĿ´</w>
ha</w>
autom
íķľëĤĺëĿ¼ëĭ¹</w>
described</w>
ê°ĢìĿĦ</w>
ãħĭãħĭãħĭãħĭãħĭãħĭãħĭãħĭ</w>
ìłĦë§ĿëĲľëĭ¤</w>
íĶ¼ê°Ģ</w>
ì»¨íĬ¸
))</w>
ì£¼ìŀ¥ìĿĦ</w>
ëĲĺìĹĪëįĺ</w>
ëĵ¤ë©´</w>
yer</w>
ë¦ī</w>
purch
ops</w>
effects</w>
manu
íķĺëĿ½íĸĪëĭ¤</w>
option</w>
ìĹ¬ìķ¼
neu
ë§ģíģ¬</w>
throughout</w>
ìĿ¼ì¹ĺ
ë³´ìĥģ</w>
ì¶°</w>
ìķĦê°Ģ
ëı¼ì§Ģ
ê°Ģìŀħ</w>
ë³´ëĤ´ëĬĶ</w>
ì²ĺìĿĮìĿ´ëĭ¤</w>
battle</w>
ê°Ģê³Ħ
ìĭľìĤ¬
ìŀĲìĤ´
ì£¼ê°Ģê°Ģ</w>
ëĵ±ìŀ¥íķľ</w>
ìĤ´ì§Ŀ</w>
êµ¬ìłľ
ìĺ¬ëł¤</w>
ìħĢ</w>
ì¡Įëĭ¤ëĬĶ</w>
tural</w>
æĢ
ì»¨íħĲ
ìĥģì²ĺ
íĻĺìŀĲê°Ģ</w>
ê°ķìĽĲëıĦ</w>
ëĥīìŀ¥
republicans</w>
ê±¸ê³ł</w>
ë¹Ħìľ¨</w>
ê·¸ëłĩì§Ģë§Į</w>
ìĺģìĹħ</w>
ê´Ģìĭ¬</w>
ë¶īìĿĢ</w>
ì§Īë¬¸ìĿĦ</w>
ìĿ¼ìłķìĿĦ</w>
íĿĻ
ê³łê¸°
ì¶ĶìĦĿ</w>
êµĲìĿĺ</w>
íĴįë¶Ģíķľ</w>
ê´Ģë¦¬ìĹĲ</w>
ê·¸ì³¤ëĭ¤</w>
ì°¸ìĹ¬íķ´</w>
ë§Īë²ķ</w>
ì·¨ìŀĦ
safe</w>
sky</w>
íľ´ëĮĢìłĦ
entially</w>
surpris
ë°ľìĸ¸ìĿĦ</w>
ë°©ìĺģ
ìļ°ìĿĺ</w>
ëįĶìļ±
ëĮĢìĥģìĿĢ</w>
ìłģìĹĲ</w>
ìĤ¼ìķĦ</w>
íĺĦìĿĢ</w>
ëĬĲëģ¼ëĬĶ</w>
íı¬íķ¨ëĲľ</w>
ê³łìĹĲ</w>
íıīë²Ķíķľ</w>
ëª©ìľ¼ë¡ľ</w>
ë¦¬ë©´ìĦľ</w>
update</w>
ìĬ¤íĥĢìĿ¼</w>
fren
ê¸īíķľ</w>
ì±Ħë¬´
ê¸°ê¸Ī</w>
ìĿ¸ìĪĺ</w>
ìĹ¬ëªħìĿĺ</w>
ìĦłìłķëĲľ</w>
ìŀ¥ìķłìĿ¸
ìĿĢíĩ´
ì£¼ìĿĺìĿĺ</w>
expan
ëª¨ê°Ģ</w>
ìĦ¤ëªħ</w>
íķľì§Ģ</w>
ëıĻê³Ħ
screen</w>
ì½ĶìĬ¤íĶ¼</w>
íķĺëĭ¤
ìĤ¬íĥľê°Ģ</w>
íĴĢìĿ´ëĲľëĭ¤</w>
ìĸ´ì°¨
effort</w>
journ
ëĤĺëĿ¼ë¥¼</w>
formed</w>
politics</w>
ìŀħë²ķ
ê¹Ģíķ´
forced</w>
texas</w>
computer</w>
ìľĦì¶ķ
ì¸µìĿĦ</w>
íķ¸ëĵľ
dc</w>
ìĥģëĭ´</w>
tionally</w>
ëĲ¨ìĹĲ</w>
necessary</w>
directly</w>
ê´Ģê³ĦìĹĲ</w>
ëıĻëĦ¤</w>
prot
íĶĦëŀľ
ëª¨ìķĦ
ëį°ë¦¬ê³ł</w>
ìĦłìłľ
ëĭ¨ë§Ĳ
ìĤ¬íļĮë³µì§Ģ
ê±°ëĭ¤</w>
wife</w>
voters</w>
.(</w>
ìĥ·
ìĪĺìĪł</w>
ëħ¸íĬ¸</w>
íķĺëĲĺ</w>
ìĿ¸ìĬ¤íĥĢ
íĽĦë³´ë¥¼</w>
ëĨĴìĿ´ê³ł</w>
ëıħìŀĲ
ìĭłì²´
ë¶Ģëĭ¹
çļ
mad
ìķłëĭĪë©ĶìĿ´ìħĺ</w>
ë³ĦëıĦìĿĺ</w>
ek</w>
ìĿ¼ê´Ģ
íĺĶ
ìŀ¡ìķĦ</w>
ê·¸ëłĩëĭ¤</w>
bar</w>
thus</w>
íĺĦìŀ¥ìĹĲ</w>
ë³Ģìĭł
ëĿ¼ë¦¬</w>
ë¶Ħëĵ¤ìĿ´</w>
ìĸ´ì¨
ê³łê¸ī</w>
ë°©ìĨ¡ëĲľ</w>
ìĭ¤ì§ĪìłģìĿ¸</w>
ìłķìĭł</w>
ëĦĺì¹ĺëĬĶ</w>
ê°ļ
los</w>
ë¬¸íĻĶìĺĪìĪł
ì´īêµ¬íĸĪëĭ¤</w>
ì¹ĺëŁ¬
ë©Ģíĭ°
ëª¨ë¥´ê³ł</w>
ëģĿëĤĺ
íĥĪëĿ½
íĺĦìŀ¥ìĿĦ</w>
ë³ĦëıĦë¡ľ</w>
engine
ìĽ¬
sport</w>
lock</w>
ãģ¨
ë³´ìķĪ</w>
íĹĲ
ìĤ¬ìļ©íķ´</w>
expect</w>
å¸
va</w>
íıīìĥĿ</w>
chinese</w>
ë¸ĮëĿ¼ì§Ī</w>
íĺĦëĮĢì°¨</w>
gen</w>
ëĦĪë¥¼</w>
ìĻ¸êµŃ</w>
ìłĦìĦ¤
ì£¼ë¯¼ëĵ¤ìĿ´</w>
argum
hour</w>
íĿ¥ë¯¸
ãģĭ
ìĦ±ëĬ¥</w>
ë°©ìľĦ
map</w>
ë§Īë¬´ë¦¬</w>
ê²ĮëĬĶ</w>
íĻĶíķĺê³ł</w>
champi
ìļ©ìľ¼ë¡ľ</w>
ìŀħëł¥
ìĬ¤íĭ±</w>
wledge</w>
ìĿĮìķħìĿĦ</w>
ì²ľìĹ°
ëĮĢìĥģìĿĦ</w>
provided</w>
relationship</w>
ìĭłì¤ĳ
ìĸµëĭ¬ëŁ¬</w>
íĻķì§ĦìŀĲëĬĶ</w>
premi
dark</w>
ìĪĺìĹħ</w>
ìĸ´ëł¤ìļ¸</w>
íĶĮë¡ľ
ëªħëł¹ìĿĦ</w>
ìĹħìĹĲ</w>
designed</w>
ìŀĸìķĦìļĶ</w>
ê²ģê²Į</w>
ìĸµìĽĲìĿ´</w>
ca</w>
ìľ¡ìĦ±</w>
commer
management</w>
ë¶Īìĸ´
bol
ìĹ°ìĿĢ</w>
íıīê°Ģê°Ģ</w>
ìķĦëĤĺ
guys</w>
ê²½ë¹Ħ
ëįĺê°Ģ</w>
boy</w>
tra
ìĻĦë²½íķľ</w>
ìĿ´ìłł</w>
ìĹ¬ê°Ŀ
ë¹Į</w>
ë§Įëĭ¬ëŁ¬</w>
ì§Ģíĺľ
íİ¸ìĹĲ</w>
class
ëĵľëŁ¬ëĥĪëĭ¤</w>
}}
fla
atives</w>
studies</w>
ëĤĺìĻĢ
íķŃìĿĺ</w>
ê°ķíĻĶë¥¼</w>
target</w>
ìĿ´ì£¼
.âĢĻ</w>
íĥĿìĭľ</w>
ìļ´ëĵľ</w>
íĮĲìĿ´</w>
costs</w>
ìĦ¸ê³ĦìĹĲ</w>
ê¶ģê·¹
ìĦ±ê³µíķľ</w>
íĶĦë¡ľìĦ¸
ìķĦë¦Ħëĭ¤
ë¦¬íĭ°
ì¡Įì§Ģë§Į</w>
íĮħìĿĦ</w>
ê°ĢëıĦ</w>
ìĿ´íķ´íķł</w>
block</w>
ì§ģìĽĲìĿ´</w>
ìłĳìĨį
ìłĦë§Ŀ</w>
ç¥
ìķĬëĭ¤ëĬĶ</w>
hard
ëľ»</w>
john
ëª»íķĺê²Į</w>
ìķĵ
speech</w>
ìłķë³´íĨµìĭł
ìĤ¬ìĭ¤ìĿ´ëĭ¤</w>
ì»¤ë²Ħ
ì½ĺíħĲì¸łë¥¼</w>
ë§¤ëıĦ
ìŀĲì²´ë¥¼</w>
(@</w>
attor
ëĵ¤ìĸ´ìĦľ
ìĸĳìĤ°
ì¦Ĳê¸°ëĬĶ</w>
ëĤ®ì¶Ķ
overall</w>
manager</w>
ì±ħìĿ´</w>
aded</w>
ä¸Ń
ëļĿ
appl
remains</w>
ìĪĺìĥģ</w>
ìĹ°ëĮĢ</w>
ì£¼ë³ĢìĹĲ</w>
hear</w>
ì²´íģ¬
showed</w>
æĽ
ìłĦìĭľ</w>
ë³´ì¢Į
sym
ature</w>
ê²ĮìļĶ</w>
ë¶ĢëĮĢ</w>
ms
ìĦĿìĿĺ</w>
ì°¸ê³ł</w>
ìłķíķĺê³ł</w>
ìľĦíĥģ
ging</w>
calls</w>
ìĬ¹ë¦¬</w>
ìĹħìĿ´</w>
íģ¬ëłĪ
civil</w>
ìĽĲìĿ´ëĭ¤</w>
terror
ì§ļ
íĻĢë¡ľ</w>
ãĢģ</w>
ìĹ¬ìĪĺ
gal
ê¸°ê³Ħ</w>
ë³µìĪĺìĿĺ</w>
ìª¼
ìłķìĥģ</w>
ëĤĺëĪł</w>
digital</w>
ìĭľìķĦ
ë°©íĥĦ
eventually</w>
íķĺìļ°ìĬ¤</w>
stant</w>
ê±´ëį°</w>
ë§ŀì¶°
ìŀĦìĹĲëıĦ</w>
ë£¨ìĿ´
ìľłë¡ľ</w>
nuclear</w>
your
ì¢ĢëįĶ</w>
ìī½ëĭ¤</w>
ëĵ¤ë¡ľë¶ĢíĦ°</w>
keep
ë¡ľë¡ľ</w>
thom
ë°¥ìĿĦ</w>
ì¡°ìĤ¬ìĹĲ</w>
ë¬¼ì§Ī</w>
turns</w>
ìĽĲëĤ´ëĮĢíĳľëĬĶ</w>
recomm
ì¶Ķì²ľ</w>
ì²ľìĭľ</w>
thousands</w>
ìłľë°ľ</w>
vin
dan</w>
ë¡ľìĬ¤
ëª¨ìĶ¨</w>
increased</w>
visit</w>
berg</w>
ìĥģìĬ¹íķľ</w>
)Â·</w>
ëĦĪìĿĺ</w>
ìºĺ
ìĸ´ëł¤ìĽĮ
ìľłì§Ģíķĺê³ł</w>
ê¹¨ëĭ¬
íı¬íķ¨íķĺê³ł</w>
ìĤ¬ëıĦ</w>
ëıĮìķĦìĺ¨</w>
arre
lack</w>
èĩ
ìĽĲëŀĺ
ìķĦìĬ¤
ìĿ´ìĸ´ì§Ģê³ł</w>
prev
íİĢëĵľ
ìĦŃì·¨
wouldn</w>
êµĲìľ¡ìĿĺ</w>
proce
ì¸µìĹĲ</w>
fas
ax
ìŀĩëĶ°ëĿ¼</w>
ì§ĦíĸīíķĺëĬĶ</w>
íİĺë¥´
ê±°ì§Ģ</w>
ëĮĢìĦł
ìŀĲê¾¸</w>
ê±°ë¥¼</w>
illed</w>
ìķĦëĥĲ</w>
comment</w>
ìŀĲëĵ¤ê³¼</w>
ê²½ìłľê°Ģ</w>
ì³Ĳëĭ¤
ì´Ŀìŀ¥ìĿĢ</w>
íĥĢë¡ľ</w>
ìķĦëĭĺ</w>
ê¼½íŀĮëĭ¤</w>
charge</w>
ê¸°ìĹħëĵ¤ìĿĺ</w>
íķ´ìłľ
ìĦ¤ê³Ħ</w>
ì¤ĳë°ĺ
freedom</w>
ë®¤ì§Ģì»¬</w>
enge</w>
appeared</w>
lor
color</w>
ãĢĲ</w>
ë¶ĢìĦľ
ìĹħìĿĢ</w>
ì´ĿìĿĦ</w>
environment</w>
ìķĦë¬´ëŀĺëıĦ</w>
liter
ì°¨ìĦ¸ëĮĢ</w>
crime</w>
ëĦ¤ìĿ´ë²Ħ
ìĨĮì¤ĳíķľ</w>
ê¸īê²©
ê³µìĿµ
oms</w>
ì¡´ìŀ¬íķľëĭ¤</w>
ìĪĺíĹĺ
íĦ°ëľ¨
ìĬ¬ë¡ľ
íİ¸ìĿĦ</w>
ëĭµìĿĦ</w>
íķĻìĪł
ìŀĲìľłë¡Ńê²Į</w>
islam
senior</w>
ë³´ê±´ë³µì§Ģ
ì¡Įëĭ¤ê³ł</w>
ëĵ¤ê³¼ìĿĺ</w>
ë¹Ħìľ¨ìĿĢ</w>
property</w>
ë£Įê°Ģ</w>
evol
íŀĺëĵ¤ëĭ¤</w>
loss</w>
sent
íĺĦê¸Ī
til
íĬ¸ëĿ¼
ëĤ¨ëħĢ
princi
ê·¸ëŁ¬ëĭĪê¹Į</w>
religious</w>
ìĿ¸ëł¥
thanks</w>
íĿĲë¦ĦìĿĦ</w>
ì¤ĳê³ł
íı¬ìŀ¥
ìķĮê³ł
ë¡ľë´ĩ</w>
ìĸĢ
ê³µì¤ĳ
ìĭ¤ë§Ŀ
ê¹Įì§Ģë§Į</w>
ê³¨íĶĦ</w>
ëª¨ìŀĦ
ìĭľê°Ħìľ¼ë¡ľ</w>
ê¸°ëĭ¤ë¦¬ê³ł</w>
ê¶Ĳ
ìĦľë²Ħ
ìĤ¬ëĵ¤ìĿĢ</w>
ë¬»ëĬĶ</w>
suit</w>
íĥĳìĬ¹
fli
onal</w>
íķľêµŃìĿĦ</w>
ë¨¹ìĿĦ
ìµľìķħìĿĺ</w>
save</w>
budget</w>
cup</w>
íķ«
ìĬ¤íĶĦ
ë³´ìĹ¬ì£¼ê³ł</w>
ê¸°ìĹħìľ¼ë¡ľ</w>
efforts</w>
ê¹¨ëĭ«
py
shu
ê¸°ë¶ĦìĿ´</w>
ìĿ´ìĹĪëĬĶëį°</w>
presidential</w>
ìĭ¤ìĭľ</w>
tap
ì¢Įìļ°
ì¼Ī
ë²ķê³¼</w>
ë²½ìĿĦ</w>
insur
ëªħìĭľ
ea
ë³Ģíĺ¸ìĤ¬</w>
íŀĺìŀħìĸ´</w>
ìĹĨìľ¼ë©°</w>
mec
chri
ëĩ¨
ê¸°ë°ĺìĿĦ</w>
passed</w>
letter</w>
ìľĻ
ìĺ¤ë°Ķë§Ī</w>
çĦ
ë¬´ìĸ¸
real
ëłĽ
ê±°ëĬĶ</w>
íĶĮëŀľ
íļĮìĤ¬ìĹĲ</w>
âĶĢ
ìŀĲìĹ°</w>
ê³łë§Ļ
ë¯¸ì¹ľ</w>
íĻ©ê¸Ī
secretary</w>
immediately</w>
ëĤĺëĪł
english</w>
ì§ĢìŀĲì²´</w>
ìĿ´ë¯¸ì§Ģ</w>
ìĸ´ì¨Į
ny
ë°Ķëĭ¥ìĹĲ</w>
ë¦¬ì¼ĢìĿ´
íĻķì¶©
ëĮĢíĸī
ê²©ëł¤
ì§ĢìĽĲìĿ´</w>
ì²¨ëĭ¨
stuff</w>
âĺħ
íĮ©</w>
ìĿ´ìļ©íķĺìĹ¬</w>
ê³µëıĻìľ¼ë¡ľ</w>
ìĭĿê³¼</w>
colum
ìķĦìĿ´ìĿĺ</w>
stren
eless</w>
íķĺëĿ½íķľ</w>
ìľĦëĮĢíķľ</w>
êµ¬ë©į
íķľíĻĶ</w>
oring</w>
ìĭ¬ìĤ¬ë¥¼</w>
åĭ
ìĸĳìĦ±</w>
ëĭ¤ì§Ĳ
ëĵ£ëĬĶ</w>
ë¶ĢëĵľëŁ¬
blood</w>
tac
ê²ĥë§Į</w>
íĺ¸ìĿĳ
ì§ĢìĽĲíķĺê³ł</w>
ëıĦëĭ¬
ë¬´ëĮĢìĹĲ</w>
hp</w>
amm
ëħ¸ëł¥íķĺê²łëĭ¤</w>
ì¹ĺìĹ´íķľ</w>
ìĸ»ìĸ´
ä¸Ģ
ìĤ¬ë¡Ģ</w>
ìĭľìĦ¤ìĿ´</w>
ìļ°ëŁ¬
pressure</w>
ê°ķëĤ¨</w>
craft</w>
ë°ľê¸ī
ahead</w>
degre
classi
ìłķìĥģíļĮëĭ´
ëľ¯
ë¦¬ìĹĲìĦľ</w>
ê¶Įëł¥
ëĭ¤íķĺê²łëĭ¤</w>
ë©ĭì§Ħ</w>
ì±ħìŀĦ</w>
ì°¸ìĹ¬ë¥¼</w>
fl</w>
ìŀ¦
ìŀ¥ìĹĲê²Į</w>
ìłĢëłĩ
ame
ìª½ìĿ´</w>
ì²łìłĢíķľ</w>
ze
ë³´ìľ¡
ëħ¸ìĿ¸</w>
ëıĻëĦ¤
mass</w>
íĩ´ê·¼
refl
ëĦ¤ëįľ
ìĿ´ë¯¼
ê¸°ìĺ¨ìĿĢ</w>
ë¬¸íĻĶìŀ¬
ê·¸ëŁ´
ison</w>
ëłĪëĵľ
ë°ĸìĹĲëıĦ</w>
íķ©ëıĻ
towards</w>
ëĨĵìķĺëĭ¤</w>
ìŀĪëĬĶê°Ģ</w>
ëĳĲìĤ°</w>
ìĤ¬ê³łë¡ľ</w>
íķĻìĿĺ</w>
å¼
secon
brain</w>
fair</w>
ëĤĺíĥĢëĤĺëĬĶ</w>
judge</w>
claimed</w>
ê³¼ìłľ</w>
ì²ľì²ľíŀĪ</w>
ìĻľëĥĲíķĺë©´</w>
íĮ¬</w>
ìłķëıĦëĭ¤</w>
ëħ¼ìĿĺ</w>
ox
hill
lou
ìķ¡ìĿĺ</w>
ëĤłìĿĦ</w>
êµŃìľ¼ë¡ľ</w>
íģ´ë¦°
ë¦¬ë²Ħ
ìĭ¶ìĹĪëĭ¤</w>
ë£°
direct</w>
???</w>
ëĤ©ë¶Ģ
íĹĪê°Ģ
ìłķìĪĺ
ëĵľëŀĺê³¤
ì§Ħëĭ¤ëĬĶ</w>
ë°ĶëŀĮ</w>
ì¡°ìĤ¬ìĹĲìĦľ</w>
ìĽĲìĿ¸
íķľêµŃê³¼</w>
ë¹ĦíĥĢ
ìŀħìŀ¥ìĹĲìĦľ</w>
ëĭĲ</w>
ê²°ìĿĺ
ì¹ĺë©´ìĦľ</w>
ìĨĮìĭľ
ìĦłìĥĿëĭĺ
íķĦìļĶíķĺëĭ¤ëĬĶ</w>
subject</w>
ìĪĺì§Ģ</w>
ë°ķë¬¼ê´Ģ</w>
rise</w>
ìĸ¸ìłł
vill
ìłķë³´ê°Ģ</w>
íķ©ë³ĳ
ë³¸ìĿ¸</w>
ìĥģíĥľìĹĲ</w>
íħĢ
ìĨĲëĭĺ
ìĿ¼ìĸ´ëĤľ</w>
device</w>
ìĤ¬ê¸°
ìĭ¤ìĿĺ</w>
ìľĦì£¼ë¡ľ</w>
íķľë§ĪëĶĶ
link</w>
ìłķì§Ģ
ìķĦìłĢ
ìķĦëĭĪìķ¼</w>
ìĿ´ì£ł</w>
ìĥģìļ©
appear</w>
íĬ¸ëıĦ</w>
challenge</w>
ìĭľìŀĳíķ´</w>
ì¶Ķì§ĦíķĺëĬĶ</w>
pil
ãħĩãħĩ</w>
íķ´ìĻĶ
ë°Ľì¹¨
eyes</w>
ëĭµëĭµ
ë¦ĦìĿĦ</w>
includes</w>
ìĹ´ìĸ´
ì¢ĭê³ł</w>
ìĭłëıĦìĭľ</w>
íĴĪì§Ī</w>
mobile</w>
íķľê¸Ģ
couldn</w>
ì¡°ì¢ħ
ker
íĥĢì¹´
ìłĦëĭ´
after
ì²«ì§¸</w>
ë¶Ģì§Ģ</w>
ìľĦì¹ĺë¥¼</w>
ìłĲìĪĺë¥¼</w>
sell</w>
ìħ¨ëĭ¤</w>
ìĸĳëıĦ
ëıĻë¬¼</w>
ë§ĪëĿ¼
ëĵĿìłĲ</w>
fru
ê°Ĳì§Ģ
ê²Ģì°°ìĿ´</w>
ìĿ¼ìŀĲë¦¬
democrats</w>
ê°ľì²Ļ
ì¸¡ë©´
ì¡´ìŀ¬íķĺëĬĶ</w>
toward</w>
íĺ¸ìĹĲ</w>
ì°¾ê³ł</w>
íķ´ìĦľëıĦ</w>
ëĮĢê¸°</w>
ë§ĮëĤ¬
="</w>
ì§ĵ</w>
ì´Īê¸°
ëĮĢë¥Ļ
ë²ķìĥģ</w>
ìĤ¬ê±´ìĹĲ</w>
ë³ĳìĽĲìĹĲ</w>
ëıĦìĽĢ
ìŀłê¹Ĳ</w>
ãĤĭ
ëĤĺìĿ´ê°Ģ</w>
debate</w>
íıīì°½
ëĭ¹ì²¨
ëħĦê³¼</w>
ìĦľìļ¸ì¤ĳìķĻ
ìķĦëıĻ</w>
remain</w>
ì°½ì¶ľ</w>
ìĿ¼ë¶Ģë¥¼</w>
ìĦ¸íĥģ
ìĭ±ê¸Ģ</w>
streng
ìĪĺì¤ĢìĹĲ</w>
ê°ķìļĶ
ts
ëĶ°ë¥´
ìĸ´ì°¨íĶ¼</w>
ë§Īëķħ
ëĨįë¯¼
Ð¾
ph</w>
ìĸ´ì°Į</w>
íģ¬ë¡ľ</w>
ë²ĪëıĦ</w>
poor</w>
lin</w>
integr
íĺĳì¡°
associated</w>
beginning</w>
ì´Ŀë¦¬
ëĤ´ëĭ¤ë´¤ëĭ¤</w>
chic
íĽĦë³´ë¡ľ</w>
tour
ìļ°ë¦¬ìĹĲê²Į</w>
ìĺģêµŃìĿĺ</w>
ëĵ¤ì§Ģ</w>
íĻĶìĦ±
ìĿ´ìĻ¸ìĹĲëıĦ</w>
ìŀĲëĿ¼
confl
ìĿ´ëģĦëĬĶ</w>
ìľłëĭĽ</w>
ìłĦíĨµ</w>
ìĦľëĭ¤</w>
íķĺëĬĶê°Ģ</w>
ìĭłìĦ¤</w>
ìĹ°ìĨį
ìĦľìļ¸ìĭľ
ëĨĴìķĺëĭ¤</w>
íĮĮëĿ¼
íķ´ì£¼ìĦ¸ìļĶ</w>
ìķĮì§Ģ</w>
ìļ´ëĭ¤</w>
ê·¸ëĵ¤ìĿĦ</w>
ìĬ¹ìłĲ</w>
ëħĦìĥĿ</w>
íĮ¬ëĵ¤ìĿĺ</w>
ëıĦìĭ¬</w>
cher</w>
íĺĳìĥģìĿĦ</w>
rou
ì±Ħë¡ľ</w>
ê°Ģìļ´ëį°
schools</w>
ì§Ģì£¼
ë§¤ëł¥ìĿĦ</w>
ìĨįëıĦë¡ľ</w>
ê³µìĿ´</w>
ê¸°íļį</w>
íģ´ë¡ľ
ìĤ¬ìłķ
ë³¸ì§Ī
ìĺ¤íĶ¼ìĬ¤
íĻľëıĻìĿ´</w>
antly</w>
ë¬´ë¦İ
ìºłíĶĦ</w>
appears</w>
ê¸°ìģ¨
acad
ê³łìĭ¶
ìĦ¸ìĽłëĭ¤</w>
ê°Ģì¤ĳ
difference</w>
km
ì¢ħë¥ĺ
ë¸Įë¦¬íķĳ
ëªħëıĦ</w>
íĶĦë¡ľëª¨
bc
ë¹¡
íķ¨ê»ĺíķĺëĬĶ</w>
advant
ìĤ¬ëŀĮê³¼</w>
apparen
contact</w>
ìºĲëĤĺëĭ¤</w>
ì¦ĺ</w>
ìĿ¸ìŀ¬</w>
ìľłìĤ¬íķľ</w>
ìĿ¼ë³¸ìĿĢ</w>
âĢĶ
exi
íĿ¬ê°Ģ</w>
ìĿ´íĭĢ
ë§Īëł¨</w>
clusi
ê²½ìĹĲ</w>
ìĿ´ëħĲ
ìŀĲëıĻ</w>
ìļ´ìĿĦ</w>
ì¤ĳëĭ¨</w>
ëħ¸íĽĦ
gb</w>
ê³Ħê¸ī
ìĪĺì£¼
ì´Ľ
ìłķì±ħìĿĺ</w>
ì´ĪìłĲìĿĦ</w>
reach</w>
ê±°ì¹ľ</w>
ìķĺì§Ģë§Į</w>
ëıĦëĮĢì²´</w>
íıŃëł¥
swit
ê°Ģì¡±ìĿ´</w>
íĻĺìĺģ
art
gold</w>
smith</w>
famil
fortun
ease</w>
conditions</w>
gender</w>
íĬ¹ìĦ±ìĥģ</w>
stream</w>
ìĦłê±°ìĹĲìĦľ</w>
ton
ëª°ëł¤
ëħ¼ë¦¬
íĺĳëıĻ
ëıĻìĥĿ</w>
ìķĪíĥĢê¹Į
ìĭĿëĭ¹</w>
ë¦¬íĭ°</w>
ìĿ¼ìŀĲë¦¬ë¥¼</w>
íĥľëıĦë¥¼</w>
ì»¤ë®¤ëĭĪì¼ĢìĿ´
íı°ìĿĦ</w>
https</w>
ë³´ëĤ´</w>
ë§ĿìĿ´</w>
êµ¬ìĹĲìĦľ</w>
ì¤ĳê°ľ
ìĻĦíĻĶ</w>
ìĭľë¯¼ìĿĺ</w>
íķ¨ìĿĢ</w>
ë¡¯</w>
ìĿ´ì¤ĳ</w>
ìĿ´ê²ĥìĿĦ</w>
ë°©ì§Ģ</w>
ì½ľ</w>
íĮĢìĹĲ</w>
ë¬¼ê±´ìĿĦ</w>
ì²´ìĻĢ</w>
íĹĽ
rule</w>
íĿ¬ë§ĿìĿĦ</w>
rob
ê±°ëĵł
advis
rich</w>
tch</w>
ë§¤ì¶ľìĿĢ</w>
íķĺëĤĺìĿ¸</w>
ìĺģê´ĳ
ê·Ģë¥¼</w>
ì¢ĭìĿĦ</w>
ìłģíķľ</w>
ìłĦì²´ë¥¼</w>
compared</w>
êµĲì²´</w>
ë¬´ìŀ¥
ìĥģíĻĺ
kers</w>
Â£</w>
ì°¨ìĿ´ë¥¼</w>
ìĿ´íĽĦìĹĲ</w>
ìłģë¦½
íķĺê¸°ê°Ģ</w>
ê¸°ê´ĢìĹĲ</w>
ëªħë°±
ëĶĶìĬ¤íĶĮëłĪìĿ´</w>
oph
ê°ĪìķĦ
ëĦĲëĵľ</w>
perfect</w>
status</w>
rs</w>
voice</w>
aches</w>
íķĦìļĶíķĺëĭ¤ê³ł</w>
íĴįìĿ´</w>
convers
ading</w>
albu
ë§ĮìĽĲìĹĲ</w>
ê·¹ëĭ¨
ìľĦìĽĲìŀ¥ìĿ´</w>
ë²Ħëł¸
ê³ĦìĹ´</w>
ê°Ģì§ĢëĬĶ</w>
ë¶ĢìłķìłģìĿ¸</w>
íĿ°
ìĿ´ìĥģíķľ</w>
ëĭ¹íķĺê³ł</w>
ìĿ´ê±¸</w>
fit</w>
íķĺê¸°ë¥¼</w>
ìĬ¹ìĿ¸
ëĤĺê°Ģê³ł</w>
ìķĮëłī
ë¬ĺíķľ</w>
ìŀĳê°ĢìĿĺ</w>
ìĹħê³ĦìĿĺ</w>
ê¸¸ìĿĢ</w>
largest</w>
íĤ¤ìĬ¤
ìĽĮìļĶ</w>
wait</w>
ìłĢíŀĪ</w>
ëªħì¹Ń</w>
ìĬ¤ëŁ½ëĭ¤</w>
yourself</w>
ë§Īê°ĲíĸĪëĭ¤</w>
ë³´ìķĦ</w>
ë¶Īê±°
tim</w>
experim
ç¾İ</w>
ì½¤</w>
ë¬´ê´Ģ
ë²Ħíĭ°
ë²Ħë¦°ëĭ¤</w>
ê±¸ë¦°</w>
êµĲëıĦ
uk
ê¸°ëĮĢ</w>
crisis</w>
pointed</w>
ì¹ĺìĻĢ</w>
george</w>
ìĹĳìĬ¤
ìļ°ë¦¬ë¥¼</w>
fire
ê³µë¶Ģë¥¼</w>
ìłĳìĸ´
ê°ĲìĨĮíķľ</w>
çĻ
location</w>
ëĭ¤ëħ
gin
activity</w>
----------------
asp
ê²½ìŁģìĿĦ</w>
ìŀĲìłĦê±°</w>
ë°ľìĿ´</w>
physical</w>
ë°ľìłĦìĹĲ</w>
ê³łë°±
ì°©ìĪĺ
gue</w>
ìĭľíĹĺìĿĦ</w>
ëĵ¤ìĸ´ìĺ¤
ì¶ľìĦĿ
íķĺê²łìĬµëĭĪëĭ¤</w>
ìłĪì°¨</w>
ë°±ìķħ
ê³łíĨµìĿĦ</w>
resources</w>
raised</w>
ìļ´ìļ©</w>
ê·¸ë¦¼ìĿĦ</w>
posted</w>
ê°ģê°ģìĿĺ</w>
agreement</w>
ë¶ĦìľĦê¸°</w>
ê¹ĢëıĻ
íİ¸ìľ¼ë¡ľ</w>
ê¶Įê³ł
quo
ë±ĥ
ìĮĢ</w>
canadi
ìĿ´ìĭľ
ë©ĶìĿ´ìłĢ
french</w>
ì£¼ìĭĿìĿĦ</w>
íĶĮëłĪ
ìķĦëĭĪëĥĲ</w>
vely</w>
ë¹Ħìĭ¼</w>
ìĥĿê²¼ëĭ¤</w>
ìĤ¬ëŀĳíķ´</w>
íķľêµŃìĿ´</w>
ë§İìĿ´
basic</w>
ê°ĢëĬ¥ìĦ±ìĿĢ</w>
ìĺ¤ìĺ¤
íķĺëĬĶê²Į</w>
ê¿Īê¾¸
ê°ĲìķĪíķĺë©´</w>
ìĥģíĻ©ìĿĢ</w>
íŀĮ
istan</w>
frequ
independent</w>
êµ¬ë¯¸
ìłĦì£¼</w>
ëĤ´ëł¤</w>
chem
ì£¼ë©°</w>
ë¡ľìĻĢ</w>
ì²łìĪĺ</w>
ë©´ìĹŃ
characters</w>
ì±Ļê²¨
íģ´ëĿ¼ìļ°ëĵľ</w>
ëĭ¹ê¸°
ìķĪìłĦìĿĦ</w>
ê±´ê°Ģ</w>
ìķĦë§ĪëıĦ</w>
ë³Ħëĭ¤ë¥¸</w>
ëĤĺëĪĶ
ëĿ¼ëĶĶìĺ¤</w>
ëĲĺìĹĪëĭ¤ê³ł</w>
...
failed</w>
conservative</w>
ä¸į
ëĭ¨ìľĦ</w>
ë¨¹ìĹĪ
absol
myself</w>
ëª¨ëĵľ</w>
ìĺ¬ë°Ķë¥¸</w>
ê·¼ë¡ľìŀĲ</w>
fs</w>
ìĭ¤ëĤ´
ëĨį</w>
ê°ĢìĪĺ
íĻķëĮĢë¥¼</w>
adding</w>
ëłĪëĵľ</w>
ê°ķìĿĺ
reasons</w>
push
ìĤ´íİ´ë³´ë©´</w>
ê·¸ëĤł</w>
íĺĦìĭ¤ìĿĦ</w>
ë°´ëĵľ</w>
íĻĶë¬¼
whatever</w>
ìĿ´ëĿ¼ë©´ìĦľ</w>
ë³´ëĤ´ê³ł</w>
fighting</w>
ìĽĥìĿĮ
ë¬´ìĤ¬
ìľĦìĥĿ
cities</w>
ising</w>
ëįĶë¸Ķ
stone</w>
ëĵľë¦¼
ëĭĪëĬĶ</w>
ì½ĺìħī
ìłķíķľëĭ¤</w>
ìĵ´
ëĭ¹íķĺëĬĶ</w>
ì¡°íļĮ
íķĺìĺĢìľ¼ë©°</w>
ê¸°ë¶Ħ
fox</w>
ìĬĪíį¼</w>
clearly</w>
ì§Ħíĸīíķľ</w>
entary</w>
ìĪĺëĬ¥
ê³łêµĲ</w>
ìĽłëįĺ</w>
dies</w>
ìĿ¸íħĮ
ê¹ĢìĶ¨ëĬĶ</w>
receive</w>
ê°Ģê²©ìĹĲ</w>
ane</w>
scale</w>
íĺģëªħ
ëģĪ</w>
ì²ŃìĿĺ</w>
ê¹Ģìŀ¬
tel</w>
ëª¨ìķĺëĭ¤</w>
rock</w>
ëĭ¨ê³Ħë¥¼</w>
íĶĦëŀľì°¨ìĿ´
íļĮìĽĲ</w>
itation</w>
ì¤ĳêµ¬</w>
ìĺ¹</w>
positive</w>
ëĤłìĿĺ</w>
ê¶Įë¦¬
ëĵ¤ìĸ´ê°Ī</w>
destro
ëĲ¨</w>
ì£¼íĸī</w>
kar
ì§ģìĽĲëĵ¤ìĿ´</w>
ìĭľìłĲ
fine</w>
ëĦĺê²¨
ëĨĢìĿ´</w>
ìĹħì²´ìĿ¸</w>
author</w>
ìŀĲëĭ¤</w>
ë°ĶìĿ´ìĺ¤</w>
ìĿ´íĽĦë¡ľ</w>
association</w>
ëª°ëĿ¼</w>
ìĿ´íĭĢ</w>
ìľłëĮĢ
ìĿ´ì¤ĳ
australia</w>
ëĭ¬ëł¤</w>
ì§ģìłĦ</w>
ìį©
íĸĦ
ë¶ķê´´
ìķĬê²ł
ìĿ´ë¥¸ëĭ¤</w>
normal</w>
ë¬¸íĻĶìĿĺ</w>
ê°ĢëĬ¥ìĦ±</w>
enty</w>
treatment</w>
ìĺĪëĬ¥
nas
ê·ľëª¨ë¥¼</w>
land
ë³´ëĥĪ
ë§¡ìķĺëĭ¤</w>
ëī´ìĬ¤
vr</w>
ê´´ë¡Ń
ë¯¸ì¹ł</w>
ceo
ìľłê¶Į
spending</w>
helped</w>
ì²¼
ë¬´ë£Į
ìª½ìĿĺ</w>
ë¸Ĳ</w>
ì§ĦíĻĶ
less
êµ¬ê°Ħ</w>
ìĭľë¯¼ëĵ¤ìĿ´</w>
brown</w>
ìŀ¡ëĬĶ</w>
ê¸°ëħĲ</w>
comfor
mex
æĻ
ë¶Īê³¼íķĺëĭ¤</w>
places</w>
encour
capit
ì¡´ê²½
ëħĦì§¸</w>
íķľíħĮ
íĻķë¥ł
powerful</w>
ì§Ģì§Ģë¥¼</w>
ìĹŃëĮĢ
ë¡ľë§¨
êµŃìŀ¥ìĿĢ</w>
íıŃìĿĦ</w>
ë¹Ħì¤ĳìĿĦ</w>
ìŀĪìĸ´ëıĦ</w>
ëĮĵê¸Ģ</w>
ê´Ģê³ĦìŀĲ</w>
íĮĮê°Ģ</w>
ìĸ´ëĳł
ìĤ¬íļĮê³µ
ì§Ģë°©ìŀĲì¹ĺëĭ¨ì²´
ìĪĺìĪłìĿĦ</w>
ê¸°ë³¸ìłģìĿ¸</w>
ê²½íĸ¥ìĿ´</w>
ê³µìĭľíĸĪëĭ¤</w>
ìīĲ
ë¶Ģë¶Ģ
êµ¬ê¸Ģ
ë¶Ļìĸ´</w>
ì¡°ë§Į
ì°¨ëĿ¼ë¦¬</w>
ë¤ĺ
ìľłíļ¨
ìĺĪìģĺ
ê³¼ìŀ¥ìĿĢ</w>
ìĭłê²½</w>
ìĭ¤íŀĪ</w>
ëĪĦ</w>
ìĦľì´Ī
ëĸłëĤĺ</w>
ìĨĶì§ģíŀĪ</w>
van</w>
ë¹Ħíķµ
ìłľëĦ¤
ë§Īì¼ĵ
ida</w>
ê°ĢëĿ¼
ì¦Ŀê°Ģíķĺê³ł</w>
ëł¹ìĿ´</w>
ìĺ¬ë¦¬ê³ł</w>
candidate</w>
ì¶Ķì¶ľ
ìĤ¬ìļ©íķľëĭ¤</w>
ìłĢê°Ģ</w>
tren
ëĵ¤ìĿ¸</w>
ìľłíĺķ
ìĹ°ë£Į
ë§¤ê°ģ</w>
ìĺ¤ë¡ľ
ìĿ´ê¸´</w>
ëĤ¨ë¶Ģ
ìĹħì²´ìĿĺ</w>
ê²Ģì°°ìĹĲ</w>
families</w>
mexic
atory</w>
ìĤ¬ëĵľ</w>
ories</w>
ë§¡ìķĦ</w>
feature</w>
ì§ĢëĭĪê³ł</w>
ì£¼ìĿ¸</w>
ìĭłìķĻ
ë°ĸìĿĺ</w>
ê±į</w>
ëĬĻ
ë¶Ģì¡±</w>
ëħ¸íķĺìļ°
íĽĦìĹĲëıĦ</w>
ìĿ´íĽĦìĹĲëıĦ</w>
ê°Ģë§Į
ëıĻíĺĦìķĦ</w>
ëĤĺíĥĢëĤĺ
kg
ëł¤ìķ¼</w>
ë³¸ë¶Ģìŀ¥ìĿĢ</w>
ì°¨ìĻĢ</w>
ì¢ĭê²Į</w>
ëĭ¬ë¦°</w>
ìłĢëł´íķľ</w>
ì°¨ëŁīìĿĦ</w>
ãħłãħłãħłãħł
aker</w>
ë¨¹ìĿĢ</w>
ãĥ³
ìłĢìĿĺ</w>
ìĦ±ìłģ
hi</w>
ì¿¨</w>
êµĲìĪĺê°Ģ</w>
ì§ĳìĿĢ</w>
song</w>
weapons</w>
ffff
ìľłìĤ°
ë¹Ħìľ¨
ìĸ´ì©Įë©´</w>
ìķĦëĭĲê¹Į</w>
ëĤ´ëĨĵìĿĢ</w>
ãĢĳ</w>
ëĶĶìŀĲìĿ´
ìĿ´ìļ©íķĺëĬĶ</w>
ìĭľì¦ĮìĿĦ</w>
ë²ĮìĿ´ê³ł</w>
ìĦ±ìĿ¸</w>
ext
skíħĶëłĪì½¤
ìŀĥìĿĢ</w>
ìĸ´ëĶĶìĦľ</w>
ì¦ĿìĥģìĿ´</w>
ìłĦìŁģìĿĦ</w>
hd</w>
ìķĦíĶĦë¦¬ì¹´
ìĽĶíķľ</w>
hus
íķĺëĵ¯</w>
ìĿ¼ëĮĢ</w>
ìµľìĨĮíĻĶ
ì¦Ŀìĭľ</w>
ìĿĺìĿĺ</w>
ìļĶì²ŃíĸĪëĭ¤</w>
mi</w>
ìĨĮíĺķ</w>
ë§ĪìĬ¤íĦ°</w>
ìŀĬì§Ģ</w>
ìĥĿê°ģìĿĢ</w>
ê¸°ìĹĲìĦľ</w>
ë¶Ģíķĺ
send</w>
ëľ»ìĿ´ëĭ¤</w>
ìĸ»ìĹĪëĭ¤</w>
íķľì§Ħ
hospital</w>
ìĸĳìĿĢ</w>
ìŀĲëħĢ</w>
ëĮĢë¬¸
ì§ĪíĻĺ</w>
records</w>
ìĤ¬ëĵ¤ìĿĺ</w>
ë°ĺìĿĳìĿ´</w>
ìŀĪìĿĦì§Ģ</w>
aps</w>
ìĭľê°ģ</w>
ìŀħêµŃ
íĺ¸ëĤ¨
developed</w>
shown</w>
ìķĦì¹¨ìĹĲ</w>
íı¬íĬ¸
franc
ëĭ¹íķł</w>
ìĿ´ìļĶ</w>
flor
ìĺ¤ëĶĶ
ê¸°ëıĻ
ìķĦíĶĦë¦¬ì¹´</w>
pre</w>
ìĭ¤íĥľ
ëĤ¨ê²¨
ìĺ¤ë¹ł</w>
ëĮĢë¶Ģë¶ĦìĿ´</w>
ìĿ´íĥĪë¦¬ìķĦ
ì°¾ìķĺëĭ¤</w>
ìŀħìŀ¥</w>
ìĿ´ìĹĪìľ¼ëĤĺ</w>
ìĿĮìĹĲ</w>
ì±Ħê¶Į</w>
ëĭ¬ìĹĲ</w>
ê²Įìŀ¬
ssed</w>
ëłĪìłĦ
ëĭ¨ê¸°
ìķĦíĤ¤
celebr
ì§Ħíķľ</w>
ëħ¼ìŁģ
ê¹ĶëģĶ
ë¶Ģìŀĳìļ©
ë³´ìĿ´ë©°</w>
ìķĦìĿ¼
bot
ìĦľìĪł
ë°ľë¡ľ</w>
ìķ¼ë§Ī
êµŃìĦ¸
protect</w>
íķ¨ìľł
ì§ķê³Ħ
ì£¼ìĿĺê°Ģ</w>
ë¶ģíķľìĿĢ</w>
ê¸°ê´ĢìĿĢ</w>
ëĲĺìĹĪìĿĦ</w>
ê¹ĢíĺĦ
ëħĦë§ĮìĹĲ</w>
ky
luc
ìĭ¸ê³ł</w>
ê¸°ë¶Ħ</w>
ìĺ¬ë¦´</w>
æī
picture</w>
respec
mun
greater</w>
dated</w>
íĥĢìŀĲ</w>
japan</w>
successful</w>
syria</w>
ê°ĢìĬ´</w>
ìĿ¼ìŀĲ</w>
ê±°ëĵłìļĶ</w>
íĸĪëĭ¤
ìĦ¤ë¬¸
ìłķì±ħìĿ´</w>
minim
german</w>
íĺĳìĿĺ</w>
ë±Ģ
ì²ĺë¶Ħ</w>
ìĤ¬ê°ģ
ìľłíķ´
ìĭľê°Ģ
ìĪĺëł´
ë°ĺëł¤
ë°°ìĥģ
ìĿĺìŀ¥ìĿĢ</w>
ëĭ¤ë¦¬ë¥¼</w>
ìĹĨì§Ģ</w>
ê³łìĪĺ
ê³¼ìłķìĿ´</w>
ë¢°</w>
ran</w>
ìĨĮìĭĿ
ìľĦíĹĺìĿ´</w>
consist
ëĺ¥
íķĻêµĲëĬĶ</w>
ìĹ°ê³Ħ</w>
ìĨĮê°ľ</w>
telev
ìĺ¤ë¥´ê³ł</w>
ëª»íĸĪëįĺ</w>
pper</w>
fear</w>
ì£¼ìŀ¥íķĺëĬĶ</w>
ë¹Ħì¤ĳìĿĢ</w>
ê³łê°ĿìĿĦ</w>
aughter</w>
ìĹĨëĬĶëį°</w>
ìĿ´ë£¨ìĸ´ì§Ħ</w>
((</w>
ìĹĶì§Ħ</w>
ì¶ĶëĿ½
ë³´ìĺĢ
ëĭ¤ìĿĮìĹĲ</w>
gin</w>
íıīìĥĿ
ìĬ¤íĥľ
threat</w>
ê¸ĪìĨį
ë¹µ</w>
ìĭľíķĺëĬĶ</w>
ëĭ¨ì¶ķ
ì¤ĳê³Ħ
ìĿ´ì§Ģ
ìĭłìĦ¸ê³Ħ
ëĮĢíĳľíĮĢ</w>
ìĺ¤ê°Ģ</w>
ë§ĮëĤĺëĬĶ</w>
íĸīëıĻ</w>
ì§Ħì¶ľìĿĦ</w>
íĥĢìŀħ</w>
ê°ķëıĦ</w>
ëĭĪìĬ¤</w>
ë§İì§Ģ</w>
ìĺĪìłķìĿ¸</w>
ëŃĲìķ¼</w>
ê¼Ń
ë³´ìĹ¬ì¤Ģ</w>
lie</w>
ok</w>
íĴĪìĿ´</w>
ka
za</w>
ê²½ìŁģìĿ´</w>
alls</w>
ìĹ°ê¸°ë¥¼</w>
ht
ìŀłìĿĦ</w>
ëģĮìĹĪëĭ¤</w>
roun
ëĮĢê³ł</w>
truth</w>
ê³µìĿ¸
ê¸°ë³´ëĭ¤ëĬĶ</w>
ideas</w>
íķĻêµĲìĿĺ</w>
ìłķê¶Į</w>
ë³´ëĵľ</w>
ë´Ĳìķ¼
types</w>
ìłķì§Ģ</w>
primary</w>
ë°Ķê¹
libr
strong
ê·¹íŀĪ</w>
previously</w>
ro</w>
íį¼íı¬
ational</w>
radio</w>
ëĤĺê°Ħ</w>
ìĸ´ìĹĲ</w>
íķĺìĭł</w>
ìĹ´ëł¸ëĭ¤</w>
éĸ
manufac
ìĤ¬ê±´ìĿĢ</w>
!'</w>
ìĿ¸ëĵ¤ìĿĦ</w>
ëıĦìĭľìĿĺ</w>
ìķĪëĵľ
ìŀĲì¡´
tech</w>
ìľłìķĦ
íıŃëł¥</w>
ìĽĲìĿ¸ìĿĦ</w>
hot</w>
ëĬĺìĸ´ëĤł</w>
employ
secret</w>
ìĤ¬ìļ©ìŀĲ</w>
ê°ĲëıĻ
ëĭ¨ê³Ħë¡ľ</w>
êµŃê°Ģê°Ģ</w>
ìĿ¸íĦ°ë·°</w>
ëĭ¹ë¶Ħê°Ħ</w>
germany</w>
ìĦ¤ìĿ´</w>
íĮĢìŀ¥ìĿĢ</w>
ìºĲíĶ¼
ìĪĺìĹħìĿĦ</w>
ìĿ´ì¢ħ
ìĸµìłľ
ì§ģìĹħ</w>
ê³ĦíļįìĿ´</w>
marri
ì¸µìĿ´</w>
ê·¹ëĮĢíĻĶ
ë³ĳìĽĲìĹĲìĦľ</w>
ê½Ĥ
ê°Īëĵ±ìĿĦ</w>
extra</w>
ìĦĿìĹĲ</w>
ëŃĩ
ìļ´ìłĦ</w>
ë£¨ë¥¼</w>
bitcoin</w>
ê°ķíĻĶíķĺê³ł</w>
generation</w>
Ã£
ìĦ¸ê³Ħìłģìľ¼ë¡ľ</w>
ì§Ģë¶Ī
ê¸Īìķ¡ìĿĢ</w>
ëĽ°ìĸ´ëĤĺ
ë°©ì¹ĺ
íĬ¹ì§ķ</w>
ize</w>
nice</w>
sar
strai
ëĤ´ë¦¬ëĬĶ</w>
ìºłíİĺìĿ¸</w>
researchers</w>
ang</w>
ìĦ±ê³µìłģìľ¼ë¡ľ</w>
ì°¸ìĦĿíĸĪëĭ¤</w>
ë¶ģë¯¸</w>
session</w>
ì°©íķľ</w>
ëĮĢíķĻìĿĺ</w>
íı¬ëŁ¼</w>
allows</w>
ë§Ĳíķĺë©´</w>
ëıĻë¶ģ
ë°©ìĸ´</w>
stric
max</w>
ìĦłë³Ħ
ffffff</w>
ê³łêµĲ
íĮ¨ëĦĲ
ì¡°ë¡ľ</w>
ê²¨ëĥ¥
íĶĦëŀĳìĬ¤
arm</w>
ì¡°ë¦¬
ìĤ°íķĺ</w>
begin</w>
ìİ
ì¹ľíĻĺê²½
ìĽĢì§ģìŀĦ
ì¦Ŀìĸ¸
ê·¼ë¬´</w>
ko</w>
ë¶ĻìĿĢ</w>
ë³´ìľł</w>
ê´ĳìĹŃìĭľ</w>
ê³łìĨĮ
ìĦ¤ì¹ĺëĲľ</w>
ëıĦëĦĲëĵľ</w>
ì£½ìĿĮìĿĦ</w>
íķĺëĤĺëıĦ</w>
antas
êµ¬ëĭ¨</w>
ìĹ¬ìŀĲê°Ģ</w>
kill</w>
server</w>
ëª¹
ìĿ¸ìĬ¤íĥĢê·¸ëŀ
ê²½ì£¼
íĺĳìĿĺë¥¼</w>
join</w>
ì¤ĳëıħ
contract</w>
ìĥīê¹Ķ
ìłģìļ©íķ´</w>
æĶ
ìĤ¬íļĮìłģ
ë»Ĺ
ìľłìĹ°
ìŀĲìĦ¸íŀĪ</w>
ìĭ¤ìłģìĿ´</w>
ìĭľíķľ</w>
ìłĦë§ĿìĿ´</w>
ìĦ¸íķľ</w>
ìĦłê±°ë¥¼</w>
íĥĢìŀħ
ìķĦëĭĪìĹĪ
seeing</w>
prise</w>
êµĲìĦŃ
ëĦ¹</w>
ëıĮìĿ´</w>
ìĵ°ê¸°</w>
íĶ¼ëĬĶ</w>
ìļ°ìĻĢ</w>
ìĬ¤íĤ¨
ìĪĺìĭŃ
ìĦľë¥ĺ
ë§¤ìĿ¼
æĦ
ìļ°ë¥¼</w>
ìŀ¥ë©´ìĿ´</w>
ìŀĪìĿĮ</w>
ëĮĢíķĻìĥĿ</w>
ìķĬìĬµëĭĪëĭ¤</w>
ìĦľìļ¸ì¤ĳìķĻì§Ģ
ìĭ¤ê³¼</w>
ëķĮìĹĲ</w>
íķĺìĹ¬ê¸Ī</w>
ìĭłìŀĦ</w>
ê¸Īê³¼</w>
ìĨĲìĿ´</w>
lands</w>
ë¹Ħë¡ľ
sales</w>
rates</w>
funding</w>
pic</w>
foundation</w>
ê³łëıĦ
ìĦ±íĸ¥
ãģ§
ìĪľì²ľ
ëĨĴìķĦì§Ģê³ł</w>
ì¡°ë§Įê°Ħ</w>
ìľĦíĹĺ</w>
ëĤ´ëĭ¬</w>
ìŀĪìĹĪìĬµëĭĪëĭ¤</w>
propos
click</w>
ì£¼ì²´
female</w>
ìĻĦìłĦ
projects</w>
ê²½ìĿĺ</w>
ë°ĺìĿĦ</w>
ret
zy</w>
íĥĢê°Ģ</w>
conf
ìĺĪëĬ¥</w>
attempt</w>
ë¯¸ë§Į</w>
ê¹Įì§Ģ
ìłľìłķ
ì»¸ëĭ¤</w>
svg</w>
ëıĦëª¨
ìĨĮê°ĲìĿĦ</w>
ëĬĶëĭ¤ê³ł</w>
ìĭ¤ëł¥ìĿĦ</w>
turning</w>
ä¿
ville</w>
ë¹ĦêµĲíķ´</w>
ëĭ¨ëĭ¨
íķĺìĪĺ
gives</w>
ìłķíĻķíķĺê²Į</w>
ëª¨ìŀĲ
ì£½</w>
ë¬´ëĮĢ
ë¨¸ë¦¬ê°Ģ</w>
ì¤Ħìĸ´ëĵł</w>
ìĸĺê¸°ëĭ¤</w>
ìłĦìŀĳ
ì¡°ìĤ¬íķľ</w>
íķľíķ´</w>
ìķĦëĭĻëĭĪëĭ¤</w>
ê´ĢìłĲìĹĲìĦľ</w>
ëĲĺìĹĪëĬĶëį°</w>
followed</w>
ê³¼ê±°ìĿĺ</w>
attr
ìŀĪëĤĺ</w>
easily</w>
ìŀ¼
ìĭłê³łë¥¼</w>
ìĥĿê°ģìĹĲ</w>
ì°½ìĿĦ</w>
ìĨĮìľĦ</w>
eve</w>
ìħĶ</w>
ê²½ìłľë¥¼</w>
ìĿ´ëĿ¼ìĦľ</w>
ì¦īê°ģ</w>
ë¬´ìļ©
ë¡łìĿ´</w>
ìĬ¹ìĿ¸</w>
ìĤ¬ìļ©íķĺê³ł</w>
ë°°ìĹĲ</w>
sun</w>
ìĺģìĹħìĿ´ìĿµ</w>
trou
ìŀĥìĸ´ë²Ħ
tered</w>
ì§ĦìĹĲ</w>
ìĸ¸ëįĶ
ë§µ</w>
ëĳĺìĿ´</w>
commission</w>
ìŀ¥ìĭĿ
ê¿Ī</w>
íķľêµŃìĿ¸</w>
tube</w>
ìŀĪëĭ¤ê°Ģ</w>
ë¿ľ
ì£ł
íĥĢìļ´</w>
ê³µìĽĲ
ëĤĺíĥĢëĤĺ</w>
ë³´ê³łìĦľ</w>
eye</w>
íĻĶíķ©
tured</w>
regular</w>
ìħĺìĿĺ</w>
ì¢ħëª©</w>
critical</w>
ëĭ¹ìĭľìĿĺ</w>
íķľê³Ħ
ìĺ¤ìĿĺ</w>
ê°ĢëĬ¥íķĺë©°</w>
ìŀĲìĭłìĿĢ</w>
ëĮĢíĳľë¥¼</w>
ì§ĳìĸ´
theory</w>
ìłľìŀ¬</w>
ì¼ĢìĿ´ë¸Ķ
ì¢ħìĿĢ</w>
íķľìĿĦ</w>
speaking</w>
ëĪĪìľ¼ë¡ľ</w>
ìķĦìĿ´ëĵ¤ìĿĢ</w>
ì¤Ģë¹Ħíķĺê³ł</w>
ëĮĢëĮĢ
ëį°ëĭ¤ê°Ģ</w>
mill
learning</w>
double</w>
ìĹ°ë´ī
lets</w>
unique</w>
sey</w>
êµĲìľ¡ì²ŃìĿĢ</w>
ìĪĺìĪĺë£Į</w>
ë©Ķ</w>
ë³ĳíĸī
ê³¼ìłľ
ëĮĢì¤ĳ</w>
ecting</w>
material</w>
ëĲĺëįĺ</w>
pas
ëĨĴìķĦ</w>
ì¹´ìĻĢ</w>
ëª¨ìĬµìĿ´ëĭ¤</w>
ìħĪ</w>
ë¬¸ìłľìĿĺ</w>
ì·¨ìĨĮ</w>
island</w>
ë¹ĦìķĦ
ëĮĢì¶ľìĿĦ</w>
ëĭĽ
ì°¸ê°Ģ</w>
ìĦ¤ë¹Ħ</w>
ìĿĮìĦ±
íķı
phi
arian</w>
íį¼íı¬ë¨¼
ìĿĺìĭĿ</w>
decades</w>
ì½Ķëĵľ</w>
ìĸĳêµŃ</w>
ìĬ¹ë¶Ģ
ìłĢëłĩê²Į</w>
ìķĦìĿ´ëĬĶ</w>
favorite</w>
ë£ĮëĬĶ</w>
goals</w>
ëģĿëĤĺê³ł</w>
ìłľìĻ¸íķĺë©´</w>
benefits</w>
ì°¨ì§Ģíķĺê³ł</w>
ê¹Ģíı¬
ìĿ´ê²¨
íĻĺìŀĲìĿĺ</w>
ê°Ģëł¤
ëĤĺìĦ°
machine</w>
ê³µëıĻì²´</w>
ìľĦíĹĺíķľ</w>
ê¼¼ê¼¼
customers</w>
blog</w>
ë²ĦíĬ¼
íĻľìķ½ìĿĦ</w>
alize</w>
essed</w>
ìļĶê¸Ī</w>
ë°Ķê°Ģ</w>
ë°©ë¬¸íķľ</w>
knowledge</w>
ê°Ģë³įê²Į</w>
individuals</w>
ë³µìŀ¡íķľ</w>
íĶ¼ìĿĺ
ê³µê³µê¸°ê´Ģ</w>
ìĽĲìĿ¸ìĿ´</w>
íĮĲëĭ¨íĸĪëĭ¤</w>
ìłľìĭľíķľ</w>
ëĤ¨ìĸĳ
ê±´ì§Ģ</w>
åº
ìŀīê¸Ģ
ëª°ëŀĺ</w>
íİĮ
ëĮĢë²ķìĽĲ</w>
íĸĪìľ¼ë©´</w>
ìĺĪìĻ¸
patter
ìĿ´ê²ĥ
ê³ĦìłĪ
íĦ°ë¡ľ</w>
ê°ľìĽĶê°Ħ</w>
ìĭ¤ì¢ħ
ëķħìĿĦ</w>
ìĭ¤ìļ©
ë¨¹ìľ¼ë©´</w>
aci
ëł¨ìĿĺ</w>
íļ¨ê³¼ëĬĶ</w>
ìĹĨëıĦë¡Ŀ</w>
ãģ¯
highly</w>
sla
criminal</w>
ëĭ¬ì½¤íķľ</w>
ìľłëł¥
ì»¨ëĮĢ</w>
options</w>
ya</w>
íĶĮë£¨
íķłëķĮ</w>
ìĨĮê°ľíĸĪëĭ¤</w>
authorities</w>
mitted</w>
ëłĪìĬ¤</w>
ases</w>
ìĭ¬íķĺê²Į</w>
ê·¸ëŁ¬ëĭĪ</w>
ìĬ¤ëıĦ</w>
agree</w>
path</w>
ìŀĦìĥģ
trust</w>
ì§ĢëĬ¥
ê³łê°ĿìĹĲê²Į</w>
fta</w>
shooting</w>
ë½Ģ
ëħ¸ëł¥ìĿ´</w>
ìĸ´ë¨¸ëĭĪê°Ģ</w>
ëŀ©</w>
ìļĶêµ¬</w>
ìĿ´ë¤Ħì§Ħ</w>
ëĬĲëĥĲ
lo</w>
ë°ĿíĺĶ
æĹ¥
ìĿ´íĺ¼
ìĦ¸ìļ°ê³ł</w>
ìĿĦëķĮ</w>
ware</w>
ê¸°ìĤ¬ë¥¼</w>
post
fying</w>
fantas
ãģ¾
ì¶©ê²©ìĿĦ</w>
ìķĦëĭĲ</w>
ê¸°ìĹħìĿ¸</w>
Ĳëĭ¤</w>
tained</w>
ë¹ĦëĶĶìĺ¤</w>
ï¼Į</w>
ì¹ĺíĤ¨
ê¸°íļįìŀ¬
stic
border</w>
íķĺëĵľ
amp</w>
íĥľìĸ´ëĤľ</w>
mechan
ìĹĲìķ¼</w>
ì§Ħëĭ¨</w>
Ã¢
ruby</w>
ë¶ĦìĦĿíķľ</w>
ëł´</w>
ëħ¼ìĿĺë¥¼</w>
walk</w>
æ¬
ê°¯
ãĤĵ
ìłľì¡°ìĹħ</w>
ëĳ¥</w>
alle
ë¶Ħíķł
íģ´ëŁ¬
ìŀĲìĺģìĹħ
íĢĦ
od
ëĭ¨ìĨį
ì¶ĶìłķëĲľëĭ¤</w>
ëĦ¤íĭ°
ining</w>
ì§ĢìĹĪëĭ¤</w>
ì²´ìłľë¥¼</w>
ìĺ¤íİĺ
ëĦĪê°Ģ</w>
lay
ëĤ¨ìŀĲê°Ģ</w>
extrem
ê¸īëĵ±
ab</w>
jack
programs</w>
ition</w>
ê¸Īê°ķ
ìķĪëĲĺ
ìĻĵ
ìĺģëĤ¨
ght
ëĵ¤ìĸ´ìĦľ</w>
ìŀĲì¹
ìķĬìľ¼ë©°</w>
ë§īìķĦ
ìĿ¼ìłķíķľ</w>
ë²łìĬ¤íĬ¸
ìĨĮì¤ĳ
ìķķìĪĺìĪĺ
ìĪĺì¤ĢìĿ´</w>
calling</w>
subscri
ë¸Įë¡ľ
ì¶ķìłľ
ì¶ľìĤ°
ê·ľìłķìĹĲ</w>
ìĭ¤ìŀ¥ìĿĢ</w>
ëłĲ
ìĦłìłķëĲĲëĭ¤</w>
licen
attorney</w>
ìķĪìĤ°
ë¹ĦíĬ¸
ëįĶíķ´</w>
ì¦Į
íĻķìĭ¤íķľ</w>
tech
ëª¨ë¥´ê²łëĭ¤</w>
ìĹĶì§ĢëĭĪ
org</w>
ìĤ¬ìĹħìŀĲ</w>
ìłĦëĿ¼
ìĿ´ëģĮê³ł</w>
ìĺ¤ëŀľë§ĮìĹĲ</w>
ì§Ģëªħ
ëįķìĹĲ</w>
ì¶Ķìłģ
application</w>
compar
ìļ°ëł¤</w>
ëĭ¹ìĭł</w>
ëĵľë¦½ëĭĪëĭ¤</w>
ãĢĤ</w>
ëĭ¤íĸīíŀĪ</w>
ë°©ìĿĢ</w>
continues</w>
ë§Įíģ¼ìĿĢ</w>
ëĤĺëĿ¼ê°Ģ</w>
ìĥģì²ĺë¥¼</w>
ì²Ńì£¼
ë¶ĦìĦĿìĿ´ëĭ¤</w>
notes</w>
íĻĶëĲĺê³ł</w>
íĺĳìłķ</w>
ive</w>
ìķĦë²ł</w>
íĻķìĿ¸íķĺê³ł</w>
ê´ĳíĻĶ
ëıĦìĭľë¡ľ</w>
ë¿ĲìĿ´ìĹĪëĭ¤</w>
winning</w>
ìĨĮê·ľëª¨</w>
ë§ĲìĿ´ìķ¼</w>
ë°Ģë¦¬
êµ¬ìĥģ
ì§ĢëĤ´
ìĹĲëĦĪì§Ģë¥¼</w>
ìĸ´ì°Į
ì¹ľìłĪ
ëĬĲëģ¼ê³ł</w>
dog</w>
ìĿ´íĽĦìĹĲëĬĶ</w>
ìĭ¹
ìĭľìŀ¥ê³¼</w>
ë§ĪìĿĮìĿĺ</w>
ë¡Ģë¥¼</w>
sses</w>
ëł¹ìľ¼ë¡ľ</w>
ë¿Įë¦¬
ìķĪê³¼</w>
ìĥģëĭ¹ìĿĺ</w>
eful</w>
none</w>
ìĥĿê°ģíķł</w>
ì£¼ëª©ìĿĦ</w>
ìĻľê³¡
íĿĳ</w>
ê³ĦíļįìĹĲ</w>
iran</w>
ëª¨ìŀĦ</w>
ì§Ģëª©
ë²ĶìľĦë¥¼</w>
íĽĦë³´ìĿĺ</w>
ëĭĪê¹ĮìļĶ</w>
ì¢ħë¥ĺìĿĺ</w>
ë´¤ëĬĶëį°</w>
ê±¸ëł¤</w>
ëĵ¤ìĸ´ê°Ķ
photos</w>
ê³¼ëıĦíķľ</w>
ìĭĿìĤ¬ë¥¼</w>
ëłĺ
iety</w>
copy
stock</w>
haven</w>
ìĸ»ëĬĶ</w>
spl
íĪ¬ìĪĺ
ìĭľê³µ
ë¬¸íĻĶê°Ģ</w>
chicago</w>
ìĻ¼ìª½</w>
alists</w>
ìĹŃìłĦ
ëĨĴìĿ´ê¸°</w>
íĹĪê°Ģë¥¼</w>
íķ´ê²°</w>
ìĻ¸êµŃìĿ¸
ìŀ¬íĺĦ
ìĨĮëħĢ</w>
ìłľíĴĪìĿ´</w>
ìĭľê¸°ë¥¼</w>
four
ìĿĮìĿĢ</w>
ìŀ¥ìķł</w>
ì£¼ìĿĺìłģ</w>
ë§Īëł¨íķ´</w>
ê»į
ê²ªëĬĶ</w>
ëª¨ë¥¸
ìľłìĹĶ
impres
ìĿ´ìĹĪìĬµëĭĪëĭ¤</w>
ë§Įë§Į
ëĮĢíĨµëł¹ìĿĦ</w>
ì¶ľìĭłìĿĺ</w>
ìŀ¬ìĤ°</w>
íĭ±</w>
ê°Ģíķ´
åĬ
ì£¼ëª©ëĲľëĭ¤</w>
suppl
citizens</w>
.#</w>
ìŀ¬ê±´ì¶ķ</w>
ëĳĲìĹĲ</w>
ç§
ë²ķë¬´ë¶Ģ</w>
êµŃìłľê³µ
ìĦ¸ë¶Ģ
ëıĦìķ½
ìĹħìĿĺ</w>
speak</w>
ê³µìĪĺ
ë¬¼ë¡łìĿ´ê³ł</w>
ìĥĿìĥĿ
ìĦłíĥĿíķł</w>
ìĽĥìĹĪëĭ¤</w>
íĬ¹ë³ĦíŀĪ</w>
larger</w>
ëł¸ìĿĦ</w>
supre
host</w>
lee</w>
ëĲĺìĹĪëĭ¤ëĬĶ</w>
traditional</w>
íĺ¸ë¡ľ</w>
avoid</w>
ìµľìĭł</w>
ìŀĪìĹĪëĭ¤ê³ł</w>
feet</w>
íĬ¸ëŀĻ
gm</w>
ë°ľë§¤</w>
ìĿ¸ëł¥ìĿĦ</w>
ìĪĺìłķ</w>
ëĭ¤ë¦Ħ
hillary</w>
creating</w>
fan</w>
ê´ĢìĹ¬
ìļĶêµ¬ë¥¼</w>
ì§ĳíļĮ</w>
ëĮĢë¹Ħíķ´</w>
íİĦ
brow
ê¸°ëıħêµĲ
ê¸Īìķ¡</w>
íķ´ëĿ¼</w>
ëĤĺëŀĢíŀĪ</w>
ìķĦëĵ¤ìĿ´</w>
ëĨįìĸ´
ìĹŃìĿĺ</w>
ìĭłíĿ¥
demand</w>
reven
memory</w>
ì§ĵëĬĶ</w>
ìķĦìĿ´íı°</w>
ê°ĢìĹĲìĦľ</w>
ìĹ°ìĥģ
ìĿ¼íĻĺìľ¼ë¡ľ</w>
ê¸¸ë¡ľ</w>
êµŃíļĮìĿĺìĽĲ
sau
ë°©íĥĦìĨĮëħĦ
íĤ·
launch</w>
px</w>
ë¬´ìĤ°
ë°ĶëĿ¼ëĬĶ</w>
ëĸłëĤľ</w>
ìŀĲìĭĿ
ìĪĺë¦½</w>
ëĨĴê³ł</w>
peace</w>
ê³µìŀ¥ìĿĦ</w>
ìĿ´ëĵĿ
ìĿ¸êµ¬ê°Ģ</w>
ê°Īëĵ±</w>
figu
complex</w>
ì£¼ê³ł
ë¬´ìĦŃ
ì§ĲìĿĦ</w>
ìª½ìĿĦ</w>
ìĹ¬ìĦ±ìĿ´</w>
strategy</w>
ê¸°ì¤ĢìĿ´</w>
episode</w>
íĸīìĤ¬ê°Ģ</w>
ë°°ë¡ľ</w>
ìĭłê³¼</w>
ìĨľ
ìŀĲë¡ľìĦľ</w>
noted</w>
ìľĪ</w>
ìķĮë¦¬ëĬĶ</w>
ìĭłë¢°ë¥¼</w>
quali
iraq</w>
ëĿ¼ìĿ´íĬ¸</w>
ãĤĮ
ino</w>
íĻķìłķ</w>
ìĭ¤ë¦¬
io</w>
ì§ĢìĪĺ
ëķĮë¬¸ìĿ´ìĹĪëĭ¤</w>
professor</w>
ëħ¸ìĤ¬
ì§Ļ
íĽĦë³´ìŀĲ</w>
drop</w>
ìĪĻë°ķ
ìłģíķ©íķľ</w>
ìĦłë³´ìĿ¸</w>
ëıĦìĭ¬
ë¯¸íĦ°</w>
</</w>
ê·ľìłķìĿĦ</w>
ê¸°ê´Ģê³¼</w>
ëħ¸ëıĻìŀĲ</w>
ì£¼ìŀ¥ìĿ´</w>
ìŀħìĽĲ
ìĻ¸êµĲ</w>
ëªħìĹĲìĦľ</w>
jun
bow
aware</w>
ìķĦë¹ł</w>
platform</w>
ìłķìĿ´ëĭ¤</w>
ìŀĲìĭł</w>
ì±Ħë¥¼</w>
itely</w>
ì£¼ìłľ
effective</w>
ê°ĳìŀĳ
íĺķìĭĿ
ì±ĦìĽĮ
ë¶Ģìŀ¥</w>
haw
oned</w>
ì£¼ì°¨</w>
marke
ìķłì´ĪìĹĲ</w>
ê²ĢìĿĦ</w>
ë©Ķê°Ģ
ê·¸ëĭ¤
ê±´ìĿĺ
ëĮĢë¶ģ</w>
ì¹¨ë¬µ
ìĸ´ë¨¸ëĭĪëĬĶ</w>
ëĬĶê±´</w>
ìłķìĽĲ</w>
ìĹ°ìĦ¤
nine</w>
ìĹŃíķł</w>
ë°ĶëŀĮì§ģ
ê±°ë¦¬ìĹĲ</w>
ìŀħìŀ¥ìĹĲìĦľëĬĶ</w>
êµ¬ìĨį</w>
ë°ľêµ´</w>
ëŁīìľ¼ë¡ľ</w>
ëª¨ë¡ľ</w>
ìĿ¸ê°ĦìĿĢ</w>
íķŃëª©
ìŀĪìĹĪê¸°</w>
íĬ¸ëŀĻ</w>
ëĺĳê°ĻìĿ´</w>
ë³¸ëŀĺ</w>
íļįëĵĿ</w>
ë¬´ëįĶ
ìķĦìĿ´ëĵ¤ìĿĺ</w>
íı¬ìĬ¤íĬ¸
ìĦ¸ìĥģ
ception</w>
ëĦĮ
ê·¸ë£¹ìĿ´</w>
ëĤ´ìħĶ
ìĦľë¶Ģ
ë¯¸ëĭĪ</w>
ìĥĪìłķì¹ĺ
íĶ¼íķł</w>
ìŀĲë©´</w>
bush</w>
ìłķê·ľ</w>
ë¶Ħì¯¤</w>
ëĨĴìĿ¼</w>
roll</w>
ìĺ¤ë¥¸ìª½</w>
íĮĮíģ¬
ìŀĲì²´ëĬĶ</w>
ìĹ°íľ´</w>
íı¬ëŁ¼
great
ê¸°ìģĺ
ìºĦ
ëıĻëĤ¨
ë©ĶëĶĶ
ê¹Ģìĥģ
íĮĮìĿĺ</w>
ck
ìĦľìĹĲìĦľ</w>
ìĥģê´ĢìĹĨìĿ´</w>
zone</w>
ë²ĦìłĦ</w>
ëıĻìĺģìĥģ</w>
ìĿĮìĦ±</w>
ëª©ìłģ</w>
íĻĺê²½ìĿ´</w>
ìľłìĿĺ
cum
ëĭ´ìķĦ</w>
íķĺíķĺ
ìĥĿìĿĺ</w>
ì¡´ìŀ¬</w>
closed</w>
ìĿ´ë²ĪìĿ´</w>
employees</w>
ìľłìĹĶ</w>
ëĭ´ìľ¼ë¡ľ</w>
ìķĦìĭľìķĪ
íģ´ëŀĺìĭĿ</w>
íķĺëĤĺëĭĺìĿĺ</w>
nego
ìĬ¹ìļ©
reached</w>
ìĽĢì§ģìĿ´ëĬĶ</w>
travel</w>
ìĿĺìŀ¥</w>
íĨµìĥģ</w>
íĴĪìĿĢ</w>
ìĹĨëįĺ</w>
nations</w>
industri
ê¸ĢëĿ¼
ì§ĦíĸīëĲĺê³ł</w>
ê¸Īìķ¡ìĿĦ</w>
beat</w>
ìĿĺíķĻ
ë¹ĦìĹĲ</w>
baby</w>
ëĤĺê°Ģê²łëĭ¤</w>
íĸīìĤ¬ìĹĲ</w>
ìĪĺíķĻ</w>
ìĬ¤íĨłë¦¬
ìĿ½ê³ł</w>
mm
effici
ìĺģìĹŃ</w>
ë£¸</w>
values</w>
ì°¨ë³ĦíĻĶëĲľ</w>
weal
ëĵ±íĮĲ
ìĭłíķľ</w>
íĮĮë¥¼</w>
ì¦Ĳê¸°
ìļ´ìĺģìĹĲ</w>
ëŁ½ê²Į</w>
ëĤĺíĥĢëĤľëĭ¤</w>
ìŀ¥ë©´ìĿĦ</w>
mostly</w>
ê·¸ë¦¬ìĬ¤</w>
ìĺģíĸ¥ìĿ´</w>
ì§Ħìĭ¬ìľ¼ë¡ľ</w>
ëĤ¨ëħĢ</w>
íķ´ì¤Ģ</w>
ëıĦë¯¼
ìĿ´ëĤ´ìĹĲ</w>
plays</w>
soldi
ë¨¹ìľ¼
jud
knows</w>
ìĭĿë¯¼
ëĤĺìĿĢ</w>
ì°¸ìĹ¬íĸĪëĭ¤</w>
ìĺ¤ëĬĺëĤł</w>
ê¸°íĥĢ
aren
seemed</w>
hit
ëģĿ</w>
negoti
acting</w>
íĴĪëª©
ìĨĮìĨ¡</w>
íķĺê³łëıĦ</w>
operations</w>
íĺĦìĥģìĿĦ</w>
æĸĩ
ìĨĮíıŃ</w>
íķĺì§ĢëıĦ</w>
ìłĲíı¬
ë§ĮíĻĶ
íķĻìĥĿìĿĢ</w>
ëĤĺê°Ķ
ìĺģìĹŃìĿĦ</w>
ìĥģëĮĢê°Ģ</w>
ëĭ¬ëŁ¬ìĹĲ</w>
íĺķìĦ±ëĲľ</w>
pop</w>
ê²½ìļ°ìĹĲëıĦ</w>
ë°Ģëł¤
miles</w>
ast
ìĪĻíķľ</w>
ìĿ¸ìłķ</w>
fund</w>
ìķŀìĦł</w>
ëĲĺìĹĪìĬµëĭĪëĭ¤</w>
íĽĦìĨį
indeed</w>
ìĿĺìĻ¸ë¡ľ</w>
ê·ľìłķíķĺê³ł</w>
caused</w>
arms</w>
ëķĮë³´ëĭ¤</w>
bus</w>
ìĨĮë©¸
ä¹ĭ
ê°ľíĨµ
íĺĦíĻ©</w>
ëªħíĴĪ</w>
mir
ì¦Ĳê±°ìļ´</w>
ëĵľëŀĺê³¤</w>
ë³¸ë¶ĢëĬĶ</w>
ìļ°ë¦¬ëĤĺëĿ¼ìĿĺ</w>
íĨµíķ©ëĭ¹</w>
ëª¨ëį¸ë¡ľ</w>
ìĿ´ìĺģ
ê·ľìłķ</w>
ê¸°ìĿ¸</w>
threat
gic</w>
íĻķìĿ¸íĸĪëĭ¤</w>
ê²½ì°°ì²Ń</w>
cross</w>
ë°¸ëŁ°
florida</w>
method</w>
ìŀĲìłľ
produced</w>
cars</w>
ë¹ħ</w>
ëŀĢìĿĦ</w>
ìłĦìĪĺ
íŀĪíĬ¸
ê³µê°ĦìĿ´</w>
therefore</w>
ê°ĩ
occur
æĹ¥</w>
ê¸°ë¶Ģ</w>
appear
ê³¨ëª©
ìĥģìĺģ
íĮĶìĿĦ</w>
ëª»íķĺë©´</w>
ìĿĺíĺ¹ìĿ´</w>
edge</w>
mv
ëľ°
ìĨĮìĪĺ
raise</w>
kë¦¬ê·¸</w>
ì°¢
gate</w>
prices</w>
ì¡°ìļ©íŀĪ</w>
journal</w>
kel
ì¤ĳê°ĦìĹĲ</w>
bran
ä¸Ń</w>
mist
ìĦ¤ìłķ</w>
ìĺ¨ëĿ¼ìĿ¸
íĮĲë§¤íķĺëĬĶ</w>
ì¦Ŀê¶ĮìĿĢ</w>
ìĭľë§Ī</w>
master</w>
ëĤ´ë¹Ħ
mod
ëĭĪìķĦ
leaving</w>
deser
ë³´ê³łìĦľë¥¼</w>
íĺķìłľ
ìĬ¹ê°Ŀ
íķľê³Ħê°Ģ</w>
bridge</w>
ãħĭãĦ±
ì§ĢìłģìĿ´ëĭ¤</w>
ì½ĶìĬ¤ëĭ¥</w>
ë°©ìĭĿìĿ´</w>
ê°ľê·¸
ìĽ¹íĪ
investment</w>
íĥĢìĿ´ìĸ´
ê²ĢíĨłíķĺê³ł</w>
ìĪĺìĬµ
íĬ¹ìĦ±</w>
çİ
ê°Ħëĭ¤ëĬĶ</w>
ê°ĲëıĦ</w>
operation</w>
ìĭŃìŀĲ
france</w>
ìĮįìļ©
television</w>
ê°ľìĹĲ</w>
íĪ¬ìŀĲì¦Ŀê¶Į</w>
ëĤĺìĺ¨
íķ´ë°©
ëª¨íĦ°
ì¡°ìŀĳ</w>
ëĵ¤ìĸ´ìĺ¨</w>
ëĭ¨ë°±
ìľłìłĦ
ìĬ¤íİĻ
ìĺ¤íĶĦëĿ¼ìĿ¸</w>
england</w>
ê³łìĻĢ</w>
ìĭĿë¬¼
ë³µìĪĺ
ê¸°ìĪłìĿĺ</w>
aller</w>
ìĻķìĿĢ</w>
ê±°ëĴĢëĭ¤</w>
stood</w>
ë©°ì¹ł</w>
ìŀĲëıĻìľ¼ë¡ľ</w>
ë§Īì¹¨</w>
ëĮĢíķľë¯¼êµŃìĿĺ</w>
ìķĦëĤ´</w>
ìĹĲëĶĶ
ê³µê°Ħìľ¼ë¡ľ</w>
ìķĺëĬĶëį°</w>
ì¤ĳêµŃê³¼</w>
ìķĦìĿ´ëĵ¤ìĿĦ</w>
ìŀ¥ìķħ
ìĹ½</w>
íĶĦëŀĢ
kept</w>
íĻĺê²½ìĹĲ</w>
ì¡°ëªħ
ë§ĪìĿ¸
israel
ëıĻë£Į</w>
ë¹Ħë¦¬</w>
ership</w>
ìĸµìļ¸
opening</w>
ìĤ¬ìŀ¥ìĿ´</w>
ë¶Ģì°©
íļĮê´Ģ</w>
íĮĲíĥĢ
ì¾Įíķľ</w>
program
ëĨĶ
ìŀ¥ë¹Ħë¥¼</w>
íĪ¬ë¥¼</w>
ë²Įìĸ´ì§Ħ</w>
íĺĦì§ģ</w>
ìļ©íĴĪ</w>
ê¹Ģë¯¼
ëį´</w>
ë°Ķë¡ľ
ìĹİ
ìĿ¼ë³¸ìĹĲìĦľ</w>
ìķĪìĹĲëĬĶ</w>
ìĦ±ë¦½
gative</w>
ì§ĢìĽĲìĹĲ</w>
íĳ¸ë¥´
]]</w>
íķ©ë¦¬ìłģìĿ¸</w>
çķ
ê´ĢëĤ´</w>
ë¬´ëł¥
ìķĦíĶĪ</w>
ì¶ľë²Ķ</w>
thank</w>
ìłľì¶ľíķľ</w>
ìĸ´ì¨Įëĵł</w>
ìĸ½
íĮĮë¦¬</w>
ìĿ´ë¥¸</w>
ê±°ëĿ¼</w>
ëĮĢìĻ¸
ìĹĨìĸ´ìļĶ</w>
enfor
cia</w>
ë²ķìķĪ</w>
ì½ĶëĬĶ</w>
ëĤĺìĦľëĬĶ</w>
íĮ¨íĤ¤ì§Ģ</w>
scientists</w>
íĤ¥
spend</w>
ë¶Ģì²ĺ</w>
ë¶Īê°ĢëĬ¥íķľ</w>
ãĤĴ
ê°Ĳì¶Ķ
ì²ľìĽĲ</w>
ëĴ·ë°Ľì¹¨
ì§ĵìĿĦ</w>
mike</w>
ì¶Ķêµ¬íķĺëĬĶ</w>
íĻĶíıĲ
ê±´ê°ķìĿĦ</w>
eli
lun
íķľëıĻìķĪ</w>
ìĿ¼ìĿ´ìĹĪëĭ¤</w>
ìłĦì²´ìłģìľ¼ë¡ľ</w>
ìĸ´ìļ°ëŁ¬
ëĮĢíķĻìĽĲ</w>
ìĨĮíĶĦíĬ¸ìĽ¨ìĸ´</w>
ê¶Įë¦¬ë¥¼</w>
ìłķë§Ĳë¡ľ</w>
unit</w>
íĻķëĮĢíķ´</w>
ìĦłìĥĿëĭĺ</w>
ìķ¼ëĭ¹</w>
ìĺ¤íĶĦ</w>
íĽĦë°°
ç´
ìĿ´ì§ĳ
ê¼½ìķĺëĭ¤</w>
ì¤ĳê²¬
ì¡°íķŃ
ê¼½íŀĪëĬĶ</w>
ìĦłìłĦ
ìľĦìĽĲíļĮìĹĲ</w>
ìĦľìļ¸ìĿĺ</w>
ìĦ±ê³µìĿĦ</w>
íİĺìĿ´ìĬ¤ë¶ģ</w>
ë§Īì°¬ê°Ģì§Ģëĭ¤</w>
woo
ê³łìĬ¤
model
ì¤ĳìķĻ</w>
ëĤ¨ê¸´</w>
ìŀĳê°ĢëĬĶ</w>
ë§¤ë§¤</w>
bio
ê³µìŀ¥
ìĥģìŀ¥</w>
êµĲë¥ĺ</w>
ê°Īëĵ±ìĿ´</w>
ì»¨ìħī
math</w>
ë¬´ê¸°ë¥¼</w>
ìĤ°ìĹħìĿĦ</w>
ë°ĿìĿĢ</w>
ìĥĿê¸°ëĬĶ</w>
ë§¤ìĽĶ</w>
appropri
ë°¤ìĹĲ</w>
ëĤ¨ëıĦ</w>
ëŃĲê°Ģ</w>
spring</w>
ì·¨íķľ</w>
ìĦłìĸ¸</w>
charges</w>
ìĥīìĿĺ</w>
ìĸ´ìĬ¤</w>
ìłĢê¸°</w>
ìĨĮíĨµ</w>
spr
ìĹŃëŁī</w>
ëĿ¼ìĻĢ</w>
ë³ĦëıĦ</w>
ìĦ±ìļ°</w>
ona</w>
íĸīìľĦìĹĲ</w>
ìłķìĥģìłģìĿ¸</w>
girls</w>
incident</w>
ìį°
prison</w>
sold</w>
ìĥģìĬ¹ìĦ¸ë¥¼</w>
ê¹Ģì§Ħ
íĮĲë§¤ë¥¼</w>
ìłĦìĨ¡
ë¹ĦíĮĲìĿĦ</w>
ìĿ¼ë¶ĢëŁ¬</w>
ds
ìĥĿíĻľìĹĲ</w>
ìĪľìĿ´ìĿµ
ìĨįíŀĪ</w>
ê°ģìŀĲ</w>
patients</w>
ìłĦìĽĲ</w>
ìķĦìĽĥ</w>
ìĿ´ë¤Ħì§Ī</w>
ìŀĪìĹĪëĭ¤ëĬĶ</w>
ë§Īëł¨ëĲĲëĭ¤</w>
ament</w>
choose</w>
ë°°ì¹ĺ</w>
ê³łëĮĢ</w>
names</w>
íĪ¬ìŀĲê°Ģ</w>
ëłĪìĿ´ìħĺ</w>
ìĿ´ê¸°ìĹĲ</w>
?)</w>
ëĤĺìĺ¤ë©´</w>
ìĭłìĿ¸</w>
íĺķìĤ¬</w>
lose</w>
actual</w>
ê·¼ëĮĢ
ë§¤ìĪĺ</w>
íģ´ëĿ¼
gay</w>
ìķłíĶĮ</w>
íķĦìļĶë¡ľ</w>
understanding</w>
feeling</w>
ë¶ĦìĦĿìĿĦ</w>
responsible</w>
ìĹ¬ê°ľ</w>
ìķ¤</w>
spot</w>
.....</w>
ìĸ´ë§Ī
ì¤ĳêµŃìĹĲìĦľ</w>
ìĭľëĭ¬
ì²ľë§Į</w>
ë¬´ìĹŃ</w>
ëħ¸íĬ¸
íķĦìĪĺ</w>
ê³łìľĦ</w>
temper
æµ
íĿł
ë¶Ģë¥¸ëĭ¤</w>
íķľìĿĢ</w>
ëĭ¤ìĿĮëĤł</w>
íĶ¼ê³¤
nes
ê¸°ëĭ¤ë¦¬
íĻĶëĲł</w>
ìĿ¸ìĥĿ</w>
fbi</w>
ë³´ìĬ¤</w>
ê·ľìłľë¥¼</w>
ìĹ¬íĮĮë¡ľ</w>
íķĻìĥĿìĿĺ</w>
ì¸łë¥¼</w>
advoc
ìĤ¬íĥľë¥¼</w>
íİ¸ì§Ģë¥¼</w>
âĳ£</w>
ê¸ĪìĨį</w>
ìłĢìĨĮëĵĿ
ìĹħì²´ìĹĲ</w>
weekend</w>
gdp</w>
íĬ¸ëŀľ
ëĤĺíĥĢëĤ¬
íĨµíĻĶ</w>
íĻĶíķł</w>
ìļ°ìĬ¤</w>
ëĤĺíĥĢëĤ´ëĬĶ</w>
db
ê°Ĳìĥģ
ê³µëª¨</w>
ìŀ¬ìĥĿ</w>
etc</w>
ì²łê°ķ
ëłĽ</w>
ìĶ¨ìĹĲ</w>
ëĭ¤ë¦¬
ëĭ¤íĪ
refu
ëĬĳ
ãģĨ
nor</w>
ìĿ¼ìĿ¸</w>
ìĹĨëĭ¤ë©´</w>
ì¶Ķì§Ħíķľëĭ¤</w>
residents</w>
ëĭ¹êµŃìĿ´</w>
ëĲĺê¸¸</w>
ëĤ©íĴĪ
ìĹ°ëĭ¤</w>
ê°ľëĬĶ</w>
erc
ìĬ¤íħ
nation
request</w>
worl
ìľłì¹ĺìĽĲ</w>
nc</w>
ìĭ¤ìĭľíķĺê³ł</w>
!!!!
ìĿ´ìľłëĭ¤</w>
andro
hall</w>
çŁ
íķľê°ķ
concerns</w>
ë¬¸ìľ¼ë¡ľ</w>
ë°Ľìľ¼ë©´</w>
ëª¨ë°ĶìĿ¼
enly</w>
ì¹´ëĵľëĬĶ</w>
ê²©ìľ¼ë¡ľ</w>
ëª©ìĨĮë¦¬ë¡ľ</w>
ëŁ°ëįĺ
ë¹ĦëĮĢë©´</w>
ìŀŃ
ì§Ģì¼
ãģĮ
ì´Ŀë¦¬ê°Ģ</w>
ë¶ģêµ¬</w>
massive</w>
ï¼ľ</w>
ê°Ħëĭ¨íķľ</w>
íķ´ëĭ¬ëĿ¼</w>
ê¶Įìľ¼ë¡ľ</w>
ìĸ´ëłµê²Į</w>
ìłķìĭłìĿ´</w>
ìĤ¬ë¦½
ë°©ìĨ¡ìĹĲìĦľ</w>
bottom</w>
ì¶Ķì¸¡
ê±´ìĦ¤ìĿĢ</w>
opposition</w>
ìĪĺíĺ¸
ìĪĺìĹ¬
draft</w>
ìĦłë°ķ</w>
ëĳĺëŁ¬</w>
construction</w>
deep
íĮĮìĽĮ</w>
institute</w>
policies</w>
ëļĿ</w>
ìµľëĭ¤</w>
bay</w>
êµŃìłģ</w>
ì£¼ëĭĪ
ê²½ê¸°ëĬĶ</w>
ë¬´ì²Ļ</w>
ì§ģìłĳìłģìĿ¸</w>
ëĭ¬íĸĪëĭ¤</w>
ê±¸ìĸ´</w>
brit
ë¯¸êµŃìĹĲ</w>
ìŀĳíĴĪìĿĢ</w>
push</w>
ìĦłìĪĺëĵ¤ìĿĺ</w>
ê·¹ìŀ¥</w>
ìĭ¶ì§Ģ</w>
ìĭľìŀĳíķĺëĬĶ</w>
ìĹħê³ĦëĬĶ</w>
heavy</w>
ë°©ë©´</w>
ë³´ëĭĪê¹Į</w>
ëĵ¤ìĹ¬ëĭ¤
mid</w>
produce</w>
ë¹Ħê³ł</w>
íĤ¤ë¥¼</w>
ìŀĳìĿĦ</w>
ëģĿìľ¼ë¡ľ</w>
ìĤ¬ìĹħê³¼</w>
happens</w>
ìĥģë¬´
ì»¤íĶĮ
ë¶Ģë¶Ģ</w>
ìĪĺìĭŃ</w>
íĻĺìŀĲ
íļĮìĤ¬ìĿ¸</w>
aming</w>
ê³µìłķ</w>
çī
ìķĪë³´</w>
ìĹħì²´ëĬĶ</w>
íĺ¼íķ©
dddd
enter</w>
ëĭ¨ìĹĲìĦľ</w>
ë§Įíķĺëĭ¤</w>
ëĭ¤ì±Ħ
ê³Ħì¸µ</w>
represent
ê·¸ëŁ¬ëĭ¤</w>
other
ìµľìłģ
íĨłìļĶ
ë¬´ìĹĩìĿ¸ê°Ģ</w>
ë¹Ħë¡ľìĨĮ</w>
butt
ìĻ¸ìĹĲëĬĶ</w>
string</w>
ë¶ĦìĤ°
ìĬ¤íĤ¤</w>
ìĭľìłĲìĹĲìĦľ</w>
ê¹Ģìļ©
ìĹ°ê²°</w>
íļĮìŀ¥ìĿĦ</w>
versi
ê°Ģë§ĮíŀĪ</w>
åľĭ
ìĻĶëĬĶëį°</w>
ìĭ¤ìĭľíķľëĭ¤</w>
ê°Ģì¡±ìĿĺ</w>
íĳ¸ë¥¸</w>
bes</w>
ured</w>
ì§ĢìĿĢ</w>
ìķ½ìĨįìĿĦ</w>
ìĽĮëĵľ</w>
ë®¬
ì»¨</w>
ãĤĤ
ì£¼ë³ĢìĿĺ</w>
íģĲ</w>
Ð°
ìĻ¸ë©´
ìĭľìĬ¤íħľìĿ´</w>
oppon
ìĪľìĭĿ
ë½Ĳ
ë±ħíģ¬</w>
ìĿĮì£¼
ì§ĢëĤĺì§Ģ</w>
ëĭ¹ìĹ°íķľ</w>
ë§īëĮĢíķľ</w>
íĮĲê²°ìĿĦ</w>
ë¬¸ìłľìĻĢ</w>
camera</w>
aries</w>
hundre
ìĬ¤íİĺìħľ</w>
reti
ë¶Ģìĥģ</w>
christian</w>
ë°ĢíŀĪ</w>
ê°Ĳìľ¼ë¡ľ</w>
è»
ìĺģìĽħ</w>
ìłľëıĦê°Ģ</w>
emp
ìĿ¸ìĽĲ</w>
íĳľê¸°
ìĦ±ëĬ¥ìĿĦ</w>
ìŀĲì±ħ
ëĪĦêµ¬ëıĦ</w>
ìŀĳì¤ĳ</w>
ì½ĶìĿĺ</w>
ì§Ģìĸ´
robert</w>
ìŀĪìĹĪìľ¼ëĤĺ</w>
drag
ìĭĿìĹĲìĦľ</w>
íıīìĨĮ
ì§ĢíĤ¤ëĬĶ</w>
ê²Ģì¶ľ
íķĻìĥĿìĿĦ</w>
palest
ìĹ¬ìľł
ìĦ¸ëł¥
ìĿ¼ëŁ¬</w>
ìĭľê°ĦìĿĺ</w>
ìĦľìĦľ
sus</w>
ìķĦëŀĺë¡ľ</w>
ì§ĦíĸīëĲł</w>
íĸīìľĦê°Ģ</w>
ìĥģìĨį
dden</w>
##
print</w>
pair</w>
agreed</w>
ìĿ´ìłģ
íĶĮëłī
ê¹Ģê²½
ê¹Ģê¸°
ìĿ´ìĪĺ
ëĬĲëĿ¼</w>
ìĸ»ìĸ´</w>
íķĻìĥĿëĵ¤ìĿĦ</w>
íķĻêµĲê°Ģ</w>
cin
ìĹ°ìĪĺ
ìĨĮìĨįìĤ¬</w>
åĳ
ê¸°ìĪłê³¼</w>
íİĺìĿ´ìĬ¤</w>
ëĮĢë¶ģ
ë§Įëĭ¤</w>
ëª¨ë¥´ê²ł
ë§¤ì¹ĺ
ìĭľìĿĺíļĮ</w>
íĨłë¥¼</w>
ìĿ´ë°ĸìĹĲ</w>
ë¨¸ìĬ¤</w>
ì§ĢëĿ¼</w>
ìłĦëŀµìłģ</w>
ì»¨ìĦ¤íĮħ</w>
ì§Ģë¶Ħ
ê±°ëŀĺê°Ģ</w>
ì¡°ì§ģìĿĦ</w>
ml
male</w>
ë°ĶëĿ¼ë³´ëĬĶ</w>
ì»¬ëłī
ì§ĢìĭĿìĿĦ</w>
ëĮĢíķŃ
ë¡łìĿĺ</w>
ìĦ¸ê³Ħìłģ</w>
ado</w>
ëª©ê²©
ìĬ¹ìĿ¸ìĿĦ</w>
mes</w>
kia</w>
ê±°ê¸°ìĦľ</w>
dream</w>
âĶĢâĶĢ
íŀĻ
ë§¤ì²´</w>
ì¹´ìĿĺ</w>
ìŀ¥ìĨĮ</w>
marriage</w>
âĺĨ</w>
ëĪĪì¹ĺ
ëħ¸ë¬´íĺĦ</w>
ìķĪíĥĢê¹Ŀ
clear
files</w>
vehicle</w>
album</w>
trial</w>
ãİı</w>
ìĿĺì§Ģ
ê·¹ìŀ¥
ëĨĴìĿ´
ìĿ¸ëĵ¤</w>
íĮ¨ë¡ľ</w>
ì£¼ë¯¼ëĵ¤ìĿĢ</w>
ìĽħìĽħ</w>
ëıĮìķĦìĻĶëĭ¤</w>
dddddd</w>
ensure</w>
ëĨĪ</w>
ë§¤ì¶ľìķ¡</w>
ê²ĥìĿ¼ê¹Į</w>
ë¬´íļ¨
ëĬĺìĸ´</w>
êµ¬ê¸Ģ</w>
ìĽĲì²ľ
ìłĲëł¹
íĶĦë¡ľìķ¼êµ¬</w>
ì£¼íĥĿìĿĦ</w>
ì°įìĿĢ</w>
íķ´ìķ¼ë§Į</w>
íĻĶìŀ¬
íı¬ê´Ħ
ìłľìŀ¬
ìľłíĬľë¸Į
íĺ¸ìĻĢ</w>
ëįĶìļ±ìĿ´</w>
comman
ê°ĻìĬµëĭĪëĭ¤</w>
ìłĦë°ĺìĹĲ</w>
ë°©ìĭĿìĿĺ</w>
implem
demonstr
ìķĦìĿ´ì½ĺ</w>
inging</w>
ê°ĢëĬ¥íķĺê²Į</w>
ëĦ£ìĿĢ</w>
ìĿ¸ê¶Į</w>
ê·¸ëĵ¤</w>
parties</w>
íĥľìĸĳê´ĳ</w>
ì½Ķê°Ģ</w>
ìŀĥê³ł</w>
ë¶Ģìĭ¤
ìłľíĴĪìĹĲ</w>
ìĸ¸ê¸īíĸĪëĭ¤</w>
ìĤ¼êµŃ
ìĿ¼ë³¸ìĿ´</w>
devices</w>
ìłĦìĽĲ
andre
hundreds</w>
ì°¸ìĦĿíķ´</w>
ëĿ¼ìĿ¸ìĿĦ</w>
ìĤ´ê¸°</w>
ãħħ
ëĦ¬
leng
ëĮĢê°ķ</w>
ìŀĲìľł</w>
ur</w>
ìŀĲìĭłê³¼</w>
ë°Ķëĭ·
ìĿ¸íķĺ</w>
íķĺìĿ´ë¸Įë¦¬
ë²łíĬ¸ëĤ¨
ë§Īì¼ĵ</w>
asking</w>
ì°¨ê²Į</w>
ê¸°ì¡´ìĹĲ</w>
generally</w>
ìĦ¸íĬ¸
ì°¨ë¡ĢìĹĲ</w>
ìĥģëĮĢë¥¼</w>
ì²ĺë¶ĦìĿĦ</w>
ìłĦë°ĺ</w>
ìļ©ìĿ´</w>
ìĺ¤ì¼Ģ
ìĽĲìłķ
ìľłë¦¬íķľ</w>
ìķĪìĸĳ
íļĮìĪĺ
ìĤ¬ëª¨
ì°¨íĬ¸</w>
íľ´ê°Ģ</w>
ê°Ģìļ´</w>
ê³µìĺģ
ìĥĿëªħìĿĦ</w>
íķĻìĥĿëĵ¤ìĹĲê²Į</w>
ëıĦìĭľë¥¼</w>
assum
count</w>
ë¶ĦìĦĿìĿ´</w>
ì¶Ķì²¨
ë¹ĦìĬ¤</w>
ëıĮìķĦìĺ¤
ìĬ¹ë¶Ģë¥¼</w>
ë¯¸ìĨĮë¥¼</w>
lgìľł
ë°°ìĨ¡
ì½ĶìĬ¤</w>
ëģĿëĤ´</w>
ëħ¼ìĿĺê°Ģ</w>
ì´ī</w>
ë¬´ì§Ģ
require</w>
íİĳ
íı¬íķŃ</w>
ìĵ´ëĭ¤</w>
ìĻĦìłĦíķľ</w>
ìĭľê·¸
íķ©ë³ĳ</w>
protection</w>
ëıħìĦľ
ì¤į
ë¶Īë§ĮìĿĦ</w>
enting</w>
ê²½ë§¤
ë¡ľìĬ¤</w>
red
respect</w>
ê°Ģì¡±ê³¼</w>
êµµ
ìĥģíķľ
ìŀ¡ì§Ģ</w>
ìĦ±ì·¨
johnson</w>
íĴĭ
ë°ľíļ¨
êµĲìľ¡ê³¼</w>
ê´Ģê´ĳê°Ŀ</w>
ì°¨ìłģìľ¼ë¡ľ</w>
ae</w>
ìĸ´ëĵľ
ëĳĲëĵľëŁ¬
ê¸°ë¡Ŀíķĺê³ł</w>
ê¸Īìľµê°Ĳëıħ
revealed</w>
specific
defe
pg</w>
cate
ìľĦë¡ľ
ìļĶìĭľ
nfl</w>
ìĭłì²´</w>
ìłĲìĪĺ</w>
íķŃìĨĮ
ìłľìķĪíĸĪëĭ¤</w>
ê°Ħì£¼
ìĪĺìĿµ</w>
ìĨĲìĭ¤ìĿĦ</w>
labor</w>
íĺĪ</w>
ì§Ĳìŀĳ
çĪ
ìłķë¹Ħ</w>
ìĤ¬ìļ©ëĲĺëĬĶ</w>
ëĬĺìĸ´ëĤ¬ëĭ¤</w>
cool</w>
influence</w>
ìļ©ìĤ°
ez</w>
ë¬¸íĻĶìłģ</w>
ë³´ë¬¼
fair
cg
copyright</w>
ìĦłìĥĿìĿĺ</w>
ìĤ´ìķĦê°ĢëĬĶ</w>
íķĺìĸĢ</w>
ng</w>
íķĺê²Į
worse</w>
ìŀ¡ê¸°</w>
ìĦłë³´ìĿ¼</w>
ê°¤ëŁŃìĭľ</w>
ìŀĩëĬĶ</w>
confirmed</w>
ìĦ±ê²©ìĿĦ</w>
ìłķëıĦë¥¼</w>
ì³Ĳìķ¼</w>
ë¦¬ëįĶìĭŃ
ëª©ìłģìĿĦ</w>
deman
íķĺìĿ´ëĭī
íĿ©
íİ¸ìŀħ
ë§Īìļ´
ë§ĲëĿ¼</w>
íĴįìĿĦ</w>
ë©´ìĿĢ</w>
chris</w>
grand</w>
ì¶Ķëª¨
ê°ľíİ¸</w>
íĳľìłķìĿĦ</w>
ìłľìķķ
pool</w>
ìŀ£
ì°¸ìľ¼ë¡ľ</w>
ëĿ¼ë©´ìĦľ</w>
professional</w>
ìłģëĭ¹
ron</w>
hoo
ì£¼ìľł
offered</w>
traf
preci
ìĭľìłķ
ëŀįëĭĪëĭ¤</w>
ì¡°ì¹ĺê°Ģ</w>
ëª¨ë¥´ê²Į</w>
ìłĪë¡ľ</w>
highest</w>
christ
ãģĵ
ìĺģíĻĶìĿĺ</w>
ìĭłëĿ¼
ê·¼ê±°ë¡ľ</w>
fish</w>
tric</w>
ìĭ¸ìĽĢìĿĦ</w>
ìĨįìĿ´</w>
íĭĢë¦¼
ëıķëĬĶ</w>
ìŀ¥ìĨĮ
ìĪľìĭĿê°ĦìĹĲ</w>
ì¤ĦìĿ´</w>
íĥķíĽĦ
íĻĶìĿ´íĬ¸</w>
ìĹ´ìĿ´</w>
íĻķìĭł
ìĤ¬íļĮëĬĶ</w>
ë³ĳìĽĲìľ¼ë¡ľ</w>
inion</w>
íİĺìĬ¤íĭ°ë²Į</w>
ë¡ľë§Ī
ìĦ¸ëł¨
juana</w>
ëĴ¤ëĬ¦ê²Į</w>
ìĸ¸ê¸īíķľ</w>
ìĹ¬ë¶ĢìĹĲ</w>
ìĺ¤íķ´
ìĪĺë°±
ê·¼ìłĳ
ìļ°ëł¤ë¥¼</w>
ìŀĳíĴĪìĿ´</w>
íĥĿìĭľ
tedly</w>
íĥĦíĥĦ
ìĺĢëĭ¤ê³ł</w>
ìĬ¹ê°ķ
counter</w>
chain</w>
ìļ´ìĺģíķľëĭ¤</w>
ê¸°ìĪĻ
aper</w>
ë¥´ê¸°</w>
accur
ë°ĶëĢĮìĹĪëĭ¤</w>
Ã£Ã¢
bo</w>
ë¹Ħìĭ¸
ëĤłì¹´
ê³¤ëŀĢ
ìĦ¤ëªħìĿĦ</w>
ìĸ´ì§Ģê³ł</w>
ìĿ¸ëĵ¤ìĹĲê²Į</w>
ìĦłíĥĿíķľ</w>
ìĨĮëıħ
ê°ĸì¶°
ayed</w>
ãĦ´
ì¹´ëĬĶ</w>
ìĻĢì¤ĳìĹĲ</w>
ì´Īë¶ĢíĦ°</w>
Ã£Ã¢Ã£Ã¢
ëª©ìĨĮë¦¬</w>
ê°ľëħĲìĿĦ</w>
ë¡ľìĿ´ëĵľ</w>
ìĸ¸ìĸ´</w>
ì¡ĮìĿĦ</w>
ë¥Ļ</w>
íķĺìľĦ
íĽĦì¿ł
ìĤ¬ë¬¼
ëª¨ìľ¼ê³ł</w>
ì¶ľìĤ°</w>
ê´ĢìĦ¸
ancy</w>
ì¡¸ìĹħ</w>
ëĤłìĹĲ</w>
íĺĦìĿ´</w>
ë°ľìĿĺ</w>
ìĨįìĹĲìĦľëıĦ</w>
ë¸Ķë¦¬
joined</w>
opened</w>
whom</w>
ë°°ê²½ìľ¼ë¡ľ</w>
vul
ìĭľê°Ħê³¼</w>
clean</w>
ë°ķìĤ¬</w>
benefit</w>
interested</w>
íķľì°¸</w>
ì§ĢìĹŃìĿ´</w>
ìĿ¸ìĥĿìĿĦ</w>
êµĲìĭ¤</w>
ì§ĢìĽĲê¸Ī</w>
ìĦłê±°ìĹĲ</w>
ìĿ´ìĿĢ</w>
firm</w>
íı¬ìĿ¸íĬ¸ë¥¼</w>
ìĭłê²½ìĿĦ</w>
ì¹´ë¥¼</w>
believed</w>
ëĤ¨ê²¼ëĭ¤</w>
meant</w>
ìĦľìļ¸ìĹĲìĦľ</w>
alo
si</w>
ìķĪëĲľëĭ¤</w>
íİ¼ì³¤ëĭ¤</w>
ê³³ê³³ìĹĲ</w>
ë¹Ħì£¼
ê°ĳëĭĪëĭ¤</w>
improve</w>
learned</w>
chair
ç«
ì»´</w>
ë§Įëĵľ
ê³¼ìłľë¥¼</w>
ëĮĢë°ķ</w>
ë°Ľìķĺê³ł</w>
ìĤ¬ê²©
ìĿ´ê±°
zen</w>
âĢĻ.</w>
ë¬¸íĻĶì²´ìľ¡
ì¶ĺì²ľ
ìĬ¤íģ¬ë¦°
ìĭľíĬ¸</w>
quick</w>
ìłķê¸°</w>
ìķĪëħķ
ìľłì§Ģíķł</w>
íħĮëĿ¼
millions</w>
lined</w>
íĥĢìĿ´ìĸ´</w>
jav
ê¹Įëĭ¤
ìĸ¼êµ´ìĹĲ</w>
ìĥĿê°ģë³´ëĭ¤</w>
driving</w>
ìłĦíĺķ</w>
ìĨįëıĦ
ê¸°ì¤ĢìĹĲ</w>
ì¤ĳêµŃìĹĲ</w>
ê²°ìłķíķł</w>
ì§Ħìĥģ
ë¸ĶëłĪìĿ´
decis
ìĿ´íķ´</w>
ê²ĮìŀĦìĿĺ</w>
ìĹŃëĮĢê¸ī</w>
ë¬¼ê±´
guard</w>
ìłĪê°Ĳ
íĹĪìľĦ
opinion</w>
íģ¬ëŀĺ
é«
surface</w>
ìĿ´ëŀĺ
ë¡Ńê³ł</w>
ext</w>
ailed</w>
ê±°ëł¸ëĭ¤</w>
ìłľíĴĪìľ¼ë¡ľ</w>
arrested</w>
êµ¬ë³Ħ
ë¶ĢëĵľëŁ¬ìļ´</w>
ìĤ½ìŀħ
ìŀĲìĭłëıĦ</w>
ìķĬëĬĶëĭ¤ê³ł</w>
ëĤ´ìĸ´</w>
íķ´ê²°íķł</w>
ë¬´ëĭ¨</w>
ìłĪëĮĢë¡ľ</w>
è«
ìĤ¬ìĿ´ë²Ħ
tour</w>
ì§ģìĽĲëĵ¤ìĿĺ</w>
debt</w>
ê¸°ìĹ¬íķł</w>
ë°ĶëŀĮìĿĦ</w>
runs</w>
ëĤ´ë¡ľ</w>
ë²ĮìĿ¸</w>
ìĺ¤ëŀĺëĲľ</w>
ìĭľìŀĳëĲĲëĭ¤</w>
supported</w>
ëĤĺëħ¸
encies</w>
arity</w>
íıĲì§Ģ</w>
ìĦľìĦľíŀĪ</w>
ìĸ´ëłµëĭ¤ëĬĶ</w>
ìķĦìĿ´ëĵ¤</w>
victory</w>
ìĦľê³ł</w>
ìĬ¤íĬ¸ëĿ¼ìĿ´
ê°Ģë²¼ìļ´</w>
ê²°ë¡łìĿĦ</w>
ê°ĪëĿ¼
íķĺìĭľëĬĶ</w>
species</w>
ìĵ°ëłĪê¸°</w>
ë³´ëĤ¼</w>
ìĺ¤ìĤ¬
ìĦľìļ¸ìĭľëĬĶ</w>
ãħĭãħĭãħĭãħĭãħĭãħĭãħĭãħĭãħĭ</w>
ê°Ħë¶Ģ
ìĭłíĺ¸ë¥¼</w>
ìĤ¬ìĹħë¹Ħ</w>
ìĹĩê°Ī
muslim</w>
ëĤłìĶ¨</w>
meaning</w>
Â·Â·
íį¼ëŁ°
ëıĻê¸°
ëħ¸ëıĻ</w>
ìĸ´ë¦°ìĿ´ì§ĳ</w>
occas
ë§ĪìĿ´íģ¬ë¡ľ
ê¸Īë¦¬ê°Ģ</w>
ëĤ¨íİ¸</w>
ìłĦì§Ģ</w>
æ³ķ
ìķĦì§ģê¹Įì§Ģ</w>
íį¼ìĦ¼
íķĦëĵľ</w>
ìķĶíĺ¸
íīģ
ë¸ĮëłĪ
ë¯¸ëĵľ
authority</w>
ìĬ¤íĦ´
ìĦłíı¬
íĮĲìĤ¬</w>
ì§ģë©´
íĮĲëĭ¨</w>
ìĥĿê¸¸</w>
ãĤī
ëĲĲìĿĦ</w>
íĻ©ìĿ´</w>
ìĹħì²´ëĵ¤ìĿ´</w>
ê°ĢìļĶ
ëª¨íĹĺ
ê´ĢëŀĮê°Ŀ
ê¸ĢìĿ´</w>
ìĹ¬ëŁ¬ë¶Ħ
ìļĶë¦¬</w>
íĺĦìĿĺ</w>
ë§Īíģ¬
ë§¥ì£¼</w>
ê±°ê°Ļ
ì°¨ìłĦ</w>
ìŀĳìĹħìĿ´</w>
ê¸īëĿ½
ìĦľìĸĳ
ê°Ģì§Ģë¥¼</w>
ëĭ¤ìĿĺ</w>
ìłĢê±°</w>
ìłĳëª©
ìĸ´ëĸ»ê²Į
ìŀ¬ë£Į</w>
ìłľìĻ¸íķĺê³ł</w>
ê´ĢëħĲ
ìĭ¤ìłĲ</w>
ìĹ°ëıĦ</w>
ëĵ¤ìĸ´ê°Ħëĭ¤</w>
íĺ¸ê¸°
ëĨĢëĿ¼ìļ´</w>
ëĭ¤ëĵ¬
disease</w>
ìľĮë¦¬
ë¯¼ì£¼ëĭ¹ìĿ´</w>
ë¯¼ìĽĲ
showing</w>
ìĤ¬ê³¼</w>
ê´Ģíķ´</w>
ë³´ê¸°
íĥĢê²©ìĿĦ</w>
ëıĻìĿĢ</w>
ê³¼íĥľ
ê°ĲìĪĺ
íĮĮë¦¬
brand</w>
ìĿ´ë¤Ħì¡Įëĭ¤</w>
ëĳ¬
ìĪĺíĻķ
provides</w>
ì£¼ë¬¸</w>
ëª¨ëŀĺ
íķłë¨¸ëĭĪ</w>
ë¦¬ì¦ĺ
prevent</w>
ìĭľìĿĺ
ê°ĢìĬ´ìĿ´</w>
telling</w>
ìĥģëĭ¹</w>
ìħĺìľ¼ë¡ľ</w>
legisl
ê²°ìĿĦ</w>
fif
hill</w>
ì¹ĺìľł
ë°°íĭĢ
ìĿ´íķ´ê°Ģ</w>
ê¹ĮëĭŃ
ê´ĢíĨµ
ì»·</w>
cell</w>
ëĮĢíĳľìĻĢ</w>
ì°¬ìĦ±
essing</w>
ëĸ¨ìĸ´ëľ¨
ìĪĺëł¨
ëĤ´ë©´</w>
spac
ìłľìĸ´</w>
square</w>
marijuana</w>
ë³´ëĭ¨</w>
ìķĬìķĺëĭ¤ëĬĶ</w>
ìĹĨìĹĪê³ł</w>
ê´Ģê³ĦëĬĶ</w>
ìłĳì¢ħ
ìĺĪìĥģíĸĪëĭ¤</w>
parli
ìĺģìĥģìĿ´</w>
íĿł</w>
éĥ
straight</w>
íķĺë£¨ìĹĲ</w>
stars</w>
ìĽĲëĵ¤ìĿĺ</w>
ìŀĲë¶Ģ
ê¸Īë°©</w>
íļĮíĶ¼
ê³µê°ľíķľ</w>
ëĵłê°Ģ</w>
existing</w>
íŀĪì§Ģ</w>
ëĮĢíļĮìĹĲ</w>
íĨłì§Ģ</w>
ìľĦìĽĲìŀ¥ìĿĦ</w>
ìĨĮìŀ¬ë¡ľ</w>
ê¸īê²©íŀĪ</w>
advantage</w>
ìĻĦë²½íķĺê²Į</w>
dollars</w>
behavior</w>
ìłķìĭłìłģ</w>
cards</w>
íĻķë³´ë¥¼</w>
ìĪĺê°ķ
ì¹´íĥĢ
ìĥīìľ¼ë¡ľ</w>
ì¤ĦìĿ¼</w>
ë¯¹</w>
display</w>
ìĺģíĻĶëĬĶ</w>
ìŀ¥ì¹ĺë¥¼</w>
ìĤ°ìĹħëĭ¨ì§Ģ</w>
exchange</w>
ìľĦíķ´ìĦł</w>
dest
ìŀ¥ë¡Ģ
ìĹĪìľ¼ë©°</w>
cp
ë°°íı¬
centre</w>
íĮĲëĭ¨ìĿĦ</w>
ìĭ±ê°Ģíı¬
bon</w>
ê±°ë¦¬ëĳĲê¸°</w>
íķ´ìĦ¤
íĻĶíıĲ</w>
ìłĦìĤ¬
sanders</w>
ê²½ìłľìĹĲ</w>
key
íģ´ëłĪ
ìĥģëĮĢìĿĺ</w>
object</w>
nav
ê´Ģë¦¬ê°Ģ</w>
yeah</w>
íĺĳë°ķ
foot</w>
êµĲíļĮ
fes
ëĶĶìĬ¤íĶĮëłĪìĿ´
ë¹ĦêµĲíķĺë©´</w>
ëĭ¬ìĿ´</w>
ìĿ¸ê±´
ë§¤ëıĦ</w>
ì§Ģì§Ħ</w>
ë§ĮëĤ¬ëĭ¤</w>
ì¶ľëıĻ
ê¸¸ê²Į</w>
waiting</w>
ìľłì¡±
ìĭľìľĦ
ìĤ¬ëŀĮëĵ¤ëıĦ</w>
ê¶ĮíķľìĿĦ</w>
ìĹĶëĶ©
ìłĳìĪĺ</w>
íĤ¤ìĿĺ</w>
ë¹Ħìľ¨ìĿĦ</w>
writer</w>
arily</w>
ìĹ°ë§Ĳ</w>
zero</w>
ëıĮëł¤</w>
leadership</w>
ê°ľë´ī</w>
ì£¼ê°ĢëĬĶ</w>
ê°ĲíŀĪ</w>
ë°°ìļ°ëĬĶ</w>
ëħĦëĮĢ
èŃ
zing</w>
ì§ĦíķĻ
ë§ĪìĬ¤íģ¬ë¥¼</w>
ëıĦì¶ľ
gressive</w>
guil
ìŀ¬íķ´
ìłĦìĦ¸ê³Ħ</w>
ìĥĿê°ģíķĺì§Ģ</w>
ìĭ¬ìŀ¥
íŀĪìĸ´
ìĥĿìĿ´</w>
cm
ìĤ°ì¶ľ
ë§ŀëĭ¤</w>
dule</w>
ìĸ´ëł¤ìĽĢìĿ´</w>
ìłķìĥģíļĮëĭ´</w>
ìĺģìĹħìĿ´ìĿµìĿĢ</w>
ë¶Ģìĸĳ
rick</w>
ê²ĥìĿ¸ëį°</w>
ìĿ¼ìĸ´ëĤĺëĬĶ</w>
ìĻł
gott
ìĭ¤ìłģ
ìłĦì²´ê°Ģ</w>
ë§ĪëĿ¼</w>
íĮĿ</w>
ëª¨ëĵĪ
ë§ĮìĿ´ëĭ¤</w>
ìĦ¸ìĻĢ</w>
êµ¬ìĨįìĺģ
ìĿĳìĭľ
íĨłë¡ľ
ìĬĲ
ëıĦì¿Ħ</w>
ëĭ¨ëĭ¤</w>
ì¢ħë¡ľ
íı´</w>
ëĭ¨ìľĦë¡ľ</w>
ìĬ¬ëĿ¼ìĿ´
íķľê³Ħë¥¼</w>
ë¯¸ëŀĺìĹĲ
compon
ëĭ´ê²¨</w>
insurance</w>
wis
ìĤ°ê³¼</w>
ìĽĲì¹ĻìĿĦ</w>
ìĿ¼ìĸ´ëĤĺ</w>
íĥĢìĽĮ
ìĽĶìĿĺ</w>
ê´ĢìłĪ
ìĺĪìķ½</w>
lam
íĿĺ</w>
ìľĦíĹĺìĿĦ</w>
voc
ë§īìĿ´</w>
watching</w>
canadian</w>
ì§ĢëĮĢ</w>
íı¬ìĿ¸íĬ¸
íĻķë¥łìĿ´</w>
êµ¬ê²½
ìĿ¸ëĶĶ
ê´Ģìĭ¬ê³¼</w>
ìĿ¸ëıĦëĦ¤ìĭľìķĦ</w>
ëª¨ë²Ķ
ì»¸
pel
ë³µìĽĲ
ê·¸ë¦ĩ
testing</w>
ëĭ¹ëĭ¹
plant</w>
ì¹ľíĻĶ
ê²°ìłķíķĺëĬĶ</w>
shop</w>
ì¤ĳëıĦ
ë²½ìĹĲ</w>
islamic</w>
ìŀħìĹĲ</w>
ëķħìĹĲ</w>
ìŀĲìĽĲë´īìĤ¬
ì»¤ë®¤ëĭĪíĭ°
ìĭľê¸ī
activ
ëĭ¨ìĪľ</w>
charged</w>
ìĤ¬ëĤ´
ëįĶêµ¬ëĤĺ</w>
ëĭ¨íĸī
achiev
pus</w>
gran
ë§¤ì¶ľìĿĦ</w>
len
ëĤĺìĻĢìĦľ</w>
ìĪĺìĨ¡
ìłķë°Ģ
ë©´ìĦľ
ises</w>
ìĦ¸ë¬´
ìĿ½ìĸ´
ìĬ¤ëłĪ</w>
ì£¼ìŀĲ</w>
ê³µìľł</w>
ries</w>
ë¬¸ê³¼</w>
ëĲĺìĸ´ë²Ħ
beauti
ì¶Ķì§Ħíķ´</w>
êµ°ìĹĲìĦľ</w>
river</w>
ê¸°ê´ĢìĿĦ</w>
ê°ķë¦ī
íļĮìĿĺìĹĲ</w>
ìĭ¤ìŀ¥</w>
íĻĪíİĺìĿ´ì§Ģë¥¼</w>
ìĽĲëĵ¤ìĿĢ</w>
ëħ¸ì¡°ëĬĶ</w>
ëĤĺëīĺ
ì²©</w>
mani
íĻķ</w>
ìĹ°ìķł
ëĤ´ë¦´</w>
ë§¤ìŀ¥
ëĵ±ìŀ¥íĸĪëĭ¤</w>
ê½ĥìĿĦ</w>
íķĺìĺĢìľ¼ëĤĺ</w>
ì¡°ê¸°
illegal</w>
ìĭ¤íĹĺ</w>
ëķĮë¡ľëĬĶ</w>
wea
ê·¸ëĭ¤ì§Ģ</w>
ìĹĲë¥´
ëĤłìĿ¸</w>
ìĦ±ê²©ìĿ´</w>
victim
seas
ì°¾ì§Ģ</w>
spon
ìķłíĶĮë¦¬ì¼ĢìĿ´
ëª¨ìĿ¸</w>
ì£¼ëł¥</w>
ì¶ľìĹ°íķ´</w>
ì¼Ģë¯¸
ë°©ìĭĿìĿĢ</w>
ìĦľë¹ĦìĬ¤ê°Ģ</w>
floor</w>
kia
ê¸°ìĸµìĿ´</w>
grade</w>
ible</w>
ìĿ½ëĬĶ</w>
ëħ¸ìĦł
ìłľìŀĦ
ëĤ´ëĨ¨ëĭ¤</w>
íģ¬ë¦¬ìĬ¤ë§ĪìĬ¤</w>
ìĹŃìŀĦ
ê±°ì£ł</w>
ìĿ¸ì¹ĺ</w>
ãİľ</w>
ê³¨ëĵł
gency</w>
ìĺĪë¡ľ</w>
ìłĦë©´
ìĹ°êµ¬ê°ľë°ľ</w>
ë¶Ģì²ľ
ëĬĺìĸ´ëĤĺëĬĶ</w>
ìłĲìĭ¬
ë¡łìĿĢ</w>
jec
fourth</w>
ìķĺëĭ¤ê³ł</w>
ìĨĮìħľ
íĮĮìķħíķĺê³ł</w>
íĻķìĿ¸íķľ</w>
ìĥģíĸ¥
shared</w>
jones</w>
pla
ì§ĢìĹŃê²½ìłľ</w>
ì¹ĺíĤ¨</w>
ìľĦì£¼ìĿĺ</w>
íĨµíĸī
êµŃëĤ´ìĹĲ</w>
ils</w>
âĢĶâĢĶ
ìĿ´ìĨ¡
ìĪĺìĭľë¡ľ</w>
ìĺĪìłķëĲľ</w>
ìĦ¸ì¢ħìĭľ</w>
heat</w>
ê¾Ģ
ë§ĮìĿ¸</w>
ìºĲë¦ŃíĦ°ë¥¼</w>
competition</w>
ê´ĳê³łë¥¼</w>
íķľêº¼
ì¡°ë¡Ģ</w>
cash</w>
minute</w>
ê²°ìłķìĹĲ</w>
carry</w>
ìĿĺì§Ģê°Ģ</w>
ì°½ìĽĲ</w>
ì¶ķìĿĦ</w>
ëĤĺìĦľê³ł</w>
ìŀ¥ê´ĢìĿĺ</w>
putting</w>
camp</w>
íķĺëĬĺìĿĦ</w>
ï¼ŀ</w>
explained</w>
íĺĦê¸Ī</w>
ìłľíľ´
ì§ĵê³ł</w>
collection</w>
íĺģìĭłìĿĦ</w>
ìľĦì¹ĺìĹĲ</w>
ê²½ìĦł</w>
ìĸ´ì§ĢëĬĶ</w>
.ãĢį</w>
êµŃìŀ¥</w>
Ðµ
ìŀłìĪĺ
ìĿ¸ìĿ¸</w>
>(</w>
responsib
jected</w>
sr
finding</w>
ë¯¸ëŀĺìĿĺ</w>
ìĭ¤íļ¨
ìĪĺë¦¬</w>
ìĥģìĭ¤
ëĭ¤ìĿĮìľ¼ë¡ľ</w>
ìĦłì°©
ìķĦìĿ´ëĶĶìĸ´ë¥¼</w>
ìķĪëĭ¤</w>
ëĭ¹ìĭľ
ìĭľë¦¬ì¦ĪìĿĺ</w>
ëĮĢëª©
ê²Ģì°°ìĿĺ</w>
usa</w>
ãħĭãħĭãħĭãħĭãħĭ
ìķĦìĿ´íħľìĿĦ</w>
microsoft</w>
ìĬ¤ë¯¸
íĨµìĤ°</w>
ìķłë§¤
tools</w>
ëł¬</w>
ìŀĲì¹«</w>
setting</w>
íķĺê¸¸</w>
ì¤ĳê³µìĹħ</w>
íĪ¬ìŀħíķ´</w>
iss</w>
ìĬ¤íĭ±
ìłľêµŃ
ìŀ¬íĮĲ</w>
lots</w>
ê²ĢìĿĢ
ìĸ´ë¨¸ëĭĪìĿĺ</w>
ê²½ì£¼</w>
ìĤ¬ìļ©íķĺì§Ģ</w>
friend
ìĹ¬ìĿĺëıĦ</w>
ìĹ£
ìĦ¸ê¸Ī</w>
ëĨįíĺĳ</w>
documents</w>
ì¤ĳë¶Ģ
ìľ¼ë¡ł</w>
ì¢ħìĿ¼</w>
ìħĭì§¸</w>
ìłĦì§Ģ
ë¶ģë¯¸
wol
ëĭ¤ëĭĪë©°</w>
ë°°ìłķ
ìŀĲìĽĲìĿĦ</w>
politici
ê±°ëŀĺìĨĮ</w>
keeping</w>
progress</w>
ëĲĺê¸°ë¥¼</w>
íı¬ì°©
ì¤ĢìĪĺ
íķľìĿ´</w>
íĮĲë§¤íķľëĭ¤</w>
ì¤ĦìĿ´ê³ł</w>
kil
corporate</w>
rer</w>
ble
ë°©ìĭĿìĿ´ëĭ¤</w>
ëħĦìĿĢ</w>
íħĮìĬ¤íĬ¸</w>
dep
ëĿ½ìĿ´</w>
ê²½ì°°ìĿĺ</w>
ë¬¸ìŀĲ
ìĿĺë¯¸ë¡ľ</w>
smart</w>
ìĪłìĹĲ</w>
staur
ìĿ´ëģĮìĸ´</w>
score</w>
ê·Ģì°®
ê¸°ìĹħëĵ¤ìĿĢ</w>
íħĮìĬ¤íĬ¸
ì£¼ëıĦ</w>
íķľêµŃìĭľê°Ħ</w>
veter
ì§ĢëĿ¼ëıĦ</w>
ìļ°ìĹ°íŀĪ</w>
athle
íĻĪëŁ°ìĿĦ</w>
ë¶Ħìľ¼ë¡ľ</w>
ì§Ģìĺ¥
ê¸īìĹ¬</w>
ëĸ¡</w>
mail</w>
ë§Īëł¨íķľ</w>
íķľêº¼ë²ĪìĹĲ</w>
ãĢį,</w>
ìŀĲìľłë¥¼</w>
annual</w>
ë°ĺëĮĢíķĺëĬĶ</w>
ë°±ìĦ±
ëĮĢë°ķ
ìħĺìĹĲ</w>
ë¡ľë§Ī</w>
ë¶Ģíķ©
ê³łìľł
ê°Ģì§Ģë¡ľ</w>
íĻĶíķ´</w>
restaur
íĻķëĮĢíķĺê³ł</w>
ãģı
false</w>
alled</w>
banks</w>
ì²Ńê³¼</w>
ìĿ´ë²ĪìĹĶ</w>
íĥľêµŃ</w>
ì¸µìĿĢ</w>
ìŀĲë§¤
ìĨĮìŀ¥</w>
ìĹ¬ìŀĲëĬĶ</w>
ìĪĺì¹ĺëĭ¤</w>
ì§ĢëĤľì£¼</w>
ë°Ķê¿Ķ</w>
ìŀĦì°¨
worst</w>
ê±°ì£¼íķĺëĬĶ</w>
offers</w>
driver</w>
ëĮĢê°ľ</w>
ê²½íĹĺ</w>
sust
android</w>
íħĮëŁ¬</w>
ìķĬëĬĶëĭ¤ë©´</w>
ìłľì²ł
ì¤ĺìĦľ</w>
makers</w>
ìķĦìĿ´ëıĮ
ìĿ´ë¥´ê¸°ê¹Įì§Ģ</w>
ê´Ģëł¨ìĿ´</w>
ëħ¼ëŀĢìĿĦ</w>
ë§¤ëĭ¬</w>
íĻķëĮĢíķł</w>
ì²łê±°
planned</w>
ë§¥</w>
ê²©ë¦¬
ìĹĶíĦ°íħĮìĿ¸ë¨¼íĬ¸</w>
ìłĦì§ģ</w>
ë¯¸ë£¨
consequ
ìľłì§ĢíķĺëĬĶ</w>
boys</w>
íıīíĥĿ
extremely</w>
íĺ¸ëŀĳ
Ð½
ë§ŀìķĺëĭ¤</w>
proposed</w>
ê·ĢìĹ¬ìĽĮ</w>
ë³Ģíĺ¸ìĤ¬ëĬĶ</w>
ìĨĮìĭĿìĿ´</w>
ë²ĮìĺĢëĭ¤</w>
ë¶ĢëıĦ</w>
ê³łìļ©ëħ¸ëıĻ
ãĥ¼ãĥ
ëĨįë¦¼
êµ¬ìĦ±íķ´</w>
ìĨĶë£¨ìħĺ</w>
íĻĶë©´</w>
lgìłĦìŀĲ</w>
ë³´ìŀ¥</w>
ì»¤ëħķ</w>
iot</w>
ë°Ķê¹¥
ìĿ´ë¥´ë©´</w>
ë§ºê³ł</w>
ìĥĢ
íķ©ìĿĺë¥¼</w>
ë¶Ģì±Ħ</w>
ìĭłíĺķ</w>
ë³´ëĿ¼</w>
ìĦ¬ìľł
ëĶĺ</w>
íĥĦíķµ
íħį</w>
ë¹Ħë°Ģ</w>
ëĭ¨ê³ĦìĹĲìĦľ</w>
ë¶ĢìĥģìĿĦ</w>
ìĭłë¹Ħ
ìłľìķ½</w>
ëĤ¼
cancer</w>
uring</w>
íĻĢìĹĲìĦľ</w>
ê¸ĪìĹĲ</w>
ìĥģëĭ´ìĿĦ</w>
ê³µì²ľ</w>
íķ´ê²°ìĿĦ</w>
ìĨĮë§¤
ê·¸ëķĮ
planning</w>
ìķĪìłķìĿĦ</w>
ëĤ¡
ìĺ¬íķ´ëıĦ</w>
traffic</w>
ê¸°ìĪłë¡ľ</w>
ì¢ģìĿĢ</w>
ê³¨ëĵľ
ìľłë§Ŀ
íĢ´</w>
ëĭ¤ë£¨ëĬĶ</w>
jt
youtube</w>
draw</w>
æ±
ì¤ĢìĿĢ</w>
ìľĦìĿ¸</w>
ëıĻìĹĲìĦľ</w>
command</w>
ram</w>
ëª¨ëĬĶ</w>
ìķ¼ë§Ī</w>
íŀĺëĵ¤ìĸ´
íĤ´
ê°Ħëĭ´íļĮë¥¼</w>
cold</w>
ë²ĪìĿ´ëĤĺ</w>
ìķĦëĵ¤ìĿĦ</w>
tol
ìĿ¸ìĭĿìĿĦ</w>
íİ¸ìĿĺìłĲ</w>
titu
ë°ķìĤ¬
becoming</w>
ë©´ìĦ¸ìłĲ</w>
miss</w>
ìĥĿìĤ°íķĺëĬĶ</w>
ìĸĩ
ìĺĪìĥģëĲĺëĬĶ</w>
dangerous</w>
tery</w>
ì¡°ì§ģìĿĺ</w>
ëħ¸ëĬĶ</w>
ì£¼ì°¨ìŀ¥</w>
willing</w>
roy
íķĻìŀĲ</w>
ëĤĺíĥĢëĤĺê³ł</w>
ìºĲìĬ¤
íĻķë¦½
ë°ķëŀĮíļĮ</w>
ëĬĺìĸ´ëĤĺê³ł</w>
íĻľìļ©íķĺëĬĶ</w>
ê³¨ëĵľ</w>
basis</w>
ë°Ķê¾¸ëĬĶ</w>
train</w>
victims</w>
íİ¼ì¹ĺê³ł</w>
ë¯¸ì¹ĺ
ë§īëĬĶ</w>
ì§ĢëĤ¸</w>
ë¸Ķë£¨</w>
ë¸Įë£¨
ê³ĦìĹ´ìĤ¬</w>
ë¶Ģëĵľ
ëĭ´ìķĺëĭ¤</w>
desi
flight</w>
ìĭľìŀĳíķł</w>
ìĿĺë¬´ë¥¼</w>
housing</w>
ìĺģíĸ¥ëł¥ìĿĦ</w>
magaz
ìĨĮëħĦ</w>
ization</w>
ë¬´ìŀĳ
hd
ìłģìĿ´ë©°</w>
cab
ì¶Ķê²©
grow</w>
ëħ¸ë¥´
graphy</w>
ìĸ´ëĸ¤
eds</w>
ãħĮ
ê´Ģë¦¬íķĺëĬĶ</w>
ìµľìĪľ
ì°¨ìĽĲ
ë¬´ìĦł</w>
ëĭ´ëĭ¹íķĺëĬĶ</w>
ëıĻìĦ±
ëĵ±íķľ</w>
ì§ĢìĹŃìĤ¬íļĮ</w>
ë³¸ìĿĦ</w>
ëĭ¨ìĿ¼</w>
ìłĦíĽĦ
dead
sac
ë¶ĪêµĲ
cd
ìŀĲì£¼
ë§¤ì¶ľìķ¡ìĿĢ</w>
mass
ê·¸ë¡ľ</w>
supporters</w>
holding</w>
concept</w>
enforcement</w>
ëįĶëĬĶ</w>
ìłģìĿ´
ê°ľíĺģìĿĦ</w>
åĽ
ëª¨ìĸĳ</w>
ëĮĦìĬ¤</w>
ì£¼ê¸°
reduce</w>
ê·¸ëłĪ
ìĦ¸ê¸ĪìĿĦ</w>
ì¤Ģë¹ĦíķĺëĬĶ</w>
íľł
ê³¼ìĦ¸
ë§Ĳê³¼</w>
ë³ĳìĽĲìĿĦ</w>
ute</w>
ëĤłìĿĢ</w>
ìĸ´ë¦´</w>
items</w>
drugs</w>
ìĭľì²Ńë¥ł</w>
ìłĦìĤ¬</w>
íĸĪëĬĶ
owner</w>
ìĨĮìŀ¥ìĿĢ</w>
ë¨¹ê³ł
ê°ĢëĬ¥íķł</w>
ìĿ¸íķĺìĹ¬</w>
missing</w>
ë¬»ìŀĲ</w>
ê±¸ìĿĮ
ê¹¨ìĸ´
iously</w>
ëıĻìķĪìĿĺ</w>
communities</w>
ìĦ±ì¶Ķ
ìĿĺìĽĲìĿĦ</w>
ëĿł</w>
ìµľê°ķ
íķĻìĽĲ
ì²´ê²°</w>
ë²łìĬ¤íĬ¸</w>
ëĬĲê¼Ī
ìĤ´ëł¤
abilities</w>
ìĤ¬ë¬´ìĨĮ</w>
ê¸°ìĪłìĿĢ</w>
íķĺëĭ¤ë©´</w>
ìĽĲìľł</w>
ì¤ĳìĨĮ</w>
ê²½ìļ°ë¥¼</w>
definitely</w>
ìłĦìŁģìĿ´</w>
ìĿ¸ì¦ĿìĿĦ</w>
ìĥĮëĵľ
ìĥģê°Ģ</w>
ëĵ¤ë§Į</w>
ìħĭ</w>
legislation</w>
ìĹħì¢ħ</w>
ë¨¼íĬ¸</w>
ê°ĦìĿĦ</w>
ìĿ´ìķ¼ê¸°ëĬĶ</w>
ë¬¸ìĹĲìĦľ</w>
íĥľê·¹
ê±°ëĵŃ</w>
division</w>
ku
ë§İìĿĢëį°</w>
ë¹ħëį°ìĿ´íĦ°</w>
íĻĺìŀĲëĬĶ</w>
ê³µìĹħ
ìĪĺìĦ±
ìĭľëĮĢê°Ģ</w>
incredi
ìķĮë°Ķ
audience</w>
ìĿ´ê³³ìĹĲ</w>
ìĸ¹
famous</w>
ìłĦëł¥ìĿĦ</w>
ìŀ¥ìĪĺ
ê²½íĸ¥
æĥ
íķĺëĤĺëĭ¤</w>
ìĿ¼ëªħ</w>
innov
ìĿ´ê³³ìĹĲìĦľ</w>
uries</w>
becomes</w>
ë°ĺìĦ±
stated</w>
ìłķë¬´
íĶĦë¡ľê·¸ëŀ¨ìĿĢ</w>
ìĹŃìĿĢ</w>
prosecu
ê¹Ĳ
ëģĪëĭ¤</w>
ìĬ¤íĥĢíĬ¸ìĹħ</w>
ì±ħìľ¼ë¡ľ</w>
ê³µìłķê±°ëŀĺ
reu
ëıĮíĮĮ</w>
ìļĶìĨĮë¥¼</w>
ìķĺìĿĦ</w>
ë¹¼ê³ł</w>
íķĦìļĶìĦ±ìĿĦ</w>
daughter</w>
ìłĵ
ê°ĢíĨ¨
ìŀ¬ìĤ°ìĿĦ</w>
ëł¸ì§Ģë§Į</w>
ìĹŃìĤ¬ìĿĺ</w>
íŀĺìľ¼ë¡ľ</w>
green
ê°ĲìĤ¬ë¥¼</w>
ë°ľì£¼
ìĺ´</w>
ë¸Įëŀľëĵľë¥¼</w>
ìķĪì²łìĪĺ</w>
íĬ¹íĻĶ
ì£¼ìłĢ
ì»´íĵ¨íĦ°
íĬ¸ìĿ¸</w>
ëı¼ìĦľ</w>
ì£¼ë¯¼ìĿĺ</w>
ìĵ°ë©´</w>
ìĿ´ìĹĪëĭ¤ê³ł</w>
ìŀ¥ê°ĳ
ë©ĺíĨł
usual</w>
ëıĦìĸ´</w>
ê³łë¡ľ</w>
ìľłìŀ¬
íķ©ìĦ±
ìĭľëĤĺ</w>
coverage</w>
ìŀĳìĹħìĹĲ</w>
ìģľ
ë©Ķë¥´ìĬ¤</w>
êµŃë°©ë¶Ģ</w>
ëıĻìĭľ</w>
ê°ľëħĲ</w>
mentioned</w>
ìĿ¼ì°į
ìķĮíĮĮ
ëĦĺìĿĢ</w>
animals</w>
ìĹ¬ìĦ¯</w>
ëĭ¤íķ´</w>
ìĥģê¸°
instance</w>
ê³łìĸĳìĿ´</w>
detec
íĶĦë¡ľê·¸ëŀ¨ìĿ´</w>
ìĽĢê³¼</w>
ãĤ¤
íĮĲê²°</w>
ë¯¿ìĿĦ</w>
ëĮĢíķĻìĹĲ</w>
íĺĦìĹŃ</w>
ãħ¡
ìķĬìķĦìĦľ</w>
ì§Ħìľ¼ë¡ľ</w>
ë¦¼ìĿ´</w>
ë³´íĺ¸ë¥¼</w>
ìļ´ëıĻìĿĺ</w>
imagine</w>
ìĿ¸ìĭĿìĿ´</w>
ë°Ķê¿Ģ</w>
****
ëŁīê³¼</w>
ìłķì¹ĺë¥¼</w>
ê°ĸëĬĶëĭ¤</w>
ìĦ¸ë¶Ģ</w>
restric
ë¹Ħê·¹
ìĻķìĿĦ</w>
ëĭ¨ì²´ê°Ģ</w>
ìŀĲìĭłê°ĲìĿĦ</w>
ë§īê³ł</w>
ìĿ´íĥľ
ìłĪë§Ŀ
dering</w>
ë¯¼ì¡±</w>
israeli</w>
êµ¬ë¦¬</w>
ê³¼ìłķìĿĢ</w>
ëĨĵìĿĦ</w>
regim
otherwise</w>
ìĿ´ëĭ¬
thomas</w>
mol
break
ìĹ¬ëªħ</w>
ëĶĶëĬĶ</w>
exerc
elled</w>
ìŀħì£¼</w>
easier</w>
ìĦ±ëªħìĿĦ</w>
ê³łê¸°ë¥¼</w>
ìĿ´ëĵ¤ìĹĲê²Į</w>
ìĬ¤íĮĮìĿ´
ë¶ĢíĮ¨
ami</w>
ë£¨ê°Ģ</w>
fted</w>
ìĦłê³ł</w>
ë¬´ëĬ
ë°ľìłĦìĨĮ</w>
ìĿ´ë¦¬
ì§ĢìĪĺê°Ģ</w>
ë¶Īíıī
ë¬´ìĦł
ëĶĶìŀĲìĿ¸ìĿĦ</w>
ìĬ¤ë°Ķ
japan
ê±¸ìĹĪëĭ¤</w>
hearing</w>
ìĺģìĿĦ</w>
íķĻê¸°</w>
northern</w>
ë°©ì¹¨ìĿĦ</w>
ëĵľë¬¼
ì²ĺë²Į</w>
ji
ëĭĺê³¼</w>
ìĹ°ëıĻ
íľĺ</w>
accused</w>
ë²Ħë¦´</w>
immigration</w>
ëıĦìļ°
ê¶Įëł¥ìĿĦ</w>
ë¬´ìĦľìļ´</w>
balance</w>
ìĭłìĹĲ</w>
ìŀĲê¸ĪìĿ´</w>
ìĽĥê¸°
íĿĲë¥´ëĬĶ</w>
ë²łëĦ¤
ë¹łë¥´
ìĻĶê³ł</w>
íķĺìľĦ</w>
nie</w>
environmental</w>
dynam
ìķŀìĿĺ</w>
airs</w>
sites</w>
ë°©ë²ķìĹĲ</w>
ë¨¸ë¦¿
íķ´ìłľ</w>
ìķ¡ìħĺ</w>
ê±°ë¦¬ë©°</w>
ìłľì£¼ëıĦ</w>
ì£¼ìĭł</w>
terri
ë¨¸ë¦¬ìĹĲ</w>
ëª¨ìĿĢ</w>
ëĭ¹êµŃìĿĺ</w>
ë¶Ģìłķìłģ</w>
obviously</w>
íĮĲìĿĺ</w>
ìĹħì²´ë¥¼</w>
ìķĦìĤ¬
ìĦľë¡ľìĿĺ</w>
íĥĢìĿĺ</w>
ì§ģìŀ¥</w>
íĥĦìĨĮ</w>
ìĳ¤
pain</w>
tests</w>
íĺ¸íħĶìĹĲìĦľ</w>
ì½§
inger</w>
employment</w>
ë±ī
ìĹ¼ëĳĲìĹĲ</w>
íĳľìłķìľ¼ë¡ľ</w>
ê°ľìĭľ
oec
ìŀ¥ë©´</w>
ìĿ¸ê°Ģ
ì°¨ë³Ħ</w>
ìľĦìķĪë¶Ģ</w>
ì¡°ë¦¬</w>
ëłĪìĬ¤íĨł
ì¶ľë§Ī</w>
ìłķë¶Ģë¥¼</w>
ê·ĢêµŃ
ìĹ¬ì§Ģê°Ģ</w>
ìĭ±ê°Ģíı¬ë¥´</w>
ë¹łì¡Įëĭ¤</w>
ìķĦëª¬
ìĦ±ìŀ¥íķł</w>
vice</w>
britain</w>
ì¤ĳìĹĲìĦľëĬĶ</w>
editor</w>
rat
unfortun
ëį°ìĹĲ</w>
ëĴĢ
han</w>
ìĺģìĽĲíŀĪ</w>
ë¬¸ìŀĲ</w>
ëª¨íĨł</w>
ìĺģëĵ±
ë²ĪìĿĢ</w>
ìĭłì²ľ
human
ìĿµìĿĦ</w>
ë³Ģíĺ¸ìĤ¬
ì±Į
champion
ì²´ê°Ĳ
ìĭĿìĤ¬</w>
íĥĦìĨĮ
enjoy</w>
iled</w>
itors</w>
ì½ĶìĬ¤ëĭ¥
alization</w>
ë°ĶìĿ´</w>
ëıħíķľ</w>
ë¦¬ëĭ¤</w>
kim</w>
ìĿ´ì¹ĺ
armed</w>
ìĿ¼ìĸ´ëĤ¬
ëħĦìľ¼ë¡ľ</w>
amed</w>
wind</w>
ìĿ¸ê·¼ìĹĲ</w>
íĺķìĭĿìľ¼ë¡ľ</w>
ëĭ¨ì§Ģ
ê³łìłĦ
ë°©ìķĪëıĦ</w>
ëĤ´ë¦¬ê³ł</w>
ìĸ´ëĳĲìļ´</w>
ìŀĲê°Ģê²©
ìĤ¬ëĿ¼ì§Ħ</w>
ëĳ¥ìĿ´</w>
ê²łëĦ¤</w>
ë³ĳìĹĲ</w>
íĶĦëŀľì°¨ìĿ´ì¦Ī</w>
ëĮĢìĿĳìĿĦ</w>
cnn</w>
ì§ĢíĤ¤ê³ł</w>
ä¼
íİ¸íķĺê²Į</w>
vit
ê·Ģì¡±
equi
ìĿ¸ìĿ´ëĭ¤</w>
ê²½ëł¥</w>
ìĬ¨ìĿĢ</w>
ìĹ®
ë¦¬ëª¨ëį¸
ëĵĿíĳľ
ìŀ¥ì¹ĺ
ëĶ´</w>
ì§Ģë¶ĦìĿĦ</w>
ëıĦìłĢíŀĪ</w>
êµŃë¯¼ëĵ¤ìĿĺ</w>
ê±°ë¦¬ìĹĲìĦľ</w>
purpose</w>
ìłĦìĹĲìĦľëĬĶ</w>
mode</w>
ì¡°ìĤ¬ê°Ģ</w>
ìĹ°ëĮĢ
ìĬ´
ìĹŃìĤ¬ìĥģ</w>
íıīê°ĢëĬĶ</w>
ìŀĳê°Ģê°Ģ</w>
ê·ĢìĹ¬ìļ´</w>
ìļ°ë¦°</w>
íĥľíĴį</w>
southern</w>
ë°Ľìķĺëįĺ</w>
ì¹©
ë³´ìłĦ
ëģ¼ë¥¼</w>
ì§Ħìĭ¤ìĿĦ</w>
ì¹´ê°Ģ</w>
cs</w>
ìĦ±ê³µìłģìĿ¸</w>
íĭ°ì¼ĵ
issued</w>
aìĶ¨</w>
chap
ìłĳì¢ħ</w>
background</w>
ëģĿëĤ¬
ê²ĮìŀĦìĿ´</w>
ê´Ħ</w>
ìĤ°ìĹħìĿ´</w>
ê°Ģì¡±ìĿĦ</w>
separate</w>
neighbor
êµŃíļĮìĹĲ</w>
ë©´ìłĳ</w>
íķ´ìķĪ
ê¸°ì¦Ŀ
deliver
ì»¬ëŁ¬</w>
changing</w>
ìłĦìĦ±
íĴĪìľ¼ë¡ľ</w>
lightly</w>
unless</w>
ê²°ìĭ¬
ëĬĲê¼Īëĭ¤</w>
ëıħìĿ¼ìĿĺ</w>
ìĿ´ìĤ¬ëĬĶ</w>
shall</w>
ëĮĢìĥģìĹĲ</w>
æ²
ìĿ¸ë¥ĺ
ìķĦëĭĮëį°</w>
ìĹĨëĬĶ
techni
ìĺģíĸ¥</w>
ëĭĪìĬ¤
íĿ¬ìĿĺ</w>
ìŀĲìľłíķľêµŃëĭ¹</w>
nd</w>
sin
ìµľìłĢ</w>
ì±ĦëĦĲìĿĦ</w>
êµ¬ì²Ń</w>
ìĤ´ìķĦëĤ¨
ìĦłë³´ìĿ´ëĬĶ</w>
ëĨįìĹħ</w>
ìĤ¬ìĭ¤ìĹĲ</w>
ì¡°ìłķìĿĦ</w>
ëłµ</w>
cëĬĶ</w>
shel
====
ë¦°ëĭ¤ëĬĶ</w>
ë´ĲìļĶ</w>
degree</w>
ë¡ľë²Ħ
íļ¨ê³¼ìłģìľ¼ë¡ľ</w>
ëĭ¤ìĪĺ
ì¤ĳìĿĦ</w>
reque
ìļ°ì£¼</w>
ê±´ë¦½</w>
ê±¸ì¹ľ</w>
decade</w>
ìĿĺëĬĶ</w>
ì»¨íĬ¸ë¡¤
ìĺ¬íķ´ìĿĺ</w>
íķ´ìĹĲ</w>
discovered</w>
ê¸°ë¦Ħ
ê³¡ìĿ´</w>
><</w>
íģ¬ê¸°</w>
parti
íķľíİ¸
ìĿ¼ì£¼ìĿ¼</w>
......</w>
ì§Ģì¹¨
ìĿ´ë¤Ħì§Ģì§Ģ</w>
ì¤ĳë¦½
breaking</w>
remar
ê²°ê³¼ìłģìľ¼ë¡ľ</w>
ìĿĺìĤ¬ê°Ģ</w>
ëĭ¨ìľ¼ë¡ľ</w>
ëĲłì§Ģ</w>
ëĵĿìłĲ
íĶĦë¡ľìłĿíĬ¸ë¥¼</w>
ëĵ±ìŀ¥ìĿ¸ë¬¼</w>
steps</w>
strike</w>
apparently</w>
ìĺ´
íķĻëħĦëıĦ</w>
ìĭľë©´</w>
prior</w>
íľ´ëĮĢíı°</w>
ë¹Ħìłķê·ľì§ģ</w>
ê°ĻìĿ´
íķ´ì²´
ëĦ¤íĭ°ì¦Į
ë§Ĳíķĺë©°</w>
ìľłëŁ½ìĿĺ</w>
è²
ê³ĦíļįìĿĢ</w>
ê¸īìĭĿ
ëĲĺë¯Ģë¡ľ</w>
identity</w>
cj</w>
ìłľëıĦìĿĺ</w>
escap
ìĪĺìļĶë¥¼</w>
ê°ľë°ľìĿ´</w>
ê°ľíĹĮ
returned</w>
isla
íıīíĻĶ</w>
ê½ĥìĿ´</w>
ëĭ¹êµŃ
anna</w>
mon</w>
yers</w>
direction</w>
íķ´ë§Īëĭ¤</w>
ë¶ĪëłĢëĭ¤</w>
ëį°ë¯¸</w>
íķ´ëĭ¹íķľëĭ¤</w>
reason
ê³łìĬ¤ëŀĢíŀĪ</w>
íĳľê°Ģ</w>
íķľë¯¸</w>
íħĮìĿ´ë¸Ķ
transi
ìłĦêµŃìĿĺ</w>
liberal</w>
philos
íĨµìĿ´</w>
ìķĺëĭ¤ëĬĶ</w>
ìĭľìĦ¤ìĿĺ</w>
ìĬ¤ì¹´ìĿ´
íĺ¼ìŀĲìĦľ</w>
supreme</w>
ìłĦë¶Ģ
ì°¾ìķĦê°ĢëĬĶ</w>
negative</w>
ì¹´ëĵľê°Ģ</w>
ìĹ¬ëĭ´ìľ¼ë¡ľ</w>
ìĤ¼ìĦ±ìĿĢ</w>
tes
ìłķëıĦìĺĢëĭ¤</w>
launched</w>
gain</w>
ica</w>
ëĬĲëĤĮ</w>
ìĸ´ëĶĺ
íĮĲë§¤ê°Ģ</w>
ë°ĶíĢ´</w>
ìĦłíĥĿìĿĦ</w>
ë³´íĸī
ê²ĥëĵ¤ìĿ´</w>
older</w>
ìķ½ìĹĲ</w>
ìĿĺíķ´ìĦľ</w>
ë¶Īê°ĢëĬ¥íķĺëĭ¤</w>
develop</w>
Ã©</w>
ìĭľìĦ¤ìĹĲ</w>
ìŀĲëĿ¼ëĬĶ</w>
beer</w>
íģ´ëŀĺìĬ¤</w>
martin</w>
tionary</w>
ìºłíį¼ìĬ¤</w>
íķĦë¦¬íķĢ</w>
íĨµê³¼</w>
aked</w>
dav
ìĥĪíķ´</w>
ë³µíķ©</w>
ìĦ¸íı¬</w>
ìĿĺë¬´</w>
io
ren</w>
ìµľìĨĮíķľ</w>
bling</w>
ëĳĲë¥¼</w>
ëĬĦ</w>
ì²ŃìĤ¬</w>
ë°ĿíĺĢì¡Įëĭ¤</w>
ëĭ¨ê¸°</w>
robo
line
ë³ĢìĿĦ</w>
ìĦľë¡ľë¥¼</w>
ìĥĪë¡ľ
ëª½</w>
ëĳĲëł¤ìĽĮ
ìķĬìķĺìĿĦ</w>
jes
ìĨĮíĻĺ</w>
concerned</w>
íĪ¬ìŀĲìŀĲ</w>
íĸ¥ìĥģìĿĦ</w>
ìĿ´ê³³
acity</w>
domes
ëª©ë¡Ŀ</w>
ëŀŃíĤ¹</w>
ìºłíĶĦ
ê³¡ìľ¼ë¡ľ</w>
nings</w>
ì£¼ì£¼</w>
ìķĦìķĦ</w>
ëħĢìĦĿ
ëĵ¤ìĹĲê²ĮëıĦ</w>
ì¤ĳìļĶìĦ±ìĿĦ</w>
error</w>
êµĲìľ¡ìĿĢ</w>
ìĿ´ìĬ¤ëĿ¼ìĹĺ
ìĿ´ìĸ´ê°Ķëĭ¤</w>
ì¡Įìľ¼ë©°</w>
ì¸Ħ
ëģĿìĿ´</w>
ê°ľìĨĮ</w>
íĨłë§Ī
ì¸łëĬĶ</w>
ãģł
íıīê°Ģëĭ¤</w>
ìµľëĮĢìĿĺ</w>
ë³¸ìĤ¬</w>
ãĤĬ
ê³łìĭľ
êµĲìľ¡ìĿ´</w>
ì°¨ìĽĲ</w>
japanese</w>
ëĮĢëĭ¨íŀĪ</w>
ìĭ¤ëĤ´</w>
ëĿ¼ìĿ´ìĸ¸
ê¹¨</w>
abuse</w>
ê³µìłķíķľ</w>
located</w>
êµŃë¯¼ìĿĦ</w>
labour</w>
ì²ĺë¦¬ë¥¼</w>
íĻĺìľ¨</w>
ëģĮ</w>
íķĺê²ĮëıĦ</w>
ë²ĦìĬ¤ë¥¼</w>
íĨ°
ìĬ¤íĥĢìĿ¼ìĿĦ</w>
ëį°ë¯¸ì§Ģ</w>
ìĹ¬ëĬĶ</w>
ê·¼ë³¸ìłģìĿ¸</w>
ìĦľë¹ĦìĬ¤ëĬĶ</w>
ì§ĸ
ë°ķì§Ģ
ëĤĺëĵ¤
ë§ĮìĹ¬</w>
dm
ì£¼ìĿ¸ê³µìĿ´</w>
ê´ĳìŀ¥</w>
ë¦¬ëĤĺ</w>
argument</w>
black
conflict</w>
ëģĮëł¤
ì¶ľìĭľëĲľ</w>
ìĥģíķľ</w>
ëĮĢëĭµíĸĪëĭ¤</w>
ìĶĮ
ì¼Ģìĸ´</w>
ìĿ¼ë³¸ìĹĲ</w>
ìĻĦê³µ
ë¹Ħíķĺë©´</w>
ë°ĺíķ´</w>
èģ
ìľłëŀĺ
established</w>
ê³µíķĻ
ëĭµëĭĪëĭ¤</w>
ê°ľë°ľê³¼</w>
bled</w>
tters</w>
ãħľãħľ
íĤ¤ìļ°ëĬĶ</w>
ëĭ¹ëĤ´</w>
íķĺëĬĶê±°</w>
ê·ľëª¨ëĭ¤</w>
ì¡°ê¸Īë§Į</w>
ì§Ģë§Ī</w>
íģ¬ì§Ģ</w>
dun
vince</w>
cing</w>
requires</w>
aa
ìłľìķĪìĿĦ</w>
ç¾İ
ìĿ´ìĸ´ê°Ģê³ł</w>
ìĿ´íĽĦìĿĺ</w>
ê°Ģëįĺ</w>
ìķĦì§Ģ
ë¹Ħì¶Ķ
ukra
proto
afgh
ìłĪì°¨
kbs
supp
ì·¨ë¥¼</w>
ìĿ´ë£¨ëĬĶ</w>
bour
íķ´íĶ¼
ìĿ¼ë¦¬
ì²ĺëĬĶ</w>
âĢľâĢĺ</w>
ìĿ´ìķ¼ë§Ĳë¡ľ</w>
ê°ĲëıħìĿĦ</w>
ìłľìĻ¸</w>
ìŀĪê²łëĭ¤</w>
ëĤĺëĪĶ</w>
scott</w>
ë´īìĤ¬</w>
ìķĬìķĺëĭ¤ê³ł</w>
íķ´ìķ¼ì§Ģ</w>
ìĿĳìĿĳ</w>
indian</w>
viewed</w>
actor</w>
mix</w>
ë¥ĺíĺĦ
dance</w>
ëĭ¬ìĦ±</w>
ìĸ´ëĸ¨
ìĿ´ë¡Ģ
ë§Īì§Ģë§īìĹĲ</w>
ëĲĺëĤĺ</w>
æ¯
connection</w>
ëıĻê³¼</w>
ëĵ±ê¸īìĿĦ</w>
ìŀĲê¸°ìĿĺ</w>
animal</w>
fra
ìŀĲëŀĳíķĺëĬĶ</w>
ìŀĪëĭ¤ë©°</w>
notice</w>
ë¯¸ì¹ĺì§Ģ</w>
explain</w>
ì§¤
ì¡°íķľ</w>
jewish</w>
ìŀĪê±°ëĤĺ</w>
ìķĬìĿĢ
ì»¨íħĮìĿ´
ë°©ìĨ¡ëĲľëĭ¤</w>
planet</w>
ìĿ¸ìĦ¼
suggested</w>
solar</w>
ë£¨ë¯¸
ë§ĪìĤ°
ano</w>
ìĺĢìľ¼ëĤĺ</w>
context</w>
ìĽĥìĿĮ</w>
íķŃëª©</w>
ìłĦë°ĺìłģìľ¼ë¡ľ</w>
ìĹ¬ëŁ¬ë¶Ħ</w>
focused</w>
ë¬´ëĤľ
ìķĦìĭľìķĦëĤĺ
ìĦ±ìĤ¬
targe
ë¶Ģë¬¸ìĹĲìĦľ</w>
utely</w>
ë°°ê³ł
pak
measure</w>
missed</w>
ìĺĪìĤ°ìĿ´</w>
ìĿ´íķ´íķĺê³ł</w>
ì¢ħêµĲ</w>
ìļĶìĨĮê°Ģ</w>
ì¹ĺìĨŁ
ì´ĪëĮĢ
Ð¸
ìĤ¬ìĹħìĿ´ëĭ¤</w>
âĨĳ</w>
ì£¼íĮĮ
ê³łë¬´
adap
ìĽĶê¸ī
ìĿĦì§Ģ</w>
peter</w>
ìŀĲêµŃ</w>
çµ
ë°ĶëĢĲ</w>
ì°¾ìķĦê°Ģ</w>
smaller</w>
ìŀĳíĴĪìĿĺ</w>
ìĶ¹
ê¸īìĭĿ</w>
oppos
êµ°ìĪĺ</w>
oul
íĬ¸ëŁ¬
ìłĦìĪł
ìĨĶë¡ľ</w>
tvë¥¼</w>
initial</w>
çĲ
anta</w>
yn
conver
ìŀ¬ë¯¸ìŀĪëĬĶ</w>
fi</w>
gradu
ëľ©</w>
boun
ê³ĦìĬ¹
dl
gall
ë³ĳìĿĺ</w>
ë£¨ìĻĢ</w>
ìĽĮìĭ±íĦ´
ë¹¨ëĿ¼
consul
ëĨĵëĬĶ</w>
ê³¼ë¥¼</w>
ëĵ¤ìĸ´ìĻĢ</w>
ìŀ¥ëł¤
ì±Įë¦°
jam
ì´Īê³ł
inspi
ìĦ¸ë¸Ĳ
ë§ĲìĶĢìĿĦ</w>
ë°ľíĳľëĲľ</w>
ëĭĪìĿĺ</w>
arm
ìĺĢìľ¼ë©°</w>
pal</w>
ëµ
ë©ķìĭľì½Ķ</w>
ìĺĢëĭ¤ëĬĶ</w>
íħĮëĭĪ</w>
ìļĶêµ¬íķĺê³ł</w>
ì¢ħë¥ĺ</w>
íľ´ê²Į
ìłĦíĨµìłģìĿ¸</w>
ê¸°ë°ĺìĿĺ</w>
ëĵ¤ë³´ëĭ¤</w>
ë³´ìĿ¸
ëĵ¤ìĸ´ìĺ¤ëĬĶ</w>
ìĿ¼ìłľíŀĪ</w>
ë¶ĢëģĦëŁ¬
ìłĦêµŃìĹĲìĦľ</w>
ìłĦë°ĺìłģìĿ¸</w>
voted</w>
ìŀĳìłĦ</w>
íķľìĸĳ
ìĸ´ìļ¸ë¦¬ëĬĶ</w>
íĿ¥íĸī
ryan</w>
ì¤ĦìĿ´ëĬĶ</w>
ëĤ´ìłķ
slow</w>
ë¬¸íĻĶì²´ìľ¡ê´Ģê´ĳ
ìĦłìĪĺëĬĶ</w>
íĥĢìĽĮ</w>
ë§ĲëĿ¼
ìŀĲë³¸</w>
famili
ë°ĺìĺģíķ´</w>
ëĭĪê¹Ĳ</w>
ìŀ¬ë¯¸ë¥¼</w>
carol
ê±°ê¸°</w>
ìĤ°ìĹħíĨµìĥģ
ë°ķìĽĲ
íĳľíĺĦìĿĦ</w>
ë¬¸ìłľìłĲìĿĦ</w>
ìĦłíĸī
ëĤ´ìļ©ìĹĲ</w>
ìĺĪë¹Ħ</w>
ìļ´ëıĻìĹĲ</w>
ìĤ¼ìĦ±ë¬¼
zi
ëª©íĳľëĬĶ</w>
ìĦľíı¬
ëĭ¤ìĸĳíķĺê²Į</w>
ultimately</w>
ìĨ¡íĮĮ
íĬ¸ìľĦíĦ°</w>
ìĤ¬ê±´ìľ¼ë¡ľ</w>
íĪ¬íĳľë¥¼</w>
ë§ŀì¶ĺ</w>
activities</w>
ë¶ģëıĦ</w>
ì´ĪìĽĶ
íķ´êµ°</w>
ëĤĺë¬´ë¥¼</w>
ìĿ¸ìĥĿìĿĺ</w>
ìĬĽ
ë°ķìĬ¤
ê²©ìĿ´</w>
edy</w>
fare</w>
ì±ħìĿĺ</w>
ìŀĲìĤ°ìļ´ìļ©
ìī½ê³ł</w>
ìĦłë¬¼ìĿĦ</w>
ë²Īíĺ¸ë¥¼</w>
ë¬´ìĹĩìĿ´</w>
ìĨĶ</w>
íĮĮìĿ¼
ëª¨ìĪľ
íĪ´
ìłĦìĽĶ
ìĿ´ëĭĪê¹Į</w>
ê°ĦìłĪ
ìĬ¤íĬ¸ë¡ľ</w>
ëĭ´ìķĦ
êµ¬ë§Į</w>
ëĲłê¹Į</w>
ëĮĢë¶Ģ
ishment</w>
ëŁīìĹĲ</w>
ë°ĶìĿ´ëĵł</w>
ìĪĺíĺľ
ìłģìĿ´ìĹĪëĭ¤</w>
ê°ķíĸī
ëĮĢíļĮëĬĶ</w>
ëĲĺìĹĪì§Ģë§Į</w>
ë¯¼ì£¼ì£¼ìĿĺ</w>
ëĲĺìĸ´ìĦľ</w>
ëĭ¤ë£¬</w>
ê·łíĺķ</w>
ìķĦìĦ¸
ì²Ńì£¼</w>
ê²°íĺ¼ìĿĦ</w>
ëį°ìĦľ</w>
ìĨĮìĥģê³µìĿ¸</w>
íķŃìĿĺ
ëģĦëįķ
ê³łëł¤</w>
ìŀĲë¦¬ë§¤
ê²½ê¸°ìŀ¥</w>
spoke</w>
ì¶ľìĥĿ
ìŀĦìĽĲ</w>
ìłķë¥ĺ
tices</w>
íĺ¸íķľ</w>
lights</w>
brother</w>
ê´Ģê³ĦìĹĨìĿ´</w>
ìĿ´ë£¨ê³ł</w>
ëĴ¤ìĹĲìĦľ</w>
ë³´ìĦ¸ìļĶ</w>
ëĭĿìĿĦ</w>
ëĤ´ëħĦë¶ĢíĦ°</w>
ê°ķê²½
critic
ë¶Ħëªħíķľ</w>
clin
rd</w>
ë³´ìĹĲ</w>
ìį¨ìķ¼</w>
ìĤ´ìĿ¸</w>
ìŀ¼</w>
ì²´ëł¥ìĿ´</w>
ì¦Ŀê°ĢíķĺëĬĶ</w>
modi
ç¦
palestini
supply</w>
ï¼Ĥ</w>
êµŃë¯¼ìĿĺëĭ¹</w>
ë¹Įëł¤
newsp
ìµľìłĢìŀĦê¸Ī</w>
ìĹ°ë§Ĳ
ëª¨íĭ°ë¸Į
íħįìĤ¬
ê²ĥìĿ´ê¸°</w>
ìķ½ìĨįíĸĪëĭ¤</w>
íĶĦë¡ľê·¸ëŀ¨ìĹĲ</w>
ëıĪìĿĢ</w>
íķĦìļĶíķł</w>
ê¹Ģê´ĳ
ë§İìķĦìĦľ</w>
ëħ¸ëł¥íķĺê³ł</w>
ëª¨ìĿĺ</w>
ê±´ë¬¼ìĿĦ</w>
ìĹĲìĦľëĭ¤</w>
governor</w>
ëĤĻëıĻ
hero
task</w>
ìŀĦìĭľ</w>
ê²¬ìĿĦ</w>
tations</w>
meanwhile</w>
wo
tioning</w>
ê¹ĢìĹ°
faith</w>
ëıĦë¡ľë¥¼</w>
ê°ķíĻĶíķĺëĬĶ</w>
instruc
ëĨ¨
ë°Ķì§Ģ</w>
ì¡°ê±´ìľ¼ë¡ľ</w>
íı¬êµ¬</w>
ktëĬĶ</w>
ê²ĥëĵ¤ìĿĦ</w>
ëĿ¼ìĿ´íĶĦ
caught</w>
ëĪĦë¦´</w>
businesses</w>
magic</w>
ìĹĦì²ŃëĤĺê²Į</w>
íĬ¹íĹĪ</w>
ris</w>
ë©´ê³¼</w>
ãİŀ
ìķĦì¹´ëį°ë¯¸</w>
hate</w>
íĺ¸ìĿĳìĿĦ</w>
íĸīìłķìķĪìłĦ
ê±¸ë¦¬
ëĳĺì§¸
ëĭ¨ì²´ìĿĺ</w>
ìłĦëĭ¬íĸĪëĭ¤</w>
ìĹ¬ê¸°ëĬĶ</w>
ì¹¼ìĿĦ</w>
ìĿ¸ë¬¼ìĿ´</w>
ê¸°êµ¬
commercial</w>
íĳ¸ëĵľ</w>
íģ¬ìĻĢ</w>
ìĬ¤íĬ¸ëĬĶ</w>
íķŃë§Į
ìĺµëĭĪëĭ¤</w>
ski</w>
fis
ìį¨ìĦľ</w>
ê°ķëĤ¨êµ¬</w>
bia</w>
ë§¤ìŀ¥ìĿĦ</w>
ìľ¼ëł¤ê³ł</w>
ìĵ°ìĿ´ëĬĶ</w>
ì°°ìĿĦ</w>
ìĦłê´Ģ
è³
killing</w>
ëĤ¨íİ¸ìĿ´</w>
ì§ķê³Ħ</w>
window</w>
ëĮĢì¡°
beautiful</w>
ìĽĢì§ģìŀĦìĿĦ</w>
ê´ĳìĸĳ
æ´
íļ¨ìľ¨ìłģìĿ¸</w>
library</w>
íı¬ìĬ¤íĬ¸</w>
ì¤ĳëıĻ</w>
ëĭ¤ìĿĮìĿĢ</w>
ì¶¤ìĿĦ</w>
ìłĦë³´ëĭ¤</w>
ë¦¬ìĸ´
ment
ìķĮìķĦìĦľ</w>
owners</w>
ê±´ëĦ
gop</w>
ë¹ĦíĮĲìĿ´</w>
mine</w>
ì½ĶëĦĪ
íĭ°ëĵľ</w>
ëį°ìĬ¤
ìļ´ìĺģíķł</w>
ë³´ì¡°ê¸Ī</w>
ìĺĽëĤł</w>
finished</w>
bbc</w>
ì§ĢìłģëıĦ</w>
ë¥´ìĿĺ</w>
apped</w>
ìĪ¨</w>
ìĺģíĻĶìłľ</w>
ìŀĳìĦ±</w>
ì´Īì½ľ
ê°ĻìķĦìĦľ</w>
ëĭ´ë°°</w>
ìŀĪìĹĪìĿĦ</w>
íķĺë¥¼</w>
ëŀĺìĿĺ</w>
aìĶ¨ê°Ģ</w>
ë¹Ħìļ©ìĿĢ</w>
ë©´íĹĪ
candidates</w>
introduced</w>
ë¶Ħìķ¼ë¥¼</w>
ì¤ĳìĹĲëıĦ</w>
ìĹ´ë¦´</w>
ëª©ë¡Ŀ
íĺĪìķ¡
sher
ìĨĮìŀ¬ë¥¼</w>
xx
ìŀĦìĥģ</w>
ìĭ¶ëĭ¤ëĬĶ</w>
ìĦ±ìĿ¸
ê²½ìľł
ìĿ¼ê°ģìĹĲìĦľëĬĶ</w>
ìłľë¡ľ
ê±°ëĳĶ</w>
ë°ľê²¬</w>
hin
ë¯¼ìĥĿ
touch</w>
ì¤ĳêµŃìĿĦ</w>
ë§¤ë²Ī</w>
êµ¬ì²´ìłģ</w>
ê¸°ìĸµìĿĦ</w>
ëĭĪë¥¼</w>
ì¶ľë°ľ</w>
ëĤ©</w>
ê³µìŀĳ
ë§Īìĭľê³ł</w>
ë¬¼ê°Ģ
ë¶Ģëª¨ê°Ģ</w>
ë³´ìĹ¬ì¤¬ëĭ¤</w>
ëĤ¨ìŀĲëĬĶ</w>
ìĺ¤ë¥¸ëĭ¤</w>
íĿ¬ë§Ŀ</w>
faces</w>
ê°ĢëĬĶ
ê°ķìłľ</w>
ëıħìłĲ
ê²ĮìĿ´íĬ¸</w>
ìĦłíĺ¸íķĺëĬĶ</w>
íĥĦìĿ´</w>
ìĭľìķ¼
ìĨĮì§Ģ
ì£¼ìĹĲìĦľ</w>
ê°ķìĹĲ</w>
ìłĦìĹ¼
common
ìĭ¬ê³¼</w>
ìĺĪì»¨ëĮĢ</w>
ë¬¸ìłľëĭ¤</w>
íļ¨ê³¼ìłģìĿ¸</w>
allowing</w>
ìķĦìķ¼
ì¤Ģê³µ
discussion</w>
largely</w>
ê´ĳëªħ
africa</w>
ìĤ¬ìłķìĿ´</w>
ëı¼ì§Ģ</w>
entirely</w>
ìľłì¶ľ</w>
mayor</w>
ìĹ°ê²°íķĺëĬĶ</w>
ëıķê¸°</w>
ê°ľìĿ¸ìĿ´</w>
ì¡°êµŃ</w>
ë¯¸ì³¤
ì¹´ëĵľë¡ľ</w>
amazing</w>
reuters</w>
ìłķì±ħê³¼</w>
ëĭ¬ê³ł</w>
ìłľíĴĪìĿ´ëĭ¤</w>
íķ´ìĸĳìĪĺìĤ°
ëģĶì°į
íĨłìĿĺ</w>
ìĤ¬ìļ©íķĺë©´</w>
gon
ê±´ìłĦ
truly</w>
ë¬´ìĹĩìĿ¸ì§Ģ</w>
scientific</w>
ëŁ°ëįĺ</w>
fit
ëĬ¦ìĿĢ</w>
ë¶ĢíļĮìŀ¥ìĿĢ</w>
adop
ìĦľë¥ĺ</w>
íĥĢê³ł
ë³´ëĿ¼
ìķĪìłĦíķĺê²Į</w>
ì²ĺìĿĮìĹĲ</w>
ê³µê¸īíķĺëĬĶ</w>
funds</w>
ìĺĪìĦł</w>
complain
íĺķê³¼</w>
cells</w>
ì¡´ìŀ¬íķĺì§Ģ</w>
jr</w>
ìĤ°ìĹħíĨµìĥģìŀĲìĽĲ
ìĭľëĤ´</w>
ë°ĳìĹĲ</w>
ìĸ´ë§ģ</w>
itable</w>
doubt</w>
ëĮĢë¶Ģë¶ĦìĿĢ</w>
êµ¬ëıĻ
ë¬¼ëŁī</w>
sume</w>
ìĪľìĪĺ
íķ´ë³¼</w>
bac
ëĿ¼ìĿ´ëįĶ</w>
íĹĪëĿ½
spread</w>
ìķĪëĤ´</w>
ì°¨ìĿ´ëĬĶ</w>
íĸīíĥľ
hear
ìľłëªħíķĺëĭ¤</w>
ìłĲìľłìľ¨</w>
channel</w>
íĮ¬ëĵ¤ìĿ´</w>
agent</w>
ï¿
ëĮĢíķĻìĿĦ</w>
>,</w>
lau
ron
ìļ´ëıĻìĿ´</w>
ìĿ´ìłĦìĿĺ</w>
selling</w>
presence</w>
íĦ°íĤ¤</w>
ìĺĪìĪĺ
ë°ĶíĢ´
ìĭľì¤ĳ
ìłĢíĿ¬</w>
íĻķë³´íķľ</w>
ìĽĢìĹĲ</w>
ìķŀìĦ¸ìĽĮ</w>
ë·°íĭ°</w>
ê°ķë¦ī</w>
ë²¨íĬ¸</w>
ê°ģë³Ħ
king
ê±¸ìĿĮìĿĦ</w>
ê±±ìłķ</w>
ëĸł</w>
æł
ìłĦêµĲ
ê´Ģê³Ħë¡ľ</w>
clusion</w>
ë¶Ļìŀ¡
ëĪĦìłģ
ë§ĮíĻĶ</w>
ì¹ĻìĿĦ</w>
å½
ê³µê³ł
ëĭ¤ìĬ¤
ìĿ¼ìľ¼íĤ¨</w>
fly</w>
volun
ëĨįìĤ°ë¬¼</w>
dna</w>
sely</w>
tam
ports</w>
ìĹ°íľ´
ìĿ´ë³ĳ
ë°©ìļ¸
engine</w>
mas</w>
ìĤ°ìĭľ</w>
ì£¼ìŀ¥íķĺê³ł</w>
nba</w>
ë°ľê°Ħ
ë²ĮìĿĦ</w>
êµĲìľ¡ìĹĲ</w>
ìłľìŀĳíķľ</w>
ì¶ľìĭľíķľ</w>
ë°©ìķĪìĿ´</w>
measures</w>
entertain
ìĬ¤íħĮìĿ´ì§Ģ</w>
ë¦¬ìĦľ
ìķĺìĬµëĭĪëĭ¤</w>
removed</w>
profile</w>
ëıĻìĭľ
ë§ŀìĦľ</w>
models</w>
ê·łíĺķìĿĦ</w>
ìĭłìłľíĴĪ</w>
ìķĬëĤĺ</w>
graphi
ë°ĶìĻĢ</w>
íĿ°</w>
ì¶ľìłĦ</w>
wei
ë¹ĦìłĦìĿĦ</w>
ìĽĲìĿ¸ìĿĢ</w>
ì²ĺíķľ</w>
êµĲì°¨
ëª¸ìľ¼ë¡ľ</w>
ë²ķì¡°
íĺķíĥľë¥¼</w>
ìĦ¼íĦ°ê°Ģ</w>
isco</w>
concern</w>
ê³¼ëª©
ì´Īë¥¼</w>
ê·Ģíķľ</w>
ìĿĢíĸīê³¼</w>
oce
ë¯¸ëŀĺìĹĲìħĭ
trip</w>
ë°©ê³¼</w>
african</w>
absolutely</w>
ìĥĿëªħìĿĺ</w>
íĮĲìĿĢ</w>
ags</w>
ìºĺë¦¬íı¬
íĶ¼ìķĦ</w>
ì£¼ìĸ´ì§Ħ</w>
religion</w>
ì¤ĳìĿ´</w>
ëĮĢíĳľìłģ</w>
caption</w>
Ñģ
bin
promise</w>
ìµľê³łê²½ìĺģ
ìĻĦë£Į</w>
counter
ìĥ¤</w>
ìĿĢìĿĢ</w>
êµ¬ë§¤íķł</w>
ìĥĿíĥľê³Ħ</w>
ë°ĺìĺģíķľ</w>
íĻķìŀ¥</w>
ë°ľê²¬ëĲľ</w>
ê³¼ê±°ìĹĲ</w>
íķ´ìĸĳ</w>
ëĭ¤ì±Ħë¡ľìļ´</w>
ëĶ±íŀĪ</w>
êµĲìĪĺìĿĺ</w>
alty</w>
ìĪ¨ì§Ħ</w>
ë³´ëįĺ</w>
ìºĲë¦ŃíĦ°ê°Ģ</w>
ë°ĺíĻĺ
ì£½ìĿĮìĿĺ</w>
ì°¨ëŁīìĿ´</w>
{{{
graph</w>
quarter</w>
ìĺ¤ë¦¬ì§Ģ
supposed</w>
ë¬¼ëŁīìĿ´</w>
ì²ĺê°Ģ</w>
ëĤĺë¦ĦëĮĢë¡ľ</w>
ê¸°ì§Ģ
ì£½ìĸ´
joe</w>
ëĭ¹ìĭľìĹĲëĬĶ</w>
mexico</w>
ë©´ìłľ
ê¸°ê´ĢìĿ¸</w>
ê²½ì°°ìĦľ</w>
ìĨĲìī½ê²Į</w>
ê±°ëŀĺìĿ¼</w>
ì£¼ëĲľ</w>
markets</w>
ëĦ£ëĬĶ</w>
ìłķíķ´
ê·¸ë¦¬íķĺìĹ¬</w>
ì£¼ê°Ħ
sets</w>
ario</w>
ë¬´ëłµ</w>
ìĨĶë¡ľ
^^</w>
ìłĲê²ĢìĿĦ</w>
managed</w>
prec
êµŃìĿ¸</w>
ìĤ¬ëŀĮëĵ¤ê³¼</w>
ìĬ¤íĭ¸
íĮĮìĥĿ
ëľ¬
ê³µê³µ</w>
ê³³ëıĦ</w>
ë¯¼ì£¼</w>
ëĮĢíķľíķŃê³µ
conversation</w>
ì´ĪëĮĢ</w>
íĸĪì§Ģ</w>
ìļ´íķŃ
pr</w>
decisions</w>
providing</w>
ëĭ´ë°°
íĺĳíļĮëĬĶ</w>
ìłģìļ©ëĲľëĭ¤</w>
ìłĦëĭ¬</w>
ãħĭãħĭãħĭãħĭãħĭãħĭãħĭãħĭãħĭãħĭ</w>
ìĦ¸ìĥģìĿĺ</w>
ìłĦíĺķìłģìĿ¸</w>
ìĥģê¸Ī</w>
íĮĮíĭ°</w>
íĺ¸ë¥´
dia</w>
ìĿ¸ìĩĦ
ì¤Ģë¹Ħê°Ģ</w>
figures</w>
clearfix</w>
ìĿĮë£Į</w>
ë³´ì¶©
ìĪĺíĸīíķĺëĬĶ</w>
healthy</w>
ìĭľì¹´
è©
eat</w>
rement</w>
íļĮìĤ¬ìĹĲìĦľ</w>
íĨłê°Ģ</w>
injury</w>
ì±ħìŀĦìĿ´</w>
ìĺĨ</w>
ì¦ĪìĻĢ</w>
ìĨĮë¹ĦìŀĲëĵ¤ìĿĺ</w>
ìĤ¬ìĿ´ë²Ħ</w>
ìĿ´íķ´ë¥¼</w>
ìķĪëĲĺëĬĶ</w>
except</w>
ê±´ëĦ¤
ëĭ¤ê°ģ
ìŀĲë£ĮìĹĲ</w>
ëħ¸ëł¥</w>
ìĸ´ì¡Įëĭ¤</w>
ìŀĦì§ģìĽĲ</w>
icial</w>
ìĭľê°ĦëıĦ</w>
ë²ĶìľĦ
ëĤ´ë°Ģ
ìĹĨìľ¼ëĭĪ</w>
ìĪĺìĤ¬ìĹĲ</w>
maxim
ìļĶêµ¬ìĹĲ</w>
identified</w>
ï¼ģ</w>
ê°ĢìłĦ
ì¶ľê°Ħ
ì£¼ë¨¹
íļĮìĹĲìĦľëĬĶ</w>
ìĸ´ëĶĶìĹĲ</w>
ìĿ´ëª¨
ìĦľë¸Į
íı¬ìĬ¤ì½Ķ</w>
ìĥĲ
cultural</w>
çĦ¡
tool</w>
consci
íķŃê³µê¸°</w>
íĻľë°ľíķľ</w>
pag
believes</w>
schem
profit</w>
ìŀ¬íĻľ
ìľĦìĽĲíļĮìĹĲìĦľ</w>
ìĪį
ë¬´ìĨĮìĨį</w>
ëķĮë¬¸ìŀħëĭĪëĭ¤</w>
íķ´ê²°íķĺê¸°</w>
ho</w>
íĮ¨ìĭľ
ë²Īíĺ¸
ìŀĲëĦ¤
ìĨĮëł¨
ìłĦëĭ¹
íı¬íĬ¸íı´ë¦¬
ìłľêµŃ</w>
suc
acci
ê¸°ë»Ĳ
ìŀ¥ìłĲìĿ´</w>
ëĦ£ìĹĪëĭ¤</w>
ê¸°íļĮ</w>
angeles</w>
reform</w>
ìĹĦê²©
offensive</w>
ë¬¸ìłľëıĦ</w>
ìŀĲìłĦê±°
ìĿ¸ê°ĢìļĶ</w>
ìĮĵìķĦ
íĹ¤</w>
ìŀĲëĵ¤ëıĦ</w>
cuts</w>
ìķĦë¯¸
ëĶĶê°Ģ</w>
ëħĦìĹĲëıĦ</w>
ìĭ¤ëł¥
ìĤ°ì±ħ
ì§ĢìłķëĲľ</w>
ë§ĲíķĺìŀĲë©´</w>
correct</w>
ê°ľë°ľíķ´</w>
ìłķë¶ĢìĹĲìĦľ</w>
ëħ¼</w>
ëıĻìĦľ
ë¶Īê°Ģ</w>
ê±´êµŃ
ë¥´ë©°</w>
ê°ģê¸°</w>
ë¶ĦìĹ´
êµĲê°Ģ</w>
ê¸°ë¶ĢíĦ°</w>
ë°ĶìĹĲ</w>
ê½¤
ìĺģíĻĶê°Ģ</w>
ackno
ì½Ķë¥¼</w>
íļĮë§Ĳ</w>
íĨµìĿ¼</w>
ê²°ìłķìłģìĿ¸</w>
stered</w>
ë³´íĹĺë£Į</w>
tells</w>
ë¹ĦëĶĶìĺ¤
ê²½ëł¥
ìĦ¸ì¢ħ</w>
ëį°ìĬ¤</w>
log
stands</w>
ëĳĲë²Īì§¸</w>
êµ°ìľ¼ë¡ľ</w>
ëĤĺê¸°</w>
ê²¬ìłľ
íĹĮë²ķìŀ¬íĮĲ
ëĪĪë¬¼ìĿ´</w>
scot
ongs</w>
ì¶ĺì²ľ</w>
íĭĢìĿĦ</w>
ì§Ģíķĺì²ł
ìĭ¤ìĭľíĸĪëĭ¤</w>
íĪ¬ìŀĲíķĺëĬĶ</w>
ë§Īëł¨ëĲľ</w>
ffs</w>
ìĭ¶ìĸ´ìļĶ</w>
divi
thes
legen
íĹ¬ìĬ¤ì¼Ģ
éĩĳ
ìľłê°Ģ
territ
ë¨¹ìĸ´</w>
phones</w>
ê³łë¯¼ìĿĦ</w>
íķĻë¶Ģëª¨</w>
infra
ëĿ¼ìĿ´ë¸Į
ë°Ģì§ĳ
ê³łë§Į</w>
íĸīìľĦëĬĶ</w>
ì¶ľìĭłìĿ¸</w>
calcul
ìŀĲìĦ¸ë¥¼</w>
ì¡°ìĤ¬ëĬĶ</w>
ëıĪìľ¼ë¡ľ</w>
interests</w>
ìĿĢíĸīìĹĲ</w>
ëĬ¥ëł¥ìĿĢ</w>
failure</w>
ìĭłìĨįíķĺê²Į</w>
ë§¤ì²´
êµ¬ìĦ±ëĲĲëĭ¤</w>
êµŃë¯¼ëĵ¤ìĿ´</w>
ë²ķìĽĲìĿĢ</w>
ì°¨ìĿ´</w>
íĪ¬ê¸°
ìĹŃê³¼</w>
ìĿ´ìĤ¬íļĮ</w>
íĬ¸ëŁŃ
ê³łì¡°
ìļ©ìĿĺ</w>
ê³¼ìĭľ
ìķĦë²Ħì§Ģë¥¼</w>
ìļ©ìĿĦ</w>
ìķĦìī¬ìļ´</w>
ë¬´ëĮĢìĹĲìĦľ</w>
íı¬ìĬ¤</w>
íĨłíĬ¸
birth</w>
ê³³ê³³ìĹĲìĦľ</w>
ìķĦë¥´íĹ¨
strength</w>
ê°ķëł¬íķľ</w>
ëĮĢíĳľìĿ´ìĤ¬</w>
ìĭ¤ìłľë¡ľëĬĶ</w>
wher
ë³´ìĿ´ì§Ģë§Į</w>
accept</w>
ì´Īë°ĺìĹĲ</w>
ìĦłìĪĺë¥¼</w>
surroun
íıŃíĸī
ëĤ¨ìŀĲìĿĺ</w>
ìľłìĥģ
ëĤ´ìļ©ìľ¼ë¡ľ</w>
ì¶ĶìĦ¸
sign
ë¶ģë¶Ģ
ìĤ¬ìļ©ìĿ´</w>
ë°Ľìķĺëĭ¤ê³ł</w>
ê¸°ìĸ´
turing</w>
ëĭ¨ê³ĦìĹĲ</w>
ë²łìĿ´ì§ķ
ìĥģìĦ¸</w>
ìĭłìĨįíķľ</w>
ëĨĴìĹ¬</w>
ìĹŃíķłìĿ´</w>
ë¶Ģë¥¸</w>
twice</w>
reci
ìĭłì¶ķ
ëĹ
broken</w>
survey</w>
ambi
ìĭ±ê¸Ģ
ëł¹ìĿĺ</w>
ëĬĶëĭ¤ë©´</w>
ê³µìłľ
ìĥģíĴĪìĿĢ</w>
fell</w>
ë§Īëĥ¥</w>
íĺĳìĹħ
ìłķì±ħìĿĢ</w>
exclusi
ìķĪìłķìłģìľ¼ë¡ľ</w>
ëĭ¹ìĦł</w>
skills</w>
íĻĶìłľë¥¼</w>
ë§ĲìĿĺ</w>
ê°Ģêµ¬ê°Ģ</w>
íıŃíĥĦ</w>
ìĤ°íķĻ
ìħĢë¡ľ
sm</w>
íĦ°ë¯¸ëĦĲ</w>
rout
ìĹŃíķĻ
ê³µê¸°</w>
lived</w>
ê¹Ģë³ĳ
ì¹ĺë§¤
tend</w>
ëıĦì§Ģ
ìĭ¼
ìľłê´Ģ
teen</w>
relations</w>
ì°įìĸ´
lte</w>
ìĿ¼ê³ł</w>
íķĺëĤĺìĹĲ</w>
ìĿĺìķ½íĴĪ</w>
ìĿĺìĽĲê³¼</w>
íĥĢìĿ´ë°į
ìĿ´ìģĺ
ê°ģìŀĲìĿĺ</w>
ìľĦìĽĲìŀ¥ìĿĺ</w>
skíķĺìĿ´ëĭī
suggest</w>
âĤ
ìĬ¤íĬ¸ê°Ģ</w>
anda</w>
åł
ìĨĮíĺķ
ìŀĦëĮĢ</w>
ì¶ľìĭłìľ¼ë¡ľ</w>
alternative</w>
ìĭľìŀĳëĲľëĭ¤</w>
íķľìłķ</w>
ëķ¡
fuel</w>
ìĥĿê¸´ëĭ¤</w>
ê³łë¦¬</w>
ë²łìĿ´ìĬ¤</w>
ìľłë¦¬</w>
ê¾¸ì¤Ģíķľ</w>
richard</w>
ê³µì£¼
íĬ¹ë¡Ģ
asia</w>
spokesman</w>
ëĶ´
ì£¼ìħĶìĦľ</w>
ìłĦìłľ
ëĤĺìĿ´ìĹĲ</w>
ì¤ĳëĮĢíķľ</w>
ìĹ¬ëĭ¹</w>
ì§±</w>
ê´ĢíķĺìĹ¬</w>
ìľłíĺ¹
ìĿ´ìĺ¤</w>
íĮĲìĹĲìĦľ</w>
ëģĿëĤĺë©´</w>
ìĿ¼ë°©ìłģìľ¼ë¡ľ</w>
ì§ģìĽĲìĿĦ</w>
ske
ìĹĲê¹Įì§Ģ</w>
ìķĬëĭ¤ê³ł</w>
ê¸°ê°ģ
flow</w>
íļĮìłĦ</w>
íĥľìĸ´ëĤĺ
ë¬´ê±°ìļ´</w>
ì§ĳê¶Į
ë¯¸ë¡ľ</w>
crowd</w>
ìĸĺê¸°ê°Ģ</w>
ìļ°ë¦¬ëıĦ</w>
íĶĦëłĪìŀĦ
ìĭ¬ìĹĲìĦľ</w>
ëĤĺëĪĦëĬĶ</w>
íĨµìłľ</w>
ëª©íı¬
standards</w>
seconds</w>
ìķĦë¥´íĹ¨íĭ°
ê°ľë§ī</w>
íĳľìĭľ</w>
ë¬´ìĹĩë³´ëĭ¤ëıĦ</w>
ëª¨ë¹Į
award</w>
ìĿ¼ìĸ´ëĤł</w>
ëºı
íĥĢìľ¨</w>
ì¡°ìĦ±ìĿĦ</w>
ê±´ìĦ¤ìĿ´</w>
ê°ľìĻĢ</w>
ê¸°ëĮĢê°ĲìĿĦ</w>
ìĦ¼íĦ°ìĹĲ</w>
ìĤ¬ìĿ´ëĵľ</w>
statis
êµŃê°Ģë¥¼</w>
ìłķìĦ±
ë¯¸ìķ¼
ìĺ¤ìĬ¤</w>
ssing</w>
ì¸¡ìĹĲìĦľ</w>
ê³µë¶Ģ</w>
ìĹ°ëĤ´</w>
height</w>
amend
ìķĮì½Ķ
ê¸īíŀĪ</w>
ëĶĶìķĦ
ëĬĲëĤĢ</w>
humans</w>
sin</w>
download</w>
ëĤĺìĺ¬
ìĭłíĺ¼
ê°ĢìĬ´ìĿĦ</w>
ë§Įê¸°</w>
ì§ĳì¤ĳìłģìľ¼ë¡ľ</w>
ëĮĢëĭ¨íķľ</w>
êµĲê³¼ìĦľ</w>
íĺķìĹĲ</w>
interpre
ë¹ĮëĶ©
ëİħ</w>
ìĿ´ëĵ¬
ìłĢì§Ģë¥¸</w>
ç¤
elements</w>
ìĸ¼êµ´ë¡ľ</w>
condition</w>
ìĿĺìĽĲëĵ¤ìĿĢ</w>
homes</w>
ëĦĪíĿ¬
ìĿ´ìĪľ
ìľ¼</w>
íķĺëĦ¤ìļĶ</w>
ìķĪíĥĢë¥¼</w>
ìĪĺìĦĿ</w>
íĮ¬ëĵ¤ìĿĢ</w>
ì²´ê²°íĸĪëĭ¤</w>
ê³µìĭĿìłģìľ¼ë¡ľ</w>
íķĺì£ł</w>
íĹĿ
ë°ľìĥĿíķĺì§Ģ</w>
ìĹĪìľ¼ëĤĺ</w>
ë¯¼ì£¼ëħ¸
ë³ĳìľ¼ë¡ľ</w>
ê²½ê³¼</w>
ë³¸ìĿ¸
ë§Įìľ¼ë¡ľëĬĶ</w>
ë³´ì¡°</w>
bly</w>
ëĦ£ìĸ´
ìĿĺìĭĿìĿ´</w>
ë°ľìĤ¬</w>
ìłķë³´ëĬĶ</w>
stopped</w>
murder</w>
ì©¡
dor
ë¨¹ì§Ģ</w>
ìķĹ</w>
nership</w>
slow
ê°Ģëĭ¤</w>
experts</w>
ãĢı(</w>
ìĿ´ë§ĪíĬ¸</w>
ìŀĲìľłë¡ľìļ´</w>
ê´Ģíķł</w>
ìĽĲëıĦ</w>
ìķ¼ìĥĿ
ìķ±ìĿĦ</w>
ì¤ĢìĿ´</w>
ìľ¡ìķĦ
ìĹĦë§ĪëĬĶ</w>
ì¢ħìĹħ
ìĭ¤ìłķìĿ´ëĭ¤</w>
íĽĦìĨį</w>
ìĸ´ë¥´ìĭł
steph
ëĭ¤íķł</w>
ê°¤ëŁŃìĭľs</w>
ìĿ´ìľ¤
ì§ĢíĤ¤ê¸°</w>
ìłľê³µíķ´</w>
ë¬¸íĻĶìŀ¬</w>
íķłìĪĺ</w>
íķ´ëĭ¬ëĿ¼ê³ł</w>
thou
ëĮĢíĳľë¡ľ</w>
mc</w>
valu
ê¹¡
ì¢ħì¡±
eth</w>
custo
ê°ĢìłĦ</w>
ìľłê³µ
ë¶ģíķľìĹĲ</w>
..?</w>
ì§ĢëĤĺê°Ģ
ìĿ¼ìĿ¼</w>
ì¡´ìŀ¬ë¥¼</w>
ë¬¼ë¦¬</w>
ëĺĳëĺĳ
ìĦľëªħ
ëıĮìķĦê°ĢëĬĶ</w>
ìĭłë¬¸ìĿĢ</w>
íķĺìŀĲê³ł</w>
ëŁ¬ë¸Į
ìĽĲíĶ¼
ìĬ¤ìľĦìĬ¤</w>
ì¹ĺë£Įìłľ</w>
ìĤ¶</w>
ìĹ°ë§¹
ë¦¬ê·¸ìĹĲìĦľ</w>
orial</w>
fresh</w>
tree</w>
bis
ë§Īê°Ĳ</w>
ì¶ľìĭľíĸĪëĭ¤</w>
possibly</w>
advanced</w>
ì°©ê°ģ
committed</w>
ìĭľê°Ģì´Ŀ
ìĹ°ê³Ħíķ´</w>
ìłĲìĿ¸</w>
mìĿĺ</w>
ãģĤ
ë°ĽìķĦëĵ¤ìĹ¬
lies</w>
âĸ¼</w>
increasing</w>
ë§ĪìĿĮìĿĢ</w>
doctor</w>
ìĿ´ëĮĢ
ëĭĪìĻĢ</w>
ë¤ĺëĭ¤</w>
ancing</w>
ìłľë²ķ</w>
íĹ¤ëĵľ
ë¹Ķ
êµŃë¹Ħ</w>
íĭ°ìħĶ
ìĪĺì£¼</w>
wave</w>
ë°Ģíķĺê²Į</w>
ìŀĲë¦½
ìłĢì§Ī
ìĺ¬íķ´ë¶ĢíĦ°</w>
ëĨĪìĿ´</w>
íĹĮë²ķ</w>
ìłĦìĦ¤</w>
ì²łíļĮ
ë¦ŃìĬ¤</w>
ìĿ¼ë¶ĢëĬĶ</w>
ê³µê²©ìĿ´</w>
ìĸ´ëĶĶìĦľ
ìĤ°ìĹħìĿĢ</w>
dish</w>
originally</w>
ëĮĢìķĪ
ìĿĺìĽĲëĵ¤ìĿ´</w>
íıīì°½</w>
íķĺì²ľ
ìĺ¤ëįĺ</w>
ìĦ±ìłģìĿ´</w>
ì§ĢëĤĺë©´</w>
ìĺ¤ë¡ľì§Ģ</w>
ë°ĸìĹĲìĦľ</w>
ì¤ĳíĻĶ
ëĭ¬ë¦¬ëĬĶ</w>
ì¹´ë©ĶëĿ¼
ê°ķíĻĶíķ´</w>
ë³¸ë¶Ģìŀ¥</w>
refuge
ìĤ¬ê±°ë¦¬</w>
wars</w>
ì§ĢìľĦë¥¼</w>
ëĵ¤ìĸ´ìĻĶëĭ¤</w>
å£
eastern</w>
ë²ķìĽĲìĹĲ</w>
set
ìĿĮìĿĺ</w>
íĥĢìĪĺ</w>
ëĩĮ</w>
ëłĪë¥¼</w>
íŀĺëĵ¤</w>
ìĿ´ìĶ¨ëĬĶ</w>
ë¯¸ìħĺ</w>
hasn</w>
ê²°ìłķìĿ´</w>
ìķĬê²łëĭ¤</w>
ì¤Ģëĭ¤ëĬĶ</w>
ê¸¸ëŀĺ</w>
assault</w>
ìºłíķĳ
ìĨĮë¬¸ìĿ´</w>
alu
íĶĮëłĪìĿ´ìĸ´
ì²«ë²Īì§¸</w>
ë³´ê°ķ
ìĭ¤ìĭľê°Ħìľ¼ë¡ľ</w>
olic</w>
ìĿ¸ê°ĦìĿĦ</w>
ì°©ê³µ
ìĭľì¼ľìķ¼</w>
ëĤ´ë¶ĢìĹĲ</w>
ë¶Ģë¬¸ìĿĺ</w>
ë°©ë²ķìĿ´ëĭ¤</w>
ìī¬ëĬĶ</w>
specifically</w>
ìĿ´ëĿ¼ìĿ´
ë²ĦëĬĶ</w>
ë®¤ì§ģ</w>
ì§Ģë°©ìĦłê±°</w>
domestic</w>
êµĲë¶Ģ
obvious</w>
gers</w>
íıŃìľ¼ë¡ľ</w>
eled</w>
sanc
ìĿ¸íĦ°ë·°ë¥¼</w>
circum
author
êµ¬íķł</w>
ë§Īëł¨íķł</w>
ìĺ®ê²¨</w>
íĳ¼
å¤©
íĴĪìĹĲ</w>
ëıĦë°ķ
ì°¨ì§Ģíķľ</w>
íķĺëĤĺìĶ©</w>
ë¡ľìĽĮ
effec
sounds</w>
?!</w>
color
ìĨĮë¹ĦìŀĲìĿĺ</w>
ìķĮìķĺëĭ¤</w>
ìļ°ë©°</w>
ë§ĮëĤ¨
ials</w>
lying</w>
exist</w>
ê±¸ë¦¬ëĬĶ</w>
ê°ĴìĿĢ</w>
ì¤ĳìĪľ
íİ¸ìĹĲìĦľ</w>
ìĿ´ìĤ¬ìŀ¥</w>
ëª¨ëĳĲë¥¼</w>
ì¤ĳìĿ´ë©°</w>
eding</w>
íĺĦìĥģ</w>
coff
ìŀĶëľ©</w>
íĥ¬
ì¡°ìĦ¸
ë³´ë¡ľ</w>
ë²Ħê·¸</w>
ì§ĢìĽĲíķ´</w>
ìĿĮë£Į
ì§ģìĽĲìĿĺ</w>
ê°Ģìŀ¥
ëħĦë³´ëĭ¤</w>
ëįĶëŁ¬</w>
feels</w>
ë²łë¥¼
ìĪľìľĦ
ÑĤ
êµ¬ë¦¬
ë¹ĽëĤĺëĬĶ</w>
ëĤľìĿ´ëıĦ</w>
êµ°ìĤ¬</w>
ëĭ¬ëŀĺ
ìĦłìłķíķ´</w>
ìĭ¤íĮ¨</w>
ì£¼ìĤ¬
lgìłĦìŀĲëĬĶ</w>
ì£¼ê±°</w>
ë°ľìĸ¸</w>
ëĤĺë¦Ħ</w>
tiny</w>
sale</w>
amazon</w>
ëĸłëĤĺëĬĶ</w>
festiv
bes
ë¶ĻìĹ¬
now
ë£¬
ìĭľìĦ¤ê³¼</w>
íļĮê³Ħ</w>
ìĭłìľ¼ë¡ľ</w>
ê½ī</w>
ìĤ¬íĥľë¡ľ</w>
ì§Ħìĭ¤
ë§ĮìĽĲìĿ´</w>
ìĺĢìĬµëĭĪëĭ¤</w>
ë°Ķìģĺ
ãģį
íļįê¸°
ìļ©ìĦľ
ë¬¼ë¥ĺ</w>
íĮĮìļ´
ì²Ńêµ¬</w>
fellow</w>
ì²ŃìĿĦ</w>
ë°ľëĿ¼
operating</w>
ë²ĮìĿ´</w>
êµŃìłķìĽĲ</w>
ìĦ±ê²©</w>
legi
relatively</w>
íĻĶìłľê°Ģ</w>
ux</w>
ìĤ¬ëŀĮìľ¼ë¡ľ</w>
ìĬ¤íĬ¸ëłĪìĬ¤</w>
ìĿĺë¯¸ìĹĲìĦľ</w>
ë¥´ëħ¸
íĽĦíļĮ
oled</w>
rain</w>
ëĤłì§ľ
lh</w>
ë¹ĦêµĲ</w>
ë¶ĦìĦĿíķ´</w>
graphic</w>
ëª¨ìĿĺ
ë¯¼ìĦł</w>
ì½ĶìĿ¸</w>
appropriate</w>
bad
filed</w>
ìķĦëĤ´ê°Ģ</w>
íķĺëĬĺ</w>
ëª°ëŀĲëĭ¤</w>
ìĹ¬ìĦ±ìĿĢ</w>
ëį°ìĿ´ë¹Ħ
)-</w>
ìĤ¶ìĹĲ</w>
ìķĦë¦Ħëĭµ
ê³ĦìĹĲìĦľ</w>
ëĨįêµ¬</w>
ìĺ¬ë¦¬ë©°</w>
ìĤ¼ê³ł</w>
convic
ìĦ¤ì¹ĺíķ´</w>
boston</w>
ê³¼ìŀ¥
spective</w>
ì¢ĭìķĺëĭ¤</w>
íĮ¨íĦ´</w>
ults</w>
ìĿĮê³¼</w>
corru
ìĪĺëĭ¹</w>
ëĭ¨ìľĦ
urban</w>
ja
organizations</w>
ÑĢ
ìķĪìĦ±
slightly</w>
internal</w>
ê¸°ëĭ¤ë¦¬ëĬĶ</w>
ìŁĪ
ë²ĪìĿĦ</w>
ìĹ¬ê±´</w>
magazine</w>
ì¤Ģë¹ĦíĸĪëĭ¤</w>
conclu
ìĿ´ìĸ´ì§Ħ</w>
ê°ķíĻĶíķł</w>
ì¤ĳëĮĢ
ìĺĪê¸Ī
ë¥´ì§Ģ</w>
íĥĢìļ´
ìŀĦê¸°</w>
ìķĮëł¸ëĭ¤</w>
sides</w>
ê¸°ëĤĺ</w>
ìĺ¤íĶ¼ìĬ¤</w>
Ð¾Ð
regarding</w>
ê°ľìµľíĸĪëĭ¤</w>
ê·¸ëŁ°ì§Ģ</w>
ìŀĲê²©ìĿĦ</w>
íĸ¥ìĥģ</w>
íĺķíĥľ</w>
ìłľê¸°ëĲĲëĭ¤</w>
ìľ¼ëł¤</w>
ìĦ¸ìĥģìĹĲìĦľ</w>
íķ´ìĿĺ</w>
ìĭľíĤ¤ì§Ģ</w>
ì»¨ëĶĶ
ì§ĳíķ©
ìĨĮíĨµìĿĦ</w>
apply</w>
ê°ĢëĵĿíķľ</w>
spar
ìĹĪê¸°</w>
ìĿ¸ìłķíķĺê³ł</w>
ì§ĳì°©
ìłķíĸĪëĭ¤</w>
ë§ĮëĤĺê²Į</w>
partner</w>
ìĭłëĭ¤</w>
shir
husband</w>
ìĦľë¥ĺë¥¼</w>
ìĿĺë¬¸
ë³´ìĿĺ</w>
ìĸ¸ìĿ´</w>
expensive</w>
ìĤ¬ìļ©ìĿĦ</w>
ì¤ĳêµŃìĿ¸</w>
ê±¸ìĿĮ</w>
starts</w>
ì§Ħë¡ľ
ìľ¼ë¡ľìĦľëĬĶ</w>
ê¸įìłķìłģ</w>
winter</w>
ìķłê°Ģ</w>
ëĪĪë¬¼
êµĲìľ¡ë¶Ģ</w>
ìĤ¼ìĦ±ìłĦìŀĲê°Ģ</w>
tough</w>
ë¹ĽìĿĺ</w>
ls
ê°Ĳì¶ķ
ë©Ķëª¨ë¦¬</w>
ìĤ¬ë§Ŀíķľ</w>
ìĤ´íĶ¼
ìĭľìłĲìĹĲ</w>
ë°ĺìĿ´</w>
íĻĢëĶ©
ê°ĢìĤ°
ê¸°ì´Ī</w>
ê¹Įë´Ĳ</w>
ìĿ´íķĺë¡ľ</w>
ê°Ĳìĺ¥
tn
ìĨĲìĭ¤</w>
gene
ê°Ĳìłķ</w>
useful</w>
fundam
?ãĢį</w>
exist
ëŀŃíģ¬</w>
paying</w>
ëĭ¤ë©´ìĦľ</w>
ì§ĢìĹŃë³Ħ</w>
relev
êµ¬ìĤ¬
íģ¬ë¦¼</w>
ìĽĲìŀĲëł¥
ìĿ´ê¸¸</w>
ë°ĺì§Ŀ
ìĿĺê²¬ëıĦ</w>
pression</w>
ìłģìĹĲê²Į</w>
ì¶ķìĨĮ</w>
ìļ°ìķĦ
script</w>
ê¸°ìķĦì°¨</w>
íĨłë¦¬</w>
íĥģìĽĶíķľ</w>
ê±°ìļ¸
ìŀĪìĹĪìľ¼ë©°</w>
ìŀĦë¬´ë¥¼</w>
votes</w>
ëĬĲëĥĲëĬĶ</w>
ë°ĺë°ķíĸĪëĭ¤</w>
ê¸°ë¡Ŀíķ´</w>
miss
ê³łëł¤íķĺë©´</w>
ì¦Ĳê²ģê²Į</w>
ë°°ëŁ´
ëĵ¤ë©´ìĦľ</w>
íıŃë°ľ</w>
ì²łìłĢíķĺê²Į</w>
ìłķíĨµ
variety</w>
ìĺĪìłĦìĹĲ</w>
ë¶Ĳ
ìĹĪìĸ´ìļĶ</w>
ben</w>
ìĹŃìĦ¤
ê¶Įëł¥</w>
taxes</w>
ê½¤ëĤĺ</w>
"[</w>
ì¶¤</w>
ë°°ìļ°ê³ł</w>
ë²ĮìĿ´ëĬĶ</w>
vement</w>
talks</w>
ëĬĲëģ¼ê²Į</w>
ëĩ¨</w>
ì¶ľë§Īë¥¼</w>
ì¤Ģë¹Ħíķľ</w>
ì»¤ë®¤ëĭĪíĭ°</w>
ëĤĺíĥĢëĤł</w>
ì£¼ìŀ¥íķľëĭ¤</w>
connected</w>
êº¼ëĤ´
ìĪĺì§ģ
íİĺìĿ´</w>
pire</w>
-></w>
ë²Ļ
familiar</w>
ë§ĮëªħìĿĦ</w>
ìłĦë¬´
ëįĶë¸Ķ</w>
ë¬¸ìĦľ
ë¬¼ê³ł</w>
ìĹĲì½Ķ
ì²´ìłľ
ë¹¨ê°Ħ
ìĬ¤ìĬ¹
ì£¼ìĿĺìĻĢ</w>
ìĪĺëĭ¨ìľ¼ë¡ľ</w>
cel
arrived</w>
ìľłëıħ</w>
ì¶ķìłģ
ìłľêµŃìĿĺ</w>
íŀĪìĸ´ë¡ľ
ìĤ¼ì§Ħ</w>
ìłĦëĤłë³´ëĭ¤</w>
ìĿ¼ìĪĺë¡Ŀ</w>
ìĭ¤íĹĺìĿĦ</w>
ìĭľë¯¼ìĿ´</w>
ìĪĺì°¨ë¡Ģ</w>
ëĭ¨ê³ĦëĬĶ</w>
privacy</w>
ìķĮëłĪ
ë¬´ëĿ¼</w>
fed</w>
íŀĲë§ģ
ì¶ĶíĽĦ</w>
basically</w>
ëĵľë¡ľ
ìĭ¬ìĹĲ</w>
ëĲĲëĬĶëį°</w>
ìĤ¬ë¬´ìĭ¤</w>
ì°¾ìķĦë³¼</w>
ìłľê¸°íķľ</w>
íĶĦë¦¬</w>
ëıĻìľ¼ë¡ľ</w>
ìĭĿìĤ¬
steve</w>
ëĭ¤ë¬¸íĻĶ
ì°¸ìĤ¬</w>
íķĦìļĶëĬĶ</w>
ì§ĢìłĲ</w>
ìķĬìĿĦ
videos</w>
íķľë§ĪëĶĶë¡ľ</w>
ëıĻìĿ¼</w>
ìĦ±íĺķ
edul
ìĥģìĭľ</w>
ìŀ¬íĮĲìĹĲ</w>
ìĥģíĴĪìĿĺ</w>
ê°Ģê²©ìľ¼ë¡ľ</w>
wild</w>
ì±ĶíĶ¼ìĸ¸</w>
ìľĦíķ´ìĦľëĭ¤</w>
ìĦ¸ëł¥ìĿ´</w>
íĺ¸íĿ¡ìĿĦ</w>
tra</w>
íķĻìĥĿê³¼</w>
ëĿ¼ìĿ´íĶĦ</w>
ìĬ¹ì§Ħ
ê°ĢìĬ´ìĹĲ</w>
íĹĪë¦¬
ëĵľëł¤
ê°ĲìķĪíķ´</w>
tally</w>
ìłģìľ¼ë¡ľëıĦ</w>
atically</w>
________________
prepa
ì§ĢìĹŃê³¼</w>
ë¶Īê³¼íĸĪëĭ¤</w>
ix</w>
ë¬¼ì§ĪìĿĦ</w>
ëĸ¨ìĸ´ì§Ī</w>
ìłģìłķ
íı¬íķ¨ëĲĲëĭ¤</w>
íĻķë¥łë¡ľ</w>
ê¸°ê´Ģìľ¼ë¡ľ</w>
ìĿ¸ìŀ¬ë¥¼</w>
ì¤ĳê¸°
bigger</w>
ìĨĮëĵĿìĿ´</w>
ìĨĲê°ĢëĿ½
deplo
ëĵ¤ìĸ´ìĦľëĬĶ</w>
ë¶Ħëĭ´
ìķĦìī½
ì°¸ëª¨
ìĺ¤ë©´ìĦľ</w>
ë³¸ìĦł</w>
emergency</w>
ë¨¸ë¦¬ì¹´
êµ¬ì¡°ê°Ģ</w>
íĳ¸ëĵľ
ìĤ°ìľ¼ë¡ľ</w>
ìĹ°ì¶ľ</w>
matt
ì¹¨ì²´
ìķķì¶ķ
neither</w>
ìķīìĿĢ</w>
tx</w>
ì¡°ìĸ¸íĸĪëĭ¤</w>
ë¯¸êµŃìĿĦ</w>
ë¦°ìĿĢ</w>
ì¸¡ê·¼
ë°ľìĥĿíķľëĭ¤</w>
ides</w>
ìĸ´ê¹¨ë¥¼</w>
ëĭ¤íģĲ
hair</w>
íĨłë¦¬
pack</w>
ê³łì§Ģ
ìļ´íĸī</w>
ë§¥ëĿ½
defensive</w>
ê¹ĢìĿ¼
hero</w>
ë¹ĦíĮĲ</w>
ì°¸ìĹ¬íķĺê³ł</w>
ota</w>
ê¸°ìĨĮ</w>
astic</w>
ê¶ĮëıĦ</w>
íĽĪìĿĢ</w>
ìĹĲê²Įë§Į</w>
ëĤ¨ë¶Ģ</w>
ëĭ¤ìĭľíĶ¼</w>
schedul
ìķīìķĺëĭ¤</w>
syrian</w>
ìļ°ìĬ¤
units</w>
ì¶©ìłĦ</w>
holds</w>
ê²°ê³¼ë¡ľ</w>
ìĤ¬ìĦľ</w>
ìľłíĺķ</w>
íİ¼ì³Ĳì§Ħëĭ¤</w>
asing</w>
ìĺĪìģľ</w>
ëĤ¯ìĦł</w>
ìľłìĺĪ</w>
ê¹ĢìĪĺ
jac
íĨłë¡ł</w>
ìĿ´ìĽĲ
impossible</w>
ì§ĢìĭĿ</w>
ë¶ĪìĮį
ìĤ¬ìĿ´ë¡ľ</w>
ìĺ¤ìĬ¤íĬ¸
ìĿ¼ìĥģ</w>
ì²Ńì¶ĺ
posts</w>
ìŀĪê²łì§Ģë§Į</w>
losing</w>
ìłģëĮĢ
noon</w>
ìĿ¼íķĺê³ł</w>
ëª¨ìĬµìĹĲ</w>
ëĮĢìĽĲ
capacity</w>
ìĿ´ê¸°ëĬĶ</w>
ë¶Ģëª¨ìĿĺ</w>
ì§ĢìĽĲê³¼</w>
ê°ľìĿ¸ìłģìĿ¸</w>
ìķĮìķĦ</w>
ë°ľíĳľíķł</w>
ì§Ħìĺģ</w>
ê°ľìĦłìĹĲ</w>
attle</w>
íļĮìĤ¬ë¡ľ</w>
ìĿ´ëį°
ìĬ¤ëŁ½ê³ł</w>
ë°Ķë¥´ìħĢë¡ľ
ìłĦëĿ½
ëħ¸ìĦłìĿĦ</w>
ë¬¼ê°Ģ</w>
íģ¬ë¦¼
ëł¹ìĿĢ</w>
ìłĦì²´ìłģìĿ¸</w>
ìĦ¸ê³Ħê°Ģ</w>
íıīìĸĳ
ri</w>
ìłĦíķĺëĬĶ</w>
helping</w>
íĻķë³´íķł</w>
ëĵłëĵł
ê·¼ì²ĺìĹĲ</w>
ì§Ħìĺģ
êµ¬ì¶ķìĿĦ</w>
ìĸ¼ë¥¸</w>
êµŃê°ĢëĮĢíĳľ</w>
ìļĶìĿ¸ìĿ´</w>
ìŀħëĭĪê¹Į</w>
íĻķìĤ°ìĿĦ</w>
ìķĦíĮĮíĬ¸ë¥¼</w>
ìĪĺìĪĺ</w>
âĢ¦"</w>
consol
ãħ¡</w>
lake</w>
êµ¬ìĦĿ
simul
developers</w>
ìľłëĤĺìĿ´
ìĬ¹ë¬´
serving</w>
ìĹ¬ë¶ĢëĬĶ</w>
rare</w>
ìŀĲìĤ¬</w>
ìĿ´ëĭĪ
ìĹĪìĸ´</w>
ê±°ì£¼</w>
ì°¨ë¶Ħ
factor</w>
sty</w>
ì´ĿíļĮ</w>
twee
ì²Ńìķ½</w>
ìĥģìĦ¸
fixed</w>
faced</w>
rying</w>
vali
ìłĪì°¨ìĹĲ</w>
ëħ¸íķĺìļ°ë¥¼</w>
ë²¤ì²ĺ</w>
ê¸°ìĨĮëĲľ</w>
ìĹ´ì°¨</w>
ìĸ´ìĥī
ê²ªìĿĢ</w>
ìłķëĭ¹íķľ</w>
ìĤ¬ì§ĦìĿ´</w>
ìĤ¬ì¿ł
ëĤĻì°°
soldiers</w>
yards</w>
ëĵľë¦´</w>
íķĻêµĲìĻĢ</w>
sd
ëĭ¨ìŀ¥</w>
ìŀ¬ì°¨</w>
ìŀĳíĴĪìĿ´ëĭ¤</w>
toronto</w>
senator</w>
ìĤ¿
ê¸°ëĮĢíķł</w>
ë¯¼ì£¼ëĭ¹ìĿĺ</w>
ê°ĢëĤľíķľ</w>
ë¶Ħê³¼</w>
ìĦłìĪĺëĵ¤ìĿĢ</w>
ê°ĢëģĶ
ìĪĺìĥģíķľ</w>
ìķŀìĦľ
ë°©ì§Ģë¥¼</w>
ìĤ°ìĹĲìĦľ</w>
ë§ĪìĿĦìĿĦ</w>
ìĨĮíĻĢ
ìĺ¨ìĭ¤
nit
anci
ëıĻìķĪ
ìĶ¨ëıĦ</w>
seeking</w>
ëĴ¤ìĹĲëĬĶ</w>
ëĿ¼ëĶĶìĺ¤
íķłìĪĺë¡Ŀ</w>
ë¬´ìĿ¸
íĺĦìŀ¥ìĿĺ</w>
ìĨĮë¦¬ë¡ľ</w>
ì§ĳìĿĺ</w>
ìĹ¬ë¡łì¡°ìĤ¬</w>
íģ´ë¦¬ìĸ´</w>
íĻķìĿ¸íķĺëĬĶ</w>
moon</w>
ìĽĢì§ģìŀĦìĿ´</w>
ëĤĺëĪĦìĸ´</w>
ëĶĶìķĦ</w>
ìĹ°íķ©íļĮ</w>
ê°ĵ</w>
íĮĮìĹħ</w>
positions</w>
ëĪĦêµ°ê°Ģ</w>
elections</w>
ìĿ´ìĬ¤ëĿ¼ìĹĺ</w>
ìĦłëıĦ</w>
ë£¨ìĿĺ</w>
ê°ķìĹ°
ë§ĮëĤĺê³ł</w>
ìĤ´ë¦¬
index</w>
ìĽĲê²©
appearance</w>
ì¡°ìĦłìĿĺ</w>
ìłĦìļ©ë©´ìłģ</w>
ìĭľíĤ¤ë©°</w>
ìŀĶìĿĦ</w>
paris</w>
ë°ľíĳľë¥¼</w>
ë²Įìĸ´ì§ĢëĬĶ</w>
document</w>
ëĤĺì¹´
arab
ìĦ¸ìĥģìĿ´</w>
ì£¼ëĭ¹</w>
íĹ¤ìĿ´
ìĺ¤ê¸°</w>
ëĶĶë¥¼</w>
ìĿ´ìĻ¸ìĿĺ</w>
ë°ĿíĺĢ</w>
ëĶ¸ìĿ´</w>
ë¯¼ê°Ĳ
ëĭ¹ìĭłìĿĦ</w>
shift</w>
ìķĦìĿ´ìĬ¤íģ¬
ìķŀìľ¼ë¡ľëĬĶ</w>
voting</w>
ìłĦìķ¡</w>
chairman</w>
ê³¼ìŀ¥</w>
intended</w>
fired</w>
ìĨĮê·¹
ë§ĮìĽĲìĿ´ëĭ¤</w>
ìĹĩ</w>
ìŀĲìĹ°ìĿĺ</w>
ìĭ¤ì§Īìłģìľ¼ë¡ľ</w>
accounts</w>
ì¡°ì°¨ëıĦ</w>
ë°Ķë¥¼</w>
ìŀĲê°Ģ
ìķĦëłĪ
ìĿ¸ìłķíķĺëĬĶ</w>
grand
ìĭľìĬ¤íħľìĿĢ</w>
tournam
ìľ¡êµ°</w>
ìŀĲìĿ´ìĸ¸
responsibility</w>
ìŀ¬íĮĲìĿĦ</w>
íģ¼
ìľłëĬĶ</w>
ëĸ¨ìĸ´ì§Ģ
åĩ
ìĥĿê°ģíķ©ëĭĪëĭ¤</w>
ìĭłëıĦ
íİ¸ìĦ±</w>
ë¯¸ìĻĢ</w>
íļĮìŀ¥ê³¼</w>
ë¶ĢíļĮìŀ¥</w>
ìłĦíĻĺìĿĦ</w>
shape</w>
åŁ
ìķ¼ìĻ¸
lord</w>
ê°ĢìĿ¸</w>
ê±°ëĮĢ</w>
ë²ĪìĿ´</w>
ìĭľíĤ¨
ëļľëł·íķľ</w>
ì°¸ê°Ģíķľ</w>
ìķ½ê°ĦìĿĺ</w>
ë°Ķì§Ģ
les
ë°ĿíŀĪê³ł</w>
ëįĶëŁ¬
ì¢ĮìłĪ
ì£Ħë¡ľ</w>
ë¸Ķë¡Ŀ</w>
weather</w>
ìĳ¥
ê°ľìłķìķĪ</w>
íľ©ìĭ¸
satis
applications</w>
getty</w>
åĤ
notic
ë©Ķëĭ¬</w>
ìĦ¤ë¦½ëĲľ</w>
ìŀĪìĸ´ìĦľëĬĶ</w>
eag
ë²Įìĸ´ì¡Įëĭ¤</w>
ëĸłëĤ¬ëĭ¤</w>
ì§Ħì£¼
ëĭ¬ê°Ħ</w>
ëĺĲëĭ¤ë¥¸</w>
ign
ìĦ±ìĭ¤
ìļ©ìĿĢ</w>
ì·¨íĸ¥
íķľêµŃìĸ´</w>
ìĿ´ìĤ¬ìŀ¥ìĿĢ</w>
ì£¼ë¬¸íĸĪëĭ¤</w>
ëĤ´ëħĦëıĦ</w>
eld</w>
ê²Ģìĥī</w>
ë°ľìĥĿíķĺê³ł</w>
studio</w>
ëįĶìĬ¤</w>
ìļĶì²ŃìĿĦ</w>
ëĨĴìķĦì¡Įëĭ¤</w>
revolution</w>
ì¥Ĳ</w>
ìļ°ê¸°</w>
ìļĶìķ½
êµ¬ì§ģ
ëĶ¸ìĿĦ</w>
íķĺê³¤</w>
drin
coast</w>
ë·Ķ
ëıĮìķĦìĻĢ</w>
ìķĦëģ¼ì§Ģ</w>
skin</w>
chi
estimated</w>
ëıĹ
sitting</w>
ê¹Ģì¹ĺ
facts</w>
ë¯¸ìĪłê´Ģ</w>
âĨĲ</w>
ìłķëıĦë©´</w>
ì¶Ķì§ĦìĿĦ</w>
ë¬¼ëł¤
ê´ĳì£¼ìĭľ</w>
ìĥĿê°ģëıĦ</w>
ìłĪì°¨ê°Ģ</w>
carbon</w>
ìłľê¸°íĸĪëĭ¤</w>
poll</w>
ë¶Ģìľł
ê°ĲìĿĺ</w>
íļ¨ìľ¨ìłģìľ¼ë¡ľ</w>
ìĹħë¬´ìĹĲ</w>
ì²´ê³ĦìłģìĿ¸</w>
ìķĮìķĦìķ¼</w>
êµ¬íķĺëĬĶ</w>
orders</w>
oecd</w>
ê°ľìµľíķľëĭ¤</w>
êµ¶
filled</w>
ìĨĲíķ´ë¥¼</w>
fill</w>
ìłľëª©</w>
ìĦ¸ë¥´
íĭ°ë¥¼</w>
ê³ĦìĻĢ</w>
ìĹ¼ëł¤
gather
ìµľê³łìľĦìĽĲ
ìĦľêµ¬
ì°ľ
ìĿ´ìĿµìĿ´</w>
fifa</w>
ìĺģìĥģìĿĢ</w>
ê°ľìĦ±ê³µ
ìĻłì§Ģ</w>
oli
ìŀĳìĿĢ
ëķĮëł¤
ëĳĲë¡ľ</w>
ê¸°ìĦ±
ìī¼
sit</w>
ê°Ģì§ľ</w>
íĸĪìľ¼ëĭĪ</w>
ìĿ¼ìĸ´ëĤ¬ëĭ¤</w>
ìĽĢìĿĢ</w>
elim
elected</w>
ì´¬ìĺģìĿĦ</w>
ë§ĳìĿĢ</w>
ê´Ģê³ĦìĿĺ</w>
ê²Ģì¦Ŀ</w>
çľ
ê¸°ìĤ¬ê°Ģ</w>
ìĹ¬ìŀĲìĿĺ</w>
ìłĢë¦¬</w>
throw</w>
ê²¬ìĿ¸
secure</w>
ë¬´ëį¤
ìĭ¶ëĭ¤ë©´</w>
íĪ¬ìŀĲëĬĶ</w>
ìĿ´ìĹĪìľ¼ë©°</w>
currency</w>
ìĬ¤ì¼ĢìĿ´
âīª</w>
ìĺ¤ë¦¬</w>
íĻĶìĦ±</w>
ì°¨ë¦¼
ì¿łë¥´
ëŀĢìĿ´</w>
ìłĦìĤ°
ë°¤ìĿĦ</w>
ì½Ķìĸ´</w>
ìĤ°ìĹħìĹĲ</w>
âĶģâĶģ
Â²</w>
ëľ»íķĺëĬĶ</w>
anger</w>
quarter
ìĿ´ìļ©ìŀĲ</w>
ë£¬ëĭ¤</w>
ìĥģíĴĪê¶Į</w>
íĻĺìŀĲë¥¼</w>
ìĤ¬ëĿ¼ì¡Įëĭ¤</w>
ìķ¡ìĦ¸
ì»¨ìĨĮìĭľ
ìķĦê¹Į
ëª¨ëį¸ìĿ´</w>
ì£¼ìĿ¸ìĿ´</w>
ìļ°ë¦¬ëĤĺëĿ¼ëĬĶ</w>
ìŀĪê¸°ìĹĲ</w>
happening</w>
ìĨĮë¹ĦìŀĲê°Ģ</w>
ìŀĲê²©</w>
ê¸°ëħĲíķ´</w>
ê°ĢëıĻ</w>
teen
ëªħíĴĪ
ë°ľíĸī</w>
ëĶ°ë¥´ëĬĶ</w>
ìłģìļ©íķł</w>
ëķĮìĻĢ</w>
ìĿ´ë£¬</w>
íĸīë³µìĿĦ</w>
ìĹĲìĿĺ</w>
ëıĦëĳĳ
ëĭ¹ëĩ¨
ìŀħìĤ¬
âĹĭâĹĭ</w>
ìļķë§Ŀ
ëĮĢìłĳ
ìĨĮíĶĦíĬ¸</w>
ëªħìĶ©</w>
ìĥ·</w>
ìľłìĦ±
ëĤ©ì¹ĺ
py</w>
ìłķíķł</w>
ê¿°
ë°ķìĤ¬ëĬĶ</w>
ìĿ´ì²ľ
ì£¼ìŀ¥</w>
developing</w>
Ã¡
ìĺ¤ì¼ĢìĬ¤íĬ¸
ëĵ¤ê»ĺ</w>
íĬ¸ëĿ¼</w>
ë¶Ħìķ¼ëĬĶ</w>
ìĿ¸ë¬¼ìĿ´ëĭ¤</w>
ìĿ´ëŁ´</w>
ìĿĺë¯¸íķĺëĬĶ</w>
ìķĶìĤ´
suggests</w>
percent
sc</w>
kin</w>
facing</w>
íĭ°ê°Ģ</w>
íĶĮëĿ¼ìĬ¤íĭ±</w>
ëļ«ê³ł</w>
íĳľì¤Ģ</w>
kbo
decide</w>
ì¡Įê¸°</w>
ëıĦëıĦ</w>
ìĸ¸ìłłê°Ģ</w>
íĶĦëłĪìŀĦ</w>
ë¶Īíİ¸íķľ</w>
ëĨįê°Ģ</w>
carried</w>
increasingly</w>
ì¡¸</w>
ìĿ´ë²ĪìĹĲëıĦ</w>
ìĺģëıĻ
íıīìĿ´</w>
ë¨¹ìĹĪëĭ¤</w>
íķĺê¸°ìĹĲëĬĶ</w>
íķ¨ìľ¼ë¡ľ</w>
ìĨĮíĶĦíĬ¸ìĽ¨ìĸ´
ìķĦì§ģìĿĢ</w>
ìĬĪíĥĢ
ë¦¬ëĵ¬
âĢ¤</w>
ì¹´ëĿ¼
ìľłì§ĢíĸĪëĭ¤</w>
oughly</w>
ums</w>
ãĤ¹
gation</w>
ìĥĿíĻľìĿĺ</w>
ì´Ľë¶Ī
ëĮĢì¶©</w>
ë¡ľìĹĲê²Į</w>
ì¶ĶìĤ°
ìłģìļ©íķľ</w>
ë©ĶìĿ¸
closer</w>
íĪ¬ìŀĲìĹĲ</w>
íĬ¹ì§ķìĿĦ</w>
ê´Ģíĸī
ëĶĶë°ĶìĿ´
ì¡°ê±´ìĿ´</w>
ê³¡ìĿĺ</w>
ì£½ìĿ´
ê°ķì¡°íķľ</w>
íĨµì¹ĺ
ìĿ´ìĻ¸ìĹĲ</w>
ome
ìĤ¬ìĹħìŀ¥</w>
íĻķë³´íķĺê³ł</w>
ìĤ´ë¦¬ê¸°</w>
ì§Ģìłģ</w>
ì£¼ìĨĮ</w>
íĬ¸ë¦¬</w>
ë²¤</w>
ëĭ´íķľ</w>
swi
limit</w>
íķľëĳĲ</w>
ë¶Īíİ¸ìĿĦ</w>
sons</w>
ë§īìĥģ</w>
ì¢ħìľ¼ë¡ľ</w>
gel</w>
ë¹ĮëĶ©</w>
ì¶ľëł¥
ìĿ¸ëªħ
recru
ë§ĮëıĦ</w>
ëĭ¬ëŁ¬ìĿĺ</w>
character
ë¶Ģìĥģìľ¼ë¡ľ</w>
ê³łìĤ¬
ëĦĺê¸°
owned</w>
ìŀĲë¦¬ë§¤ê¹Ģ
ìļ©ìĹŃ</w>
ìĪłìĿ´</w>
pical</w>
ë°©ìķĪìĹĲ</w>
ãħĭãħĭãħĭãħĭãħĭãħĭ
asks</w>
ê¸°ë³´ëĭ¤</w>
democracy</w>
ë¯¸ìĪł</w>
ride</w>
dram
ëĥĪê³ł</w>
ud</w>
(?)</w>
ìłĦìĿ¼</w>
íĻĺê²½ìĹĲìĦľ</w>
ëĵľëŁ¬ëĤľ</w>
ìĿĺìķ½íĴĪ
ìĺ¤ë¸Į
ë¯¸ëĦ¤
alco
ë§ĽìŀĪëĬĶ</w>
ìĿ¼ì°¨</w>
ll
ìħĺê³¼</w>
ë¯¹ìĬ¤</w>
jor
ë¯¼ì¤ĳ
ìĿ¼ìĿ¼ìĿ´</w>
ëģĿëĤĺëĬĶ</w>
ìĬ¤íĬ¸ìĿĺ</w>
ìłķë³´ìĿĺ</w>
icide</w>
ëĲĺê²ł
solve</w>
ëĿ¼ëĶĶ
ìłĦêµŃìłģìľ¼ë¡ľ</w>
íĨµíĻĶìĹĲìĦľ</w>
ìĨĮìŀ¥
âĺħâĺħ
francisco</w>
ë³ĢìĿ´</w>
ë°ĺìĤ¬
ì¶ľìĹ°íķľ</w>
ëĵ±ë¡ĿìĿĦ</w>
ìłĦìĿ¼
ëĦĪëıĦ</w>
ìķĦëŀį
ìŀĲíļĮìĤ¬</w>
ê¸°ìĸµ</w>
sector</w>
ìķĦìĿ´ëĵ¤ìĹĲê²Į</w>
plane</w>
íĮ¨ìĬ¤</w>
ìĨĮìĭĿ</w>
ì°¨ëŁīìĿĺ</w>
ë¨¹ê¸°</w>
íĪ¬ëªħíķľ</w>
ëª¨ìĸĳìĿĺ</w>
ìĿ´ê³³</w>
ìĥģíĴĪìľ¼ë¡ľ</w>
jan</w>
ìŀĦë¬´
ìĥĪë§ĪìĿĦ
ì«ĵìķĦ
íĻĺìĬ¹
ìłľëıĦëĬĶ</w>
ìĿĢìĿ´</w>
academ
íĬ¹ìłķíķľ</w>
íİ¸ìķĪíķľ</w>
ì£¼ë¨¸ëĭĪ
ë§ĪìĿ´íģ´</w>
mers</w>
dary</w>
remove</w>
ë°°ìļ´</w>
ë°ķìĺģ
ì§ĢìĽĲìĦ¼íĦ°</w>
ë©Ģë¦¬
ëıĦì°©íķľ</w>
ìĪĺëĭ¨</w>
ìĥĿìĿ¼</w>
gotten</w>
ê¼¬ì§ĳ
ì§Ģì£¼</w>
ë¶Ģì¶Ķ
íĮ¨ëŁ¬ëĭ¤
ìłķíķ´ì§Ħ</w>
ìĤ¬ë¡ĢëĬĶ</w>
êµĲíļĮìĿĺ</w>
ìĿ´ëħ¸ë²łìĿ´
ê¸Īìķ¡ìĿ´</w>
ê¹¨ëģĹíķľ</w>
hotel</w>
íķĺì§Ħ</w>
ê°Ģêµ¬ë¥¼</w>
ë°Ķìģľ</w>
pieces</w>
ì¤ĳìŀ¬
ìĭłíķĻ
ì±ħìĹĲ</w>
conduct</w>
archit
íİ¸ì§ĳ</w>
cloud</w>
íı¬íķ¨ëı¼</w>
ìłģãĨį
rose</w>
ëĭ¨ì²´ëĬĶ</w>
ìĨĮìĭĿìĹĲ</w>
ìķķëıĦìłģìĿ¸</w>
mbc
ë³ĳìĿĢ</w>
íĦ°ìĻĢ</w>
ê°ķì¢Į
ëĭ¬ìĦ±íĸĪëĭ¤</w>
ìłķê¶Į
kur
ìĿ¼ìľ¼íĤ¤ëĬĶ</w>
íķ´ëªħíĸĪëĭ¤</w>
ìĭ¬ëıĦ</w>
ìĹ¥</w>
ì²Ńìŀ¥ìĿĢ</w>
ìĿ´ìĸ´ìł¸</w>
ê¸°ìĺ¨ìĿ´</w>
ìŀĲëĵ¤ìĹĲ</w>
ë²ķìĽĲ
ìĭľì¯¤</w>
íľ´ìĸĳ
ìĹ´ìĹĲ</w>
ë³ĢíķĺëĬĶ</w>
preven
íĶ¼ë¶Ģë¥¼</w>
ë²Įê¸Ī</w>
íĬ¼íĬ¼
ë°ĺìĿĳ</w>
ëł¸ëĭ¤ê³ł</w>
ìĶ¬
ìĿ´ë£¨ìĸ´ì§ĢëĬĶ</w>
bringing</w>
ë°Ģëł¤</w>
frame</w>
ëıĦìŀħìĿĦ</w>
êµ¬ìĦ±ìĿĦ</w>
ìĬ¤ìĬ¤ë¡ľë¥¼</w>
ì¤ĢìĿĺ</w>
ìĺ¤íĤ¤
ìĿ¼ìĹĲëıĦ</w>
ëĤłë¶ĢíĦ°</w>
storm</w>
ë³µê·Ģ</w>
ëĵ±ìĤ°
ëĭĺê»ĺ</w>
ìĽĥìľ¼ë©°</w>
edition</w>
po</w>
ìļ©ìĿĺ
ê°Ģì¹ĺëĬĶ</w>
ëıĻíĻĶ
ë°°ìļ¸</w>
ê¸°ëĮĢê°Ģ</w>
ëł¸ëĭ¤ëĬĶ</w>
ìµľìłģìĿĺ</w>
ìĻĶìĬµëĭĪëĭ¤</w>
ê³łì§ĳ
dj
ëĵľë¡ł</w>
everybody</w>
ì§ĢëĤľíķ´ë³´ëĭ¤</w>
ìķĦêµ°</w>
possibility</w>
ì¢ĭê²ł
ëģ¼ê³ł</w>
ë¦¬ëįĶ</w>
ê³µê²©ìĹĲ</w>
ìĸ´ëĸ»ê²Įëĵł</w>
ìĿ´ìĥģìĿĢ</w>
ìŀĲìĭłëĵ¤ìĿ´</w>
ìĹīëį©
,,
ì»¤ì¡Įëĭ¤</w>
suv</w>
ìĽĲì¹Ļ</w>
ëĤ´ìĪĺ
("</w>
ìĪĺìĥģíĸĪëĭ¤</w>
ut</w>
ìķĦë¥´ë°ĶìĿ´
ë§ĮëĮĢ</w>
ìĤ¬ëŀĳìĿ´</w>
ëĦ¤ëįľëŀĢëĵľ</w>
ê·¼ê±°ê°Ģ</w>
ê³Ħìķ½ìĿ´</w>
ìĤ¬ìĽĲ</w>
ì¦Ŀê°Ģíķł</w>
ìĤ¬ìĹĲê²Į</w>
ìĺ¤ëłĮ
resc
ì§Ħíĸīíķ´</w>
victim</w>
êµ°ìĪĺëĬĶ</w>
dropped</w>
ìĿ´ë¦ĦìĿĺ</w>
ìľĦì¹ĺíķ´</w>
íĥĢìłĲ</w>
creative</w>
ìĭłíĺ¸</w>
ìŀ¥ê¸°ìłģìľ¼ë¡ľ</w>
ë¹ĦíĬ¸</w>
ê²Ķ
dency</w>
ìĭ¸ìļ°ëĬĶ</w>
ìĤ´ëł¤</w>
ìĤ¬íļĮìĻĢ</w>
ìŀ¬ê°ľë°ľ</w>
bits</w>
,[</w>
ê±¸ê¹Į</w>
forming</w>
outs</w>
ê²½ìłľìĦ±ìŀ¥
ìĸ»ê¸°</w>
íķ©ìŀĳ
schol
ëľ»ìĿ´</w>
surprise</w>
ens
ê²°ìĿĢ</w>
shots</w>
ëľ»ìľ¼ë¡ľ</w>
ë¹ĦìĬ·íķĺëĭ¤</w>
box
íĭĢìĸ´
íĹĪìľĦ</w>
ìŀĲëĿ¼ê³ł</w>
anch
ëªħëł¹</w>
ìļ°íĺ¸
íı¬ë¥´íĪ¬
íĻĺìĥģ
imf</w>
íĶ¼ëĭĪ
ë¹Ħìľł
ì¤ĦìĿ´ê¸°</w>
ë§¤ì§Ħ
ëĬĶê±¸</w>
ìĺģìĹħìĿĦ</w>
íĳ¹</w>
ë°°ìĭł
íĶĦë¡ľê·¸ëŀ¨ìľ¼ë¡ľ</w>
íĻķìĭ¤íķĺê²Į</w>
ìķĦëĤĺìļ´
ëĵľë¦¬ê³ł</w>
ê¸°ëĭ¤ëł¤
ëį°ë¯¸ì§Ģë¥¼</w>
ãĦ±</w>
greatest</w>
ê°Ģì§Ģê°Ģ</w>
íı¬ëıĦ
pages</w>
ê¸°íķľ</w>
ê°ķì¡°íķĺëĬĶ</w>
ìĹŃìĦ¸
ê±¸ëł¸ëĭ¤</w>
bp</w>
ìĦ¤ë¹Ħ
ì£½ëĬĶ</w>
ìĤ¬ëŀĳìĹĲ</w>
ìĪĺëł¹
ìĭłìĦłíķľ</w>
ìŀ¬ëĤľ</w>
ìĩ¼íķĳëª°
powers</w>
ìĻĢìĿ¸</w>
ì·¨íķł</w>
ê¸īìĿĺ</w>
ëĬĲëĤĢëĭ¤</w>
cs
ost</w>
guaran
ëŁ¿</w>
ãħłãħłãħł</w>
ìĿ´ë³´ëĭ¤</w>
ë°ľìĿĺ
ëª©ìłģìĿ´</w>
ìŀĲìķĦëĥĪëĭ¤</w>
ìĺ¤ìĬ¤
ê°ĦìĿ´</w>
ë³´ìĹ¬ì¤Ħ</w>
bles</w>
solid</w>
ëĭ¤íĪ¼
ìĹħì²´ìĻĢ</w>
ë°°ëĭ¬</w>
ë³µë¬´
ë°©ìĨ¡ìĹĲ</w>
length</w>
ëĤĺëĿ¼ìĹĲ</w>
depu
ìĿĦìĪĺë¡Ŀ</w>
ëĨĵìĹ¬</w>
ê°ķìłľë¡ľ</w>
agencies</w>
classic</w>
ë¹Ħì¹ĺ
ìĦłìĸ¸íĸĪëĭ¤</w>
welcome</w>
ë³Ģíĺķ
æĿİ
ìµľìĨĮíķľìĿĺ</w>
ìĤ¬ê±´ê³¼</w>
ê³łëł¤íķł</w>
ìĿ´ëĦ¤ìļĶ</w>
êµĲìľ¡ê°Ĳ</w>
íĬ¸ëŀĺ
ìľĦìĦ±
ë³µìĿ´</w>
ìĪĺíĸī</w>
ìĹ°ìĿ¼</w>
íľ´ëĮĢìłĦíĻĶ</w>
ìĭłëħĲ
dani
ìłĢì¶ķìĿĢíĸī</w>
ë´¤ìĿĦ</w>
ë©¸ë§Ŀ
ë¸Įëłī
ëĤĺìĿ´íĬ¸</w>
ìĹĺë¦¬ë²łìĿ´
package</w>
íĬ¹ë³Ħë²ķ</w>
íĺĦìĭ¤ìłģìľ¼ë¡ľ</w>
unfortunately</w>
ê³±</w>
ê´Ģë£Į
pin
considering</w>
ìĪľìĪĺíķľ</w>
ìĽ¹</w>
ìĹĲëĤĺ</w>
ì·¨íķĺê³ł</w>
ë¯¸íĿ¡
ë©ľë¡ľ
ëĮĢíļĮê°Ģ</w>
ìłĦê³µ</w>
zi</w>
ëĭ¤ìłĢ
ë³¸ìĿ¸ìĿĢ</w>
ìĭľìľĦë¥¼</w>
ìĬ¤íı°
ãħİãħİãħİ</w>
ëĭ¹ìľ¼ë¡ľ</w>
ë´ħëĭĪëĭ¤</w>
ê±°ìĦ¸
ìłľì¹ĺê³ł</w>
sphere</w>
updated</w>
ë¿Ķ
metal</w>
stadi
glass</w>
ì¦Ŀìĭľê°Ģ</w>
ëĨĴìĹ¬
ë³´ì¦Ŀ</w>
signs</w>
jum
êµ¬ëıĦ</w>
equip
ë§ĿìĦ¤
ìĨįíķĺëĬĶ</w>
ìĨĮìĬ¤</w>
íķĺê²łì§Ģë§Į</w>
íķĺê°Ģ</w>
ìĦ¸ëł¥</w>
ìļĶìĿ¸ìľ¼ë¡ľ</w>
virgin
ìŀĦìĽĲ
íİľ</w>
ìĿ¸íĦ´
tele
ìµľíĽĦìĿĺ</w>
ëľ»íķľëĭ¤</w>
ë¦¬ìĬ¤íģ¬</w>
crew</w>
ìĿ¸ì¢ħ
ìĺĪë°©ìĿĦ</w>
ë¯¼ìĿĦ</w>
ìŀĲëŀĳíķľëĭ¤</w>
ëªħìłĪ</w>
ë§Īëł¨íķĺê³ł</w>
ë©Ķëī´</w>
panel</w>
ìłĦìŁģìĿĺ</w>
ë¶ĢíĦ°ìĿĺ</w>
ì°¸ìĿĦ</w>
ëĸłìĺ¬ëŀĲëĭ¤</w>
ëłĪìĸ´</w>
ë°±ìĿ´</w>
ìĸ¸ë¡łìĹĲ</w>
ìĬµëĭĪ
guide</w>
methods</w>
ì½ĶëłĪ
sue</w>
films</w>
ì»¤ì§Ī</w>
ë°Ķëĳĳ
ãİĿ</w>
ìĿĺë¯¸ëĭ¤</w>
ìĺĨìĹĲìĦľ</w>
ë§ŀë¬¼
pictures</w>
ë§Ĳë¶ĢíĦ°</w>
streets</w>
ìłķíķ´</w>
ëıĻë°ĺ</w>
ìłķìĿĺëĭ¹</w>
ìĸĳê·¹
ëª»ì§Ģ
ìľĦê¸°ê°Ģ</w>
ë³¼ìĿĦ</w>
ä¾
ëĮĢì¹ĺ
ìĹ´ìĩł
ìłĢìŀĲëĬĶ</w>
íĻĶìŀ¥ìĭ¤</w>
ëıĻíĺ¸
ìĹł</w>
ë°©ìĸ´ëł¥</w>
íĮĲìľ¼ë¡ľ</w>
philosoph
ë¶ģë¶Ģ</w>
ê·Ģê°Ģ</w>
ì»´íį¼
bn
ìĿ´ìĬ¬ëŀĮ
ìķŀëĭ¹
ì¡°ë¦½
listen</w>
ë²¡
ê´ľì°®ìĿĢ</w>
íĨłìļĶìĿ¼</w>
ëĤ´ìļ©ìĿ´ëĭ¤</w>
êµŃíĨłë¶Ģ</w>
êµŃìĸ´</w>
ì´Īê³¼</w>
jack</w>
alex
êµŃíļĮê°Ģ</w>
íĮĢê³¼</w>
ê·ľì¹Ļ</w>
ìłķìľł
ëıĮê³ł</w>
ëĦ¥ìĦ¼
ëªħíĻķíŀĪ</w>
ìĹħê·¸ëłĪìĿ´ëĵľ</w>
ë°Ķëĭ¥</w>
ëĤ´ìļ©ê³¼</w>
íĻĺìľ¨
ìĦ±ëĤ¨</w>
roman
ìŀĲìĭłë§ĮìĿĺ</w>
ìļĶìĨĮ</w>
reference</w>
rom
ìĭ¬ë¦¬</w>
ìĿĢê·¼
íİ¸ìĿĢ</w>
ìŀ¥ìĦ±
ìłĦëıĦ</w>
ëª¨ë¦¬
ë²ĪìĶ©</w>
ìĸ´ëĬĲìĥĪ</w>
ëĭµë³ĢìĿĦ</w>
êµŃìķħ
ìļĶêµ¬íķľ</w>
ìĬµìĿĦ</w>
ì£½ê³ł</w>
muse
leagues</w>
ëıĦìĭľìĹĲ</w>
ìĸ´ëłµê³ł</w>
ìĤ¬íķŃìĿ´</w>
alleged</w>
ê²½ì°°ìĦľëĬĶ</w>
ìĺ¬íķ´ë¡ľ</w>
ê¹Ĭê²Į</w>
íĬ¹ê²Ģ
ê·¸ê±°
ëĤĺíĥĢëĤ´ê³ł</w>
one
ë°©íķ´</w>
ê°ľìŀħ</w>
ìŀĺíķĺëĬĶ</w>
?âĢĻ</w>
ìľłìĤ°</w>
db</w>
html</w>
ëĭ¤ìĭľëĬĶ</w>
ìĭ¬íĻĶ
ëĤ¨íķ´
ì§ĳíĸī</w>
ìŀ¬ë£Įë¥¼</w>
íķ©ìĿĦ</w>
ìĸ´ëĶĶë¡ľ</w>
ìµľê·¼ìĹĲ</w>
ëĨĴëĭ¤ëĬĶ</w>
seriously</w>
carolina</w>
ì²Ńëł´
ëĮĢíķĻìĹĲìĦľ</w>
ëŁ¿
seat</w>
ë³ĳìĽĲìĿĢ</w>
ìĿ´ëģĮìĹĪëĭ¤</w>
ì§ĳëĭĪëĭ¤</w>
ë¯¼ì¡±ìĿĺ</w>
walking</w>
ì§ĪìĿĢ</w>
ëªħìĿ¸</w>
discrimin
cycle</w>
ì£¼ìĸ´</w>
ìĻĶìĿĦ</w>
youth</w>
button</w>
ìĦ±ìŀ¥ëıĻ
ê³µê¸īìĿĦ</w>
cooper
ero
ìĿ¸ëį°ëıĦ</w>
ê°Ģì¦Ī
ê¸°ìĽĲ
lh
ìĿ´íĺķ</w>
ë°ĶëŀįëĭĪëĭ¤</w>
ãĥ©
ê±°ë¦¬ë¡ľ</w>
life
equipment</w>
ìļĶê±´ìĿĦ</w>
ìļ°ìľĦë¥¼</w>
ìĺĲ
ãħĭãħĭãħĭãħĭãħĭãħĭãħĭãħĭãħĭãħĭãħĭ</w>
ì¶ľíĺĦ
ìĹĲë²Ħ
ìĥĿìķł</w>
íı¬íĨł
equal</w>
ìłĦëħĦëĮĢë¹Ħ</w>
ê¸įìłķìłģìľ¼ë¡ľ</w>
ìĥģíĸ¥</w>
ê³¡ìĿĢ</w>
ìĤ¶ìĿ´</w>
íķľê°Ģ</w>
ê·¸ëŁ¬ëĭ¤ê°Ģ</w>
ë¶Ħë¦¬</w>
ëıĻìĽĲíķ´</w>
ull</w>
ìĤ¬ìļ©íķĺìĹ¬</w>
ìĸ´ëł¤ìĽĮ</w>
tvn</w>
íķĺëĬĲëĿ¼</w>
jen
ëħ¸íĽĦ</w>
justi
ìłĦëıĦ
ë¬´ìĹĩìĿ¸
ë°ķìĦ±
diag
íĤ¨ëĭ¤</w>
ë°ĶëĬĶ</w>
vulner
íĺľíĥĿìĿ´</w>
ëįĺìł¸
williams</w>
íķĺìĿ´ë¸Įë¦¬ëĵľ</w>
infrastructure</w>
presented</w>
.-</w>
ëıĮëł¸ëĭ¤</w>
copy</w>
ë²ķìłķ</w>
extreme</w>
ìĤ¬ëŀĮìĿ´ëĭ¤</w>
stress</w>
ìĭľëĦ¤
íĶĦìĻĢ</w>
twe
ê·¸ì¤ĳ</w>
íķ´ë³´ê³ł</w>
ëĮĢìĿĳíķĺëĬĶ</w>
ìłĢê²©
ìĭľìŀ¥ìĹĲìĦľëĬĶ</w>
bodies</w>
catch</w>
ëĤ¨êµ¬</w>
ìĹ°ê·¹</w>
íĶĮëłĪìĿ´ë¥¼</w>
ìĬ¤íħĶ
universe</w>
select</w>
comfortable</w>
ê³łê°Ŀëĵ¤ìĿ´</w>
ìłľê¸°ëĲĺê³ł</w>
ìĭłìĿ¸
ì£¼ìĿĺìĹĲ</w>
íĤ·</w>
êµŃë¯¼ìĹĲê²Į</w>
ë¦¬ì¡°íĬ¸</w>
remin
ëĥĦìĥĪê°Ģ</w>
ê¸°ìŀĲëĵ¤ê³¼</w>
pically</w>
ìŀ¥ê¸°ê°Ħ</w>
íĮ¬ëĵ¤ìĹĲê²Į</w>
ì¡ĮëĬĶëį°</w>
êµ¬ì¡°ì¡°ìłķ</w>
ê±¸ê·¸ë£¹</w>
íľ´ê°Ģ
ë¸Ķë¡Ŀì²´ìĿ¸</w>
ë¡ľê·¸
ëĪĦêµ¬</w>
member
ëĮĢì±ħìĿ´</w>
ìŀħì§Ģ</w>
fts</w>
ëĭĮëĭ¤</w>
ëª¨ëĳĲìĹĲê²Į</w>
ê¸ĪìľµíĪ¬ìŀĲ
ëª°ìŀħ
ìĻ¸ë¬´
ê³µì¡´
affected</w>
house
ëĭ¨ìĨį</w>
ì´Īë¡Ŀ
revenue</w>
ëĤ¨ê¸°ê³ł</w>
sleep</w>
ìĭłíĥģ
coordin
ëĮĢìŀ¥</w>
ìŀĲìĤ°ìĿĦ</w>
sad
ê³łìłķ</w>
ìŃī</w>
íİĢëĵľëĬĶ</w>
ìĭľíĸīëł¹</w>
ëĤľìĿĦ</w>
ëĮĢëıĦ</w>
ìĭľë¦¬ìķĦ</w>
ë§ĲëĿ¼ê³ł</w>
ê°ĢëĬ¥íķĺëıĦë¡Ŀ</w>
ì§ĢìĽĲìĤ¬ìĹħ</w>
ì£¼ìŀ¥ìĿĢ</w>
íĻľëıĻíķĺê³ł</w>
ì§ľì¦Ŀ
ìĪĺì¤ĢìĿ¸</w>
ë©Ķìĭľì§Ģ</w>
cal</w>
ëĦĵê²Į</w>
iii</w>
treated</w>
ëĮĢê°Ģë¡ľ</w>
ìĦ¸íĬ¸ë¥¼</w>
ìĥģìŀĲ</w>
íĸĪëįĶëĭĪ</w>
ëıħë¦½</w>
íĪ¬ìĬ¤</w>
kings</w>
ë¶Ģê·¼
ì£¼ë©´ìĦľ</w>
ìĦłìĪĺë¡ľ</w>
ëĤĺê°Ģìķ¼</w>
ì²łìĿ´</w>
ìĦľìĿ¸ì§Ģ</w>
êµŃëıĦ</w>
ìĥĿê°ģíķľ</w>
ë¶Ģìŀ¥ìĿĢ</w>
ì£¼íķľ</w>
ë³´ê³łë¥¼</w>
expec
ë°ķì°¨ë¥¼</w>
guess</w>
ìĨĮë¹ĦìŀĲëĵ¤ìĿ´</w>
íķĺëıĦ
ìĭľìĽĲíķľ</w>
kie</w>
ìłķêµĲ
ëª¸ìĿĺ</w>
ìķ¼ê°Ħ
determined</w>
factors</w>
ìłľìŀĦìĬ¤</w>
ë¡ľê·¸</w>
ìĺĪìłķìĿ´ë©°</w>
ìĿ´íĸī</w>
ì¦ĿìĹ¬
ì¢ħìĿ´
ì¢ĭëĭ¤ê³ł</w>
vehicles</w>
ê¸°ë¡ĿìĿ´</w>
plate</w>
ìļĶì¦ĺìĿĢ</w>
íĽĦì§Ģ
giant</w>
ë°ĺë©´ìĹĲ</w>
ê³µíĻĶëĭ¹</w>
ëıĦíĭ°</w>
ë§¨ëĤł</w>
ëĭ´ë°°ë¥¼</w>
ê³µìĿĢ</w>
apps</w>
ê°ĢëĬ¥ìĦ±ìĹĲ</w>
thor
íĮĮê²©
ìĬ¤íĨ¤
íģ¬ìĹĲ</w>
ë¤¼
ìĭłì²Ńíķł</w>
ê±¸ë¦´</w>
íĪ¬ìŀħ</w>
ëĭ¤ëħĶ
ì²´ëł¥
ìĭľê¸°ê°Ģ</w>
ê°ĲëıĻìĿĦ</w>
íĽĦë³´ìŀĲëĬĶ</w>
ë¯¸íķľ</w>
ì²ľìŀ¬
ìĻĶì§Ģë§Į</w>
plenty</w>
íļĮëıĦ</w>
íİ¸ìĿĺë¥¼</w>
ìĿ¸ë¬¼ë¡ľ</w>
ìľłìłĦìŀĲ</w>
respond</w>
ìĸ»ê²Į</w>
é»
ë¦°ìĿĺ</w>
wealth</w>
ì£¼ê°Ģ
ë¯¸ëĤĺ
ë°©íĨµ
ê²¬ìĿ´</w>
íĥľíıīìĸĳ</w>
ìĹ°ë£Į</w>
ìľ¡ë°ķ
ë§Īëĵľë¦¬
ìŀ¬ë²Į
isation</w>
ìĹ°íıīê·ł</w>
êµ¬ìĦ±ëĲĺìĸ´</w>
ë¹¨ê°Ħ</w>
ìłķìĦľ
governments</w>
ìĿ¸ë¬¸
ìľ¤ìĦĿ
ê°ĢìĿ´ëĵľëĿ¼
ëĤ´ë©´ìĦľ</w>
ë¯¸êµ°</w>
ë§¤ë¦½
íĻľëıĻìĿĢ</w>
ìĥĿíĻľìĿ´</w>
ìłľê³µëĲľëĭ¤</w>
cath
violent</w>
íĺĦíĻ©ìĿĦ</w>
íĦ°ë¦¬</w>
ìħĢíĬ¸ë¦¬
prepared</w>
ìĭ¤ìĭľíķĺëĬĶ</w>
ë§İëĭ¤ëĬĶ</w>
ìĿ´ìĸ´ìķ¼</w>
nobody</w>
ë¡¬</w>
ê°Ģëĵľ</w>
ê°Ģë©´
ãģĦ</w>
%.</w>
prove</w>
íķĺëĥĲ</w>
ëįĶíĸĪëĭ¤</w>
ë¯¸ìĬ¤íĦ°
ì¹¨íķ´</w>
ìĬ¤ìĹĲê²Į</w>
sta</w>
ìĩ¼íķĳëª°</w>
ë°ľìĹĲ</w>
ìĪĺë¹Ħ</w>
ìĽĶê³¼</w>
ê³µê°ĦìĹĲ</w>
ìĹ°êµ¬ìĹĲ</w>
ëķĮë¥¼</w>
ìķĮë¦¬ê³ł</w>
ë¶ĢìĤ¬
ì¤ĳìļĶ</w>
ume</w>
therap
ëĪĦë¦¬ê¾¼
ëĭ¬ëĿ¼ì§Ħ</w>
ìĭ£
ê³¼ìłľë¡ľ</w>
australian</w>
ios</w>
ë§¤ìŀħ</w>
typically</w>
ì§Ģë£¨
ìĦ±ìĪĺ
ìĪľê°ĦìĹĲ</w>
kit
íļĮë³µìĿĦ</w>
ë³ĢíĻĶìĻĢ</w>
ê°Ķëĭ¤ê°Ģ</w>
ìĦľë²Ħ</w>
ìĤ¬ìĹħëıĦ</w>
icious</w>
íĮĮê³ł
ìłĦëıĻ
ì§ĦíĻĶ</w>
ëĤ¨ê¸°
ìĤ¬ìļ´
ìĭľíģ¬
ë¦¬ë°Ķ
ë¹ĦìĥģëĮĢ
ëłĪìķĮ</w>
ì´Īì²Ń</w>
ques</w>
ino
íķľìĿ¼
ìĹ¬ë¡łìĿ´</w>
ìĹ¬ìĦ±ìĿĦ</w>
mou</w>
íĺĳëł¥íķ´</w>
ë¶Īíĸī
ìĭ¸</w>
remo
ìĹ°ìĪĺ</w>
nab
íĦ°ìĹĲìĦľ</w>
unlike</w>
parliament</w>
ì²´ëĤ©
ìŀĦê¸ĪìĿĦ</w>
seasons</w>
ata</w>
ëĤ¡ìĿĢ</w>
passing</w>
ê°ĲìĤ¬ìĿĺ</w>
protest</w>
ì¶©ìĭ¤
êµ¬ëĭ¨
vili
ê³¨íĤ¤
ì§ģìĽĲëĵ¤ìĿĢ</w>
guns</w>
ëī´ì§Ī
sight</w>
ëħ¹ìĿĮ
ëĬł
ëķĮë§Į</w>
ë¶ĢìĪĺ
ëķĮë¬¸ìĿ¸ì§Ģ</w>
ìĭłìŀ¥
ë§¤ì¹ĺ</w>
ìĬ¤íĤ¬ìĿĦ</w>
ìĿ´ìĹĪëĭ¤ëĬĶ</w>
ì§Ģê¸īíķĺëĬĶ</w>
ìłĲíı¬</w>
íļĮìĿĺëĬĶ</w>
ë¦¬ìĸ¼</w>
ologies</w>
ê°ķìĦ¸ë¥¼</w>
virginia</w>
ì¸µìĹĲìĦľ</w>
ìľłíĿ¬
poses</w>
ìĻĶëĭ¤ëĬĶ</w>
ìĤ¼ê°ģ
ìĹħê³¼</w>
ì£¼ìĿĺëĬĶ</w>
combat</w>
ë§ĮëªħìĿ´</w>
ìķĦìĿ´ëĶĶìĸ´</w>
complic
good
íı¬ë¡ľ</w>
ë°Ľê¸°ëıĦ</w>
ì¸¡ìłķ</w>
ê³¨ë¡ľ</w>
ë§Īë¦¬ê°Ģ</w>
ì§Ģê¸°ëıĦ</w>
ëľ©
ëķĮë¬¸ìĿ´ëĿ¼ê³ł</w>
ìĭ¤ìĭľíķł</w>
ë§Įë§Įì¹ĺ</w>
ì§ĢëĤ¬
enemy</w>
suspen
ìĿĮìĽĲ</w>
ëĮĢìĿĳíķł</w>
bt
ëĤĺìĺ¤ëĬĶëį°</w>
ê°ĢìĤ¬</w>
ìĽĲìłķ</w>
technical</w>
ê²°ìłķíķľ</w>
ë§ĲìĿ¸ê°Ģ</w>
vac
ê³µíĻĶêµŃ</w>
ë°°ìĥģ</w>
route</w>
ìĻ¸ê³½
ë¯¸ë¦¬
ì±ĶíĶ¼ìĸ¸ìĬ¤
ìĦ±ìļ°ëĬĶ</w>
ëıĦì²Ń</w>
íĶĦëŀĳìĬ¤ìĿĺ</w>
íķĺëĬĲëĥĲ</w>
capable</w>
founder</w>
conce
ìĿ´ìĦľ</w>
ìĹ°ëĿ½ìĿĦ</w>
è¡Į
ëŃĲëĿ¼ê³ł</w>
ê°ķíķĺëĭ¤</w>
astr
gry</w>
ê³¼ìĦ¸</w>
decla
tack
item</w>
íĺĦíĻ©
ì¢Ģì²ĺëŁ¼</w>
íĮĢìľ¼ë¡ľ</w>
ì°¨ê³ł</w>
ìĪĺìĨĮ</w>
turkey</w>
ìĥĪëģ¼
ê³łëł¤íķľ</w>
ê°ģìĺ¤
ëĳĺìĿĢ</w>
virtu
ëĸ¨ìĸ´ì§Ģê³ł</w>
ëĪĪë¬¼</w>
ìĹħëį°ìĿ´íĬ¸</w>
ìĦľëĳĺëŁ¬</w>
ìľłìĬ¹
ëĭ¤ìĿ´ìķĦëª¬
ç¶
ìŀ¥ìłĲìĿĦ</w>
ìĿ¸ìĤ¼
ë§ºìĿĢ</w>
éŁĵ</w>
ëĤ´ëĨĵê³ł</w>
ìĦ¸ê³Ħë¡ľ</w>
ê³¨ìĿ´</w>
ìĥµ</w>
ëªħíĻķíķľ</w>
ived</w>
ìĨĲìĭ¤
ê²ĮìŀĦìĿĢ</w>
william</w>
faster</w>
ê±´ê°ķë³´íĹĺ
ê°ķìĿĺë¥¼</w>
ëłĪìĿ´ìłĢ</w>
ì§Īë¡ľ</w>
êµ¬ìŀħ</w>
sky
ì§¸ë¡ľ</w>
íĦ°ëĦĲ</w>
ì§¸ë¥¼</w>
Ã¼
emis
ë°ĶëĤĺ
ë¨¹ëĬĶëĭ¤</w>
cat</w>
ë°©íķľ</w>
ì§ģìĽĲìĿĢ</w>
world
stances</w>
íĴĢìĿ´</w>
ç©
ìĭľìľĦ</w>
íĺĦìĭ¤ìłģìĿ¸</w>
ìĦľíķ´
span
íĻ©ìłľ</w>
pull</w>
aìĶ¨ìĿĺ</w>
eral</w>
íķľê±°</w>
ëĦ¤íĬ¸ìĽĮíģ¬ë¥¼</w>
è¿
ì²´ìłģ</w>
consumer</w>
ê°Ļì§Ģë§Į</w>
ëĤ®ëĭ¤</w>
ëıĮìķĦê°Ī</w>
ê¸°ì¤ĢìĿĢ</w>
pics</w>
ì§ĢìłĲ
ìķĦì¤Į
ìĦłê±°ë²ķ</w>
ì°¨ìłĦìĹĲìĦľ</w>
ìŀħëĬĶ</w>
transpor
ëĨĵìĿ¸</w>
ìĭľë¦½
boy
ëĸ¨ìĸ´ì§Ħëĭ¤</w>
porary</w>
tte</w>
ëĭ¤ë¦¬ê°Ģ</w>
championship</w>
ì»¨ë²¤
ëĮĢíĨµëł¹ìĹĲê²Į</w>
ì¹ľêµ¬ë¥¼</w>
ê³¼ì§ķ
wear</w>
ìŀĲì²´ìĿĺ</w>
ìĹĦê²©íķľ</w>
ire
ìĪĺìĿµë¥ł</w>
ëĤ´ë¶ĢìĿĺ</w>
ìŀĦìĿĢ</w>
æ¥
ìłĦëĭ¬íķĺëĬĶ</w>
>></w>
ìµľìĦłìĿĺ</w>
ìķĦë²Ħì§ĢìĻĢ</w>
ìĥĿë¦¬
ìĪĺìĤ¬ê°Ģ</w>
ëĤĺë¨¸ì§ĢëĬĶ</w>
ìĭłëıĻ
ê°ľë°ľíķĺê³ł</w>
ì¤ĳìľ¼ë¡ľ</w>
yester
ìŀĲë¦¬ëĬĶ</w>
ë°ĺìĿĢ</w>
ë§ĲìķĦìķ¼</w>
êº¼</w>
ë§ĪìĦ¸ìļĶ</w>
ìĽĲê³ł</w>
ê³łìĦľ</w>
bid</w>
ë¶Īêµ¬ìĨį</w>
lers</w>
ë§Īìķ½
íĥľë¸Ķ
ëŁīëıĦ</w>
ë²ĶìľĦê°Ģ</w>
ê²ĥìŀĦìĿĦ</w>
ë§ĪìĹĲ</w>
ricul
ì¦ĿíıŃ
bass
ìĨĲìĥģ
ê°Ģëĵ¤ìĿ´</w>
potentially</w>
troops</w>
ìłķê¶ĮìĿĺ</w>
korean</w>
ë°ľìłĦê³¼</w>
ìĨĮë¬¸
ì§ĦëıĦ</w>
ê±¸ë¦¼
excell
discuss</w>
ìķĪëı¼
íĭ°ìĸ´</w>
ìłĪê°Ĳ</w>
ìĽĥëĬĶ</w>
ìŀĲìĦ¸ë¡ľ</w>
soun
nan
ìĤ°ëĭ¤</w>
ë§Įëĵł
gory</w>
ëª©ìļķ
artist</w>
íĩ´ê·¼</w>
ìĪĺë§Į</w>
ì¡°ìĻĢ</w>
íıīë¡ł
ìĤ¬ìĿ´ê°Ģ</w>
flu
ë½ĳìķĦ
gy
ì§Īë³ĳê´Ģë¦¬
ì½Ķìĺ¤
ë¯¸ìļ©
ìķĦíĬ¸</w>
ìĭľìĬ¤íħľìĹĲ</w>
íķĻëł¥</w>
íıŃíĸī</w>
ëĤĺìĦľìķ¼</w>
ìĽĶë§Ĳ</w>
dow</w>
ìĥĿìĿ¼
ìĹĲìĿ´ìĬ¤</w>
ìĥĿìĤ°ìĿĦ</w>
ìĪĺëª©
ìŀ¬ê±´ì¶ķ
ëłĪìłĦëĵľ</w>
bure
hell</w>
ìĥģìĿ´ëĭ¤</w>
ìĤ°ìĹħëĭ¨
testi
ê°Ģê¹Ŀëĭ¤</w>
ë¶Ģìŀ¬</w>
ìĸĳìľ¡
ìĺĪì¸¡</w>
íĬ¹ìĤ°
ìĬ¤íĥĢëĶĶ
ìĭľëĦĪì§Ģ</w>
ìĦ±ìŀ¥ìĿ´</w>
ëĦ¬</w>
ì²ŃìĤ°
wonder</w>
ìŀħê±´
gaming</w>
ìĸ´ì§Ī</w>
ìĺµìħĺ</w>
íħĮíģ¬ëħ¸
íķ´ìĪĺìļķ
ìĦľë©´</w>
ìļ©ìĿ¸</w>
ìłĦìłľë¡ľ</w>
ìĿĢíĩ´</w>
ëĭµìĿ´</w>
íĻĺìĿ´</w>
íķľëıĦ</w>
ì¶ľìŀĲ
ëĤ¨ëĬĶ</w>
purchase</w>
festival</w>
íĴĪê³ł</w>
ì¡°ìĽĲìĿĦ</w>
aircraft</w>
ëħ¸ìĺĪ
ëĮĢìĦ±
,'</w>
ìĥģìĿ¸</w>
ì¢ħíķ©ìłģìľ¼ë¡ľ</w>
ê½ģ
êµŃìĤ°</w>
ë¶ĪíķĦìļĶíķľ</w>
ë³´ìĥģìĿĦ</w>
ëģĿëĤł</w>
ë´ĲìĦľ</w>
íıĲê¸°ë¬¼</w>
êµ¬ìĽĲ
ìĿ´ê³³ìĿĢ</w>
bott
íļĮì´Ī</w>
ìĦ¸ìĿ¼
ìĿĳìļ©
ëĵ£ì§Ģ</w>
ê°ĲìĹ¼ë³ĳ</w>
ê°ĢëĬĶëį°</w>
ìłĦìĽĶ</w>
distance</w>
myster
ì§ĢëĤľíķ´ë¶ĢíĦ°</w>
ì¡´ìŀ¬ê°Ģ</w>
ìŀ¥ìĨĮë¥¼</w>
ëĳĲì§Ģ</w>
rent</w>
ê°ĲìłķìĿ´</w>
ê¹ĢìłķìĿĢ</w>
ì£¼ìĿ¸ê³µìĿĢ</w>
cctv</w>
ëĦīëĦī
proposal</w>
ê´Ģëł¨íķĺìĹ¬</w>
ì§ĢìĨįëĲł</w>
íİ¼ì¹ł</w>
ë°ľëłĪ
ê°ģìĦ±</w>
ì¡°ìĤ¬íķĺê³ł</w>
ìĥĺ</w>
challenges</w>
ìĹħê³ĦìĹĲìĦľëĬĶ</w>
mention</w>
ìĨĲíĿ¥
ì¤ĳë°ĺ</w>
ìĦ¸ëĮĢìĿĺ</w>
ë²ĦìĬ¤íĦ°
ìĭľìĦ¤ìĿĢ</w>
ìĹ°êµ¬ëĬĶ</w>
ìłľëª©ìĿĺ</w>
ì¸łìĿĺ</w>
ë°©ê¸Ī</w>
ìĹŃìĤ¬ê°Ģ</w>
ìĭ¤ìĪĺë¥¼</w>
íķľìĭľ
ë°Ķëĭ¥ìĿĦ</w>
ìĨĮì§ĳ
rum
ë¶Īë¦°ëĭ¤</w>
ìĽĲìĿ¸ìľ¼ë¡ľ</w>
regional</w>
ìĪĺíĹĺìĥĿ
ê³µì£¼</w>
ìĹ°ìŀ¬
ë¯¼ê³¼</w>
ìĻ¸ëª¨
rements</w>
ì§ĢëĤĺì¹ľ</w>
ë³´íĽĪ
ëŁ¬ë¸Į</w>
ê°ľìĿ¸ìłģìľ¼ë¡ľ</w>
ëıĻíĸī
ë°°ìĿĺ</w>
ìĭľìĬ¤íħľìĿĺ</w>
ìĤ¬ìĿ´íĬ¸ë¥¼</w>
raid</w>
ê¹Ģì§Ģ
ìľłìĿ¸
ëª°ê³ł</w>
fashi
ìĦłíķľ</w>
ë¶Ħëĵ¤</w>
ë°ľìĥĿíķ´</w>
êº¼ëĤ´</w>
ìĸ´ê¸ĭ
ì§Ħëĭ¤ê³ł</w>
íĮĮìļ°
cus</w>
ëĮĢê²°</w>
íĶĦëłĮ
coali
ìĦłìĪĺê¶Į
ê²¬ëĶĶ
íĨłëĬĶ</w>
evalu
ê»ĺìĦľëĬĶ</w>
determine</w>
ìłķìĥģìłģìľ¼ë¡ľ</w>
ì´Ŀìŀ¥ìĿ´</w>
ëıĮìķĦìĺ¤ëĬĶ</w>
ìĤ¼ìĦ±ìłĦìŀĲìĿĺ</w>
âħ±</w>
íĬ¹ìĿ´íķľ</w>
ìĤ¬ëĿ¼ì§Ģê³ł</w>
ëıĦìļĶ
ëĤĺíķľíħĮ</w>
regime</w>
ë£©</w>
íĮĮìĿ´</w>
buff
ìŀłìłķ</w>
ìĿ¼ë¶Ģê°Ģ</w>
ìĸµìķķ
ì·¨íķ´</w>
íį¼ìĭľ
íķ´ìĤ°
ê¹ĢìĬ¹
ë³ĦìĿĦ</w>
ê°ĿìĿ´</w>
dless</w>
andy</w>
ê³µê¸īìĿ´</w>
íĻĪíİĺìĿ´ì§ĢìĹĲìĦľ</w>
experienced</w>
ìķĦê¹Į</w>
ëįĶêµ°ìļĶ</w>
ì½Ķëħ¸
ê°Ģìĥģ</w>
íľĺë°ľ
distinc
ëĤ¨ìĦ±ìĿ´</w>
íĦ°ë¯¸ëĦĲ
ìĹ°êµ¬ê°Ģ</w>
bell</w>
acher</w>
patri
supporting</w>
ìĸ¸ìĿĦ</w>
ìĪį</w>
ëĭ¤ëĭĲ</w>
ëĵ¤ê²Į</w>
ëĭŃ</w>
ë§Īë¦¬ë¥¼</w>
ê·¸ëŁ°ê°Ģ</w>
ìĺģìĹħìĿ´ìĿµìĿ´</w>
ë°ĽìķĦìĦľ</w>
íĺ¸ëĤ¨</w>
ì²ĺë²ĮìĿĦ</w>
ëĶľëŁ¬
íķĺìĺĢëĬĶëį°</w>
ìĿ´ë²¤íĬ¸
íĶĦë¡ľê·¸ëŀ¨ìĿĺ</w>
bmw</w>
íĶ¼ë¶ĢìĹĲ</w>
.],</w>
ì¦Ŀìłķíķľëĭ¤</w>
ìłģìĭľ
finish</w>
ì§ĢëıĦìŀĲ</w>
ìłĦíķ´</w>
ë§Īëł¨ìĿĦ</w>
íĻĺìĿĢ</w>
wav
ì§Īê³¼</w>
reporting</w>
ìĽĲíĻľíķľ</w>
ìĪĺëĭ¨ìĿĦ</w>
ec</w>
ë°Ľìľ¼ë©´ìĦľ</w>
ë²łíħĮ
mad</w>
enh
ìĥģíĴĪìĿ´</w>
terrorism</w>
ê·¸ëĵ¤ìĹĲê²Į</w>
ìłľì¶ľ</w>
ìķĪìłķ</w>
enture</w>
percentage</w>
helps</w>
ìľµíķ©</w>
ëıĦì§ĢìĤ¬</w>
ë²ķìķĪìĿĦ</w>
ëħ¸ëıĻì¡°íķ©
ìĿ¸ìłģ
ê²°ìĦ±
ìłģìĿ´ì§Ģ</w>
ìĦ±ê³¼ê°Ģ</w>
ë¹ĦíķµíĻĶ</w>
ëĤĺë§Į</w>
evening</w>
íķ´ë³´ìŀĲ</w>
ë¦°ìĿ´</w>
ìŀĳìĦ±íķľ</w>
ì´ĺ
ung</w>
ë¸ĶëŁ¬
ìĿĺìłķë¶Ģ
ìĸ¼ë§Īëĵłì§Ģ</w>
ì¹´ë©ĶëĿ¼ë¥¼</w>
ê¸°ìĥĿ
ìĹĲëĵľ
ìĺ¤ë¦¬ì§ĢëĦĲ</w>
offering</w>
ê´Ģíķł
ëª¨ë¥´ì§Ģë§Į</w>
ë§¤ê°Ģ</w>
defined</w>
client</w>
ë°ĺìĿĺ</w>
ìĺ¤ìĹ¼</w>
sel</w>
ê°Ħìĭł
ëĮĢíĶ¼
dv
onym
ìłķë¦¬</w>
ãİ¡(</w>
tro</w>
ê´ľíŀĪ</w>
ëª¨ìĹ¬
ì¹´íħĮ
ìĦ¼ìĦľ</w>
íı¬íĦ¸
ì¤ĳìłĲìĿĦ</w>
ëĭ¤íģ¬</w>
ìŀĲìĻ¸
iv
ìŀīê¸Ģëŀľëĵľ</w>
ì¡±ìĿĺ</w>
communications</w>
ëĭ¬ëŀĲëĭ¤</w>
ì£¼ìŀ¥ìĹĲ</w>
ë¶Ģì§Ħ</w>
moral</w>
ìºłíİĺìĿ¸ìĿĦ</w>
bla
ëª¨ëĵĪ</w>
ìĹĮ
ìĿ¼ìłľ</w>
ìĭ¸ìĽĢ</w>
listed</w>
íļ¨ê³¼ëıĦ</w>
ìĹ¬ë¶Ģê°Ģ</w>
ìŀ¬íķ´</w>
approved</w>
ì§ĦíĿ¥ìĽĲ</w>
ìłģê²Į</w>
ìĿ¼ìĦł</w>
ìķĦìĿ´ìĬ¤
ë¡Ńëĭ¤</w>
ìĵ°</w>
ëª°ëĿ¼ëıĦ</w>
interven
ëıĻìķĦë¦¬</w>
ìĪĺìĥī
ëĤ´ëħĦìĹĲ</w>
esh</w>
ë¬¼ëŁīìĿĦ</w>
ëħ¸ë¦ĩ
íĺĳì¡°ë¥¼</w>
ì²Ńìŀ¥</w>
íĮĢìĹĲìĦľ</w>
ëĭ¤íģ¬
ê²ĮìŀĦìĹĲ</w>
ê³łëŀĺ
combined</w>
ìĬ¤íĦ´</w>
ë¯¸ìĸĢ
ëĵ¤ê¹Įì§Ģ</w>
ored</w>
ìŀ¬ìĻĢ</w>
yesterday</w>
ë¶ĪëłĢ
ìĪľíĻĺ</w>
ìłľìĻ¸íķĺê³łëĬĶ</w>
ìĸ¼ìĿĮ
æ·
ê°Ļëĭ¤ê³ł</w>
ä¸ī
ìĤ¬ìłģ</w>
ëįķë¶Ħ
ê³µìĨĮ
ê³µìķ½</w>
ìķĦì¿ł
ì°¨ë¡Ģë¡ľ</w>
íļĮìĿĺê°Ģ</w>
ìľ½
ìĿ¸ê²©
ëĪĪìķŀìĹĲ</w>
ê°ĢíĮĮ
ìĦľìĭĿ
dedic
ëħĦê°ĦìĿĺ</w>
ê°ĢìŀħìŀĲ</w>
ìľłëĭĪíı¼
ìŀĪëĦ¤</w>
ruling</w>
consumers</w>
ê¸Īë©Ķëĭ¬ìĿĦ</w>
tested</w>
ë¶Ħë¶ĢíĦ°</w>
íĺķìĦ±ëĲĺëĬĶ</w>
ë¬´ëłµ
ãģĳ
ìĦłíĥĿíķĺëĬĶ</w>
ë³´ëĭ¤ê°Ģ</w>
resolution</w>
íľ´ê°Ģë¥¼</w>
ë¯¸ëŀĺìĹĲ</w>
ë¶Ģë¶ĦìĹĲìĦľ</w>
ìĬ¤ìºĶ
entry</w>
ìĹŃìĤ¬ìĻĢ</w>
ìŀĲê¸°ë¥¼</w>
ë²ļ
ìĹ¬ê¸°ìĹĲìĦľ</w>
ëª¨ëį¸ìĿĢ</w>
íķ©ìĿĺíĸĪëĭ¤</w>
ìłĦíĨµìĭľìŀ¥</w>
ë³¸ëĬ¥
ì¹´ì§Ģ
ìļ°ë©´</w>
ê²½ê³ł</w>
sche
recorded</w>
ê³łíĸ¥</w>
ë¬´ê²Į</w>
êµ¬ë¡ľ
wearing</w>
ìŀł</w>
ìĽĮìķ¼</w>
ìłģìĸ´</w>
ìļ©ëŁī</w>
ì©į
actors</w>
íķĳíģ¬</w>
weapon</w>
ìķ°
íĻĪìĩ¼íķĳ</w>
ìĹĲíĶ¼ìĨĮëĵľ</w>
bought</w>
ì²łìĪĺ
ìĪĺë°±</w>
ìĿ¸ìĬ¤íĥĢê·¸ëŀ¨
ì¼ľ</w>
êµ¬ìĦ±ëı¼</w>
ìĤ¬ëŀĳê³¼</w>
íķ¨ë¶Ģë¡ľ</w>
phas
ë¬´ìĭľíķĺê³ł</w>
ë©¸</w>
ìŀĲìĹĲê²ĮëĬĶ</w>
íĥĿë°°
ëĤłëł¤
ì¡°íĻĶë¥¼</w>
ì¡°ë³Ħ
ë²ķìłľ
ëª°ëł¤</w>
cking</w>
occurred</w>
relevant</w>
ëħ¼ë¬¸</w>
ì¡°ìĽĲ
éł
íĺ¸ìĨĮíĸĪëĭ¤</w>
perman
tf</w>
ìļ©ê¸°ë¥¼</w>
consistent</w>
ì¤ĳìĿ´ëįĺ</w>
ì§Ģíĳľ</w>
ìĿ´ìĥģìĿ¸</w>
minimum</w>
ë§ĪìłĢëıĦ</w>
íĺĳìĥģìĿ´</w>
ëĬ¥íķľ</w>
ëĦĺìĸ´ìĦ°ëĭ¤</w>
amendment</w>
dum
ì¦Ŀìĥģ</w>
ìĽĲì¹ĻìĹĲ</w>
ë³ĢíĻĶëĬĶ</w>
ìĿ´ë£°</w>
íĶ¼ë¡ľ
ì¶Ķê°ĢëĲľ</w>
ìŀĦìļ©
ea</w>
ìĥģíĥľìĺĢëĭ¤</w>
ë°©ìĭĿìĹĲ</w>
politicians</w>
ìľĦìķĪ</w>
íĻĪíİĺìĿ´ì§ĢìĹĲ</w>
communication</w>
íķ´íķĺëĬĶ</w>
ìĦ±íıŃëł¥</w>
stadium</w>
íķĺëįĶëĭĪ</w>
ë§Īì¹´
ëĮĢëĨĵê³ł</w>
ê°ĢëĿ½
collabor
íĻľìĦ±íĻĶìĹĲ</w>
ìĹ°ê²°ëĲľ</w>
ìļ´ëıĻìĿĢ</w>
ëıĮìĿĦ</w>
ìĭľìĿ¸</w>
íĸīëıĻìĹĲ</w>
utions</w>
ìĸĳìŀĲ
js</w>
aly</w>
titude</w>
ìłķë³µ
ë¯¼ê°Ĳíķľ</w>
sharing</w>
ê³łë¯¼</w>
ê³łë£¨</w>
ëĮĢíķľíķŃê³µ</w>
ê³µìĿĺ</w>
ë§Īë£¨
íķĻêµĲë¡ľ</w>
warning</w>
ìĭŃëĭĪê¹Į</w>
ìĸ¸ë¡łìĿĺ</w>
ìĭľìŀ¥ìľ¼ë¡ľ</w>
ìĭ¬ë¦¬ìłģ</w>
ê·¼ëĮĢ</w>
motiv
ëĲĺìĹĪìľ¼ëĤĺ</w>
plu
electric</w>
ìļĶë¦¬ë¥¼</w>
ì¶ĶìłķëĲĺëĬĶ</w>
ë°°ê²½</w>
ë³´ìĿ´ê²Į</w>
ables</w>
ashed</w>
ìłķê·ľì§ģ</w>
íıīíĻĶë¥¼</w>
sp</w>
ãĥª
zes</w>
ì²ŃìĻĢëĮĢëĬĶ</w>
ì§ģìŀ¥ìĿ¸</w>
íĮ¨ìĬ¤íĬ¸
íĺĦëĮĢì°¨
íĥĢëĭ¹ìĦ±</w>
plants</w>
bin</w>
ìĺ¤ê²Į</w>
ìĿ¼ìļĶ
ë§Įê°ľ</w>
ìĦ¼íĦ°ìĿĺ</w>
ë°ľìĨ¡
ìŀĩ</w>
ë§ĪìĿĦìĹĲ</w>
ë¬¸íķĻìĿĺ</w>
íĭ°ëĬĶ</w>
ë¬¸íĻĶìĻĢ</w>
ìķĦëª¨
nasa</w>
ëĭ¨ìĸ´
ãģķ
ëĭ¤ë¥´ì§Ģ</w>
íĻķìłķëĲľ</w>
ìĭ¤íĺĦ</w>
ì¶ĶëĬĶ</w>
ìłģìļ©ëĲĺëĬĶ</w>
íľĺëĳĲ
chapter</w>
íķľê±°
ê°ĢëĬ¥íķĺê³ł</w>
ëģĦëŁ½
om</w>
íĢ¸
ìĪĺìĿµë¥łìĿĦ</w>
attribu
ëłĪëĬĶ</w>
ìĦ¸ëł¥ìĿĦ</w>
ë¬´ìŀ¥</w>
adju
ìĭľì²ŃìŀĲëĵ¤ìĿĺ</w>
ìĿĺë¥ĺ</w>
ì§Ģê²½
ëĽ°ëĬĶ</w>
ê±´ìĪĺëĬĶ</w>
ê³µìłľ</w>
íģ¬ë¦¬ìĹĲìĿ´
ìĻ¸êµĲë¶Ģ</w>
ëª»íĸĪê³ł</w>
ì²ŃìĹĲìĦľ</w>
ëĬĺë¦¬ëĬĶ</w>
ìħ¨ìĸ´
ë¯¸ë¤Ħ
historical</w>
expressed</w>
ìłĢíĿ¬
conducted</w>
broke</w>
marketing</w>
initially</w>
ê°ĸì·Ħëĭ¤</w>
appreci
blu
treat</w>
äºº</w>
ëĭ¤ìĦ¯
ê¹ĢìĦł
ê°ĢíķĺëĬĶ</w>
refused</w>
ëıĮë¦¬
ìłģìĿ¼</w>
ìĿ´ìĹĲ
íĨµìĹĲ</w>
ìĹħì²´ëĵ¤ìĿĢ</w>
ì°¾ìķĦìĺ¨</w>
slo
home
ê°ĢìłķìĿĺ</w>
mic</w>
cked</w>
ë¶ĪëŁī
ìĤ¬ê·Ģ
ìĿ´ìĬ¬ëŀĮ</w>
controlled</w>
ìĭ¤íĮ¨íķľ</w>
ê¸īíķĺê²Į</w>
collap
ë²ĶíĸīìĿĦ</w>
ì¿Ħ
ìľĦìŀĦ
stantly</w>
ëĮĢìĹ¬
ìķħë§Ī
ë°±ìķħê´Ģ</w>
ìķ¼ê¸°
íģ´ë¦Ń
ëıĻë¶Ģ</w>
ëĤ´ìĻ¸
matters</w>
ìĦ¼íĬ¸
ìĹ´ëł¤</w>
å»
adel
ì¥Ĳê³ł</w>
ê±±ìłķìĿ´</w>
ì¡°ê°ģ</w>
ê·ľëªħ
civili
ë¯¼ì£¼íĻĶ
ìĬ¤ëħ¸
ìľĦìŀ¥
ë°ķìĽĲìĪľ</w>
ë§Ĳíķĺì§Ģ</w>
ë³´ê¸ī</w>
íĻķëĮĢìĹĲ</w>
ìĺ¤ìĻĢ</w>
teach
ëª¹ìĭľ</w>
ê¸°ìŀĲíļĮê²¬ìĹĲìĦľ</w>
default</w>
íĥĢíĺĳ
ìĬ¤íĬ¸ëłĪìĬ¤ë¥¼</w>
ìķĦìĤ°
ìĺĪê¸Ī</w>
ë¶ĦìĦĿëĲľëĭ¤</w>
ìļ°ì²´
ëĶĶìĿĺ</w>
íĻĺìĿĦ</w>
íķĻíļĮ</w>
íıŃìĹ¼
cap</w>
ëĤ´ìĪĺ</w>
ì§ĳíļĮë¥¼</w>
ê¿Īê¾¸ëĬĶ</w>
inated</w>
ê°ľìĦłìĿ´</w>
íķ´ë³´ë©´</w>
ì¸łê°Ģ</w>
ìĭ¤ëł¥ìĿ´</w>
ëĪĮëŁ¬
christmas</w>
ìĸĦ
insul
seek</w>
ìĤ¬íļĮê³µíĹĮ
transfer</w>
ê³łê°ĿìĿĢ</w>
ê²½ë¡ľ
ìĦľë¹ĦìĬ¤ìĿĺ</w>
ohi
campus</w>
spirit</w>
fting</w>
ws
ëĮĢëıĻ
ê¸ĪìľµìľĦê¸°</w>
ìĺģìĽĲíķľ</w>
ìĿ¼ìľ¼ì¼ľ</w>
ê°Ĳì°°
ìĤ¬ëŀĳìĿĢ</w>
distribution</w>
ëĮĲ</w>
íĶ¼íķ´ëĬĶ</w>
íĺľíĥĿ</w>
ëĿ¼ìĿ´</w>
íĮ¨ëĦĲ</w>
ëĮĢêµ¬ìĭľ</w>
ìĥģíķĺìĿ´</w>
ë²ķìĽĲìĿĺ</w>
íľ´ìĭĿ
ìŀłìĭ¤
ê°Ģê¹ĮìĽĮ
ìłķë¡Ģ
ë´ĩ
equality</w>
ë´īìĩĦ
ìĹ¬ëŁ¬ê°Ģì§Ģ</w>
ë¶ĦìľĦê¸°ëĭ¤</w>
íķľê²Į</w>
aster</w>
ëıĮìķĺëĭ¤</w>
ë°ľìłĦìĿĺ</w>
sens
ìľĦë²ķ
significantly</w>
ê¸°ê´ĢìĹĲìĦľ</w>
bowl</w>
ê°ķì¡°íķĺê³ł</w>
ë§¥ìĿĦ</w>
ìĿ´ìĹ¬</w>
ìĻĶëĭ¤ê³ł</w>
ì²łìĿĦ</w>
ì£¼ìĿ¼</w>
ëĵ£ê¸°</w>
ìĥģì§ķíķĺëĬĶ</w>
reduced</w>
ìĦ±ìĪĻ
handle</w>
ìĪĺëıĦê¶Į
ì¹ľêµ¬ëĵ¤ê³¼</w>
ëĪĦìĽĮ</w>
aus
íĨ°</w>
substan
lgìľłíĶĮëŁ¬
iness</w>
íľ©ìĵ¸
êµ°ìĤ°
ìĿ¸ìĤ¬ì²Ńë¬¸
ë¶Ģë¶Ģê°Ģ</w>
inc</w>
storage</w>
rising</w>
movies</w>
kins</w>
ì³¤ê³ł</w>
ì¡°ëªħ</w>
ãģ¦</w>
sensi
ìĺ¨ëıĦ</w>
ëĤ´ë¥Ļ
íķľìª½</w>
concentr
phen
ìĸ´ì§¸
coalition</w>
ëıĦìĽĢ</w>
transl
confidence</w>
ìĪĺê¸ī</w>
ìĥĪê°Ģ</w>
å±±
íıŃë¡ľ
ìļĶì²Ń</w>
clar
con</w>
ìŀ¥ê´ĢìĿĦ</w>
crazy</w>
skíħĶëłĪì½¤</w>
ê¶Įë¦¬</w>
td</w>
ë°Ń</w>
ìķ½ìĿ´</w>
ì¡°ê¸ĪìĿ´ëĿ¼ëıĦ</w>
ë§ģìĿ´</w>
ê·¸íķ´</w>
ìĪ¨ìĸ´</w>
ìľłì¹ĺë¥¼</w>
ìĪľì°¨ìłģìľ¼ë¡ľ</w>
ìĪĺíĸīíķł</w>
ìĤ°ìĹħíĺģëªħ</w>
ìĿĦì§ĢëıĦ</w>
íĶ¼ìĸ´
ë¹łë¥´ê³ł</w>
ìĹ°ë§Ĳê¹Įì§Ģ</w>
íĭ°ìķĦ
ìĭ¬ìĭ¬
phili
ãİ¡)</w>
atures</w>
ì¹¨ëŀµ
ìĤ¬ë§ĿìŀĲ</w>
ìłķëıĦìĹĲ</w>
ë¸ĮëŀľëĵľìĿĺ</w>
ê¸°ëıħêµĲ</w>
mann</w>
ìĭ¤ìłĲìľ¼ë¡ľ</w>
ìŀĺëª»ìĿĦ</w>
ìĹĲìĦľëĤĺ</w>
ë¶Ħë¥ĺ</w>
íĮį
êµĲíĻ©
ë¶ĪìķĪíķľ</w>
ìłĦë§ĿìĿĦ</w>
ë³¼ê¹Į</w>
ium</w>
gil
ìĿ¼ë³¸ìĿĦ</w>
ìķĦê¸°
articles</w>
ë©Ģ</w>
ì´ĿìĦłìĹĲìĦľ</w>
íİĺëĦĲ
ìĭľãĨį
ìĹ¬ê±´ìĿ´</w>
ì¹¨ìŀħ
ìłģìĿ´ëĿ¼ëĬĶ</w>
íĦ°ëĦĲ
ë§Įëĵ¤ìĸ´ìķ¼</w>
ìĥģíĴĪìĹĲ</w>
ëĭ¤ê±°ëĤĺ</w>
ëŀĢìĿĺ</w>
ìĥīëĭ¤ë¥¸</w>
íı¬íĦ¸</w>
ìĺģë¦¬
ìŀĳíĴĪìľ¼ë¡ľ</w>
ê³¼ìŀī
ë§İì§Ģë§Į</w>
ê¾¸ë©°
ê²½ìĺģìĿĦ</w>
ê³µìŀ¥ìĹĲìĦľ</w>
ìĦ¸ê¸Ī
heads</w>
íĳľíĺĦ</w>
ë¯¿ëĬĶ</w>
ëħ¸ìĿ´
ê°ĢëĶĶ
remained</w>
ìķĦëĭĪë©°</w>
ì¦ĪìĹĲ</w>
ì¡°ì§Ģ</w>
ê»ĳ
ìĸ´ëĬĲìłķëıĦ</w>
íķľìĿ¼</w>
ê·¸ëĮĢ
ìĭłìŀ¬ìĥĿ
ìĭľìłĪìĿĺ</w>
ìĦłìłķíĸĪëĭ¤</w>
evil</w>
ë¦¬ìķĪ</w>
ìķłë¡ľ
ë®¤ì§Ģì»¬
ìĦ±ìĹĲìĦľ</w>
hope
íĮĮìĿ´ìĸ´</w>
kid</w>
ë°©ë¬¸ìĿĦ</w>
ë°Ģì°©
observ
ìĹ¬ìŀĲë¥¼</w>
ëįĺì§Ħ</w>
ë°¸ë¦¬</w>
ê·¹ìĭ¬íķľ</w>
embr
íĴįìĿĺ</w>
ê²½íĹĺê³¼</w>
âĨĵ</w>
ìŀħìŀ¥ìĿ´</w>
íĥĪíĩ´
íĺĦìķĪ
ê¸īìľ¼ë¡ľ</w>
ëĮĢìĥģìŀĲ</w>
ëıĮìķĦ</w>
ëĭĺê»ĺìĦľ</w>
ê¸°ëĮĢê°ĲìĿ´</w>
íĮĲìĤ¬ëĬĶ</w>
ê°ľìłķìķĪìĿĦ</w>
ê³ģìĹĲ</w>
ìĦłë³´ìĿ´ë©°</w>
trag
ordinary</w>
ëĮĢìĤ¬ë¥¼</w>
ì¤ĦìĹ¬
ìĦ¸ìŀħ
entertainment</w>
ëħ¼ëŀĢìĹĲ</w>
ë¶Ģëĭ¹íķľ</w>
ìłģìŀĲ</w>
íĸĪëĭ¤ë©°</w>
hey</w>
eric</w>
ìĦłìĪĺìĿĺ</w>
ì¶ĶìĦĿ
ìĭľìŀĳëĲĺëĬĶ</w>
ìĹ¬ìľłê°Ģ</w>
appeal</w>
ìĹ°ë´ī</w>
ëĨĢëŀį
dea
ìĺ¬ëĿ¼ìĺ¨</w>
ìĭľìĨį</w>
êµ¬ìĦ±ëĲľëĭ¤</w>
ìŀĪëĵ¯ìĿ´</w>
weren</w>
ì²´íĹĺìĿĦ</w>
ìĪĺìļ©</w>
ì¶Ķê°ĢìłģìĿ¸</w>
sat</w>
ales</w>
ì²ľìĿĺ</w>
ìľłëŁ½ìĹ°íķ©</w>
ê´Ģì¸¡ìĿ´</w>
êµ¬ìĦ±íķĺëĬĶ</w>
ëĤĺë¬´ê°Ģ</w>
zer</w>
block
ëĮĢëŀµ</w>
tz</w>
ìĪĺë©´</w>
ìĦ¬ìľł</w>
ì§ĢëıĦë¥¼</w>
ëĳĲë©´</w>
ëĬ¥ëł¥ê³¼</w>
grew</w>
ï¼ħ</w>
customer</w>
motion</w>
trouble</w>
ìĺ¤ëĿ½
ì§ĢìĹŃêµ¬</w>
kbo</w>
gia</w>
links</w>
ìķĦëĵ¤ìĿĺ</w>
ìķĬê²łëĭ¤ëĬĶ</w>
andrew</w>
datab
ì¡°íķ©ìĽĲ</w>
ìĿĺìŀ¥
ì§Ħìķķ
ì¢ĭìķĺ
fta
íĴĢìĸ´</w>
ëĤĺìģĺì§Ģ</w>
approxim
ê°Ģì§ĢìĿĺ</w>
ê°Ħëĭ´íļĮìĹĲìĦľ</w>
ê²°ìĿ´</w>
sw</w>
ê³łê°Ŀëĵ¤ìĿĺ</w>
ìĦ±ëĬ¥ìĿ´</w>
èĩª
rier</w>
married</w>
ìĪľìĿ´ìĿµìĿĢ</w>
åŃĲ
ëķĮë¬¸ìľ¼ë¡ľ</w>
ì¦Ŀê°Ģë¡ľ</w>
ëª¨ëħ¸
ì¹ŃìĿĦ</w>
ì°¨ëĭ¨</w>
liqu
ëĥīìŀ¥ê³ł</w>
ëĤĺê°Ħëĭ¤</w>
íķĦìļĶìĦ±ìĿ´</w>
ë§ĲëłĪìĿ´
ë°Ķë¥¸ë¯¸ëŀĺ
íİ¼ì³Ĳ</w>
ìĸ´ìĿ´
ê±´ê°ķìĹĲ</w>
ìĿ¼ê³±</w>
ë²łìĿ´</w>
;;</w>
ìĦľìļ¸íĬ¹ë³Ħ
ì¼ĢìĿ´</w>
agents</w>
íĶĮëŀ«íı¼ìĿĦ</w>
ìķĦë°Ķ
íĶĪ</w>
íĻķë³´íĸĪëĭ¤</w>
ë©ĶíĥĢ
hat
ì¶ľìĥĿ</w>
ë³ĢíĻĶìĿĺ</w>
ëĬĺëł¤</w>
constitution</w>
ìĭľê³Ħ</w>
ìĭ¬ìĿĺë¥¼</w>
ìĦ¼íĦ°ìĻĢ</w>
èĭ
ìĽĮì¹ĺ</w>
ê³µìĹ°ìĿ´</w>
volume</w>
é¡
ots</w>
ìĦ¤ëªħíķĺê³ł</w>
ê°Ļê³ł</w>
identify</w>
ìĿ´ìĸ´ê°Ī</w>
ìĽį
differences</w>
ëĤ©ëĵĿ
ìĿ½ìĿĦ</w>
ë¶Ģì§Ħíķľ</w>
íĻĺê²½ë¶Ģ</w>
ê¸Īë¦¬ëĬĶ</w>
ëĵ¤ìĸ´ê°Ģë©´</w>
ìī´</w>
ë°Ķëĭ¤ë¥¼</w>
íĺķìĦ±íķĺëĬĶ</w>
ê³µì§Ģ
ëıĦìĿĺíļĮ</w>
ëķĮë¡ľ</w>
replac
ìĭłìļ©ì¹´ëĵľ</w>
ëıĻìĿĺë¥¼</w>
ê±´ëĭ´</w>
ì²Ńìłķ
ì¤ĳìĤ°
ë§ĪìĿĦìĿĺ</w>
ëĵ¤ì²ĺëŁ¼</w>
ãģĻ
íŀĪíĬ¸</w>
remaining</w>
íĥĦìĿĺ</w>
ë°ĶëĿ¼ë³´ê³ł</w>
ëĮĢê²°ìĿĦ</w>
ê³łëł¤ëĮĢ</w>
íĬĢìĸ´ëĤĺ
ìķłêµŃ
ìŀ¥ê±°ë¦¬</w>
íĽĹ
ë²Ķíĸī
ëĵ¯íĸĪëĭ¤</w>
ìĭľíĿ¥
ìĺ¤ëĿ¼
ë¬»ê³ł</w>
ëĤ´ëĨĵìķĺëĭ¤</w>
åĥ
ë³´ì»¬
affairs</w>
stein</w>
ê°Ĳì¹ĺ</w>
linked</w>
ì¸µìľ¼ë¡ľ</w>
ë§ĪìĪł
ìłľìĭľíķĺê³ł</w>
mo</w>
ê·¼ë¬´íķĺëĬĶ</w>
íİ¼ì¹ĺê¸°</w>
ìĦ±ìłģìĿ¸</w>
ì¤Ħê²Į</w>
íĺ¹íķľ</w>
ê°Ħëĭ¤ê³ł</w>
attempts</w>
ìĹŃëıĻ
ministry</w>
struggle</w>
ìĥĲëŁ¬
tis</w>
ê°Ģë¦¬ì§Ģ</w>
ë³´ëıĦìĹĲ</w>
ìŀħì°°</w>
ë¦¬ìķĦìĿĺ</w>
afternoon</w>
íļ¨ê³¼ë¡ľ</w>
ë¹Īê³¤
ëıĦìŀħíķľ</w>
ëŁ¬ìĭľìķĦìĿĺ</w>
ê²ĢìĤ¬ê°Ģ</w>
ìĿ¼ëĮĢ
ëĬĶì§Ģë¥¼</w>
íĽĦìĿ¸</w>
ëįĺì¡Įëĭ¤</w>
íĥĪë¶ģ
íĻķìĿ¸ëĲľ</w>
ìĺ¬ë¡ľ
creation</w>
íĻķë³´ìĹĲ</w>
ëĤ´ìŀ¥
åķ
ë¡ľì¼ĵ
íķĻë¬¸
íħĮìĬ¬
ìĿ¸ëĵ¤ê³¼</w>
íı¼</w>
ìĭĿìķ½
ìłĳê¸°</w>
íķı</w>
ë°Ķê¾¼</w>
fat
ë°ķì¢ħ
ì£¼ë¯¼ìĿ´</w>
ì»¤ë¥¼</w>
ê³µìĤ¬ìĹĲ</w>
bby</w>
ìĪ¨ê²¨ì§Ħ</w>
avi
ì§ĢìĽĲìĿĢ</w>
ê²Ģê±°
íĮĮìĿ´ìĸ´
ìĤŃìłľ</w>
ë§ĮìĽĲìĹĲìĦľ</w>
ìĺģêµ¬
prosp
ëĭ¹êµŃ</w>
ì£¼ëª©íķł</w>
corner</w>
emphas
ìļ©ê¸°</w>
ë¶ĢëŁ½
reporters</w>
ë¹ĦëıĦ</w>
ê·¹ìĿĦ</w>
ìĦ¸ëł¨ëĲľ</w>
ìĿ¼íļĮ
ìķĮëłīìĤ°
ìĸĺê¸°</w>
íĸīëıĻìĿ´</w>
ë¹ĦìĬ·íķĺê²Į</w>
ë§¤ëī´
ë¥ĺëĬĶ</w>
íĮ¨íĦ´ìĿĦ</w>
ëħ¸ëıĻëĭ¹</w>
ëĮĢìļ°ì¡°ìĦł
herself</w>
opportunities</w>
ë§Īì¼ĢíĮħìĿĦ</w>
ì¶©ëıĮ</w>
ìĭľë²Ķ</w>
ê°Ļì§Ģ</w>
ìĸĳë³´
íļĮìĿĺìĭ¤ìĹĲìĦľ</w>
ì¶ĶìĦ¸ëĭ¤</w>
jump</w>
ì§ĢìĥģíĮĮ</w>
íĮĶëłĪ
ura</w>
ëĤĺìĺ¤ë©´ìĦľ</w>
ê³¼ìłķìĿĺ</w>
ë¶Ħíķł</w>
íļ¨ìľ¨</w>
ê²©ë¦¬</w>
ordered</w>
ëĳĲë£¨</w>
ë§ĪìĿĮëĮĢë¡ľ</w>
info</w>
numerous</w>
ë©ĺíĬ¸</w>
ì¹´ì¦Ī
ëįĺì§Ģ</w>
allies</w>
íķłë¦¬ìļ°
patient</w>
ë¯¼ì£¼íĻĶ</w>
kk
ìĤ¬ë§Ī
ì§Ħëĭ¤ë©´</w>
ëł¹ìĹĲ</w>
ìľłëıĻìĦ±</w>
ìłķë³´ìĻĢ</w>
ê¸°ëĬ¥ìĦ±</w>
apart</w>
eps</w>
ë¡łìĹĲ</w>
crimes</w>
ìŀĳìłĦ
essentially</w>
base
íķ´ìĻ¸ìĹĲìĦľ</w>
friendly</w>
ë¸Įëŀľëĵľë¡ľ</w>
íĺĦìĭ¤ìĹĲ</w>
loved</w>
íĶĦë¦¬ë¯¸ìĹĦ
Ã¶
ì¹´ë¦¬ìĬ¤
ê±°ë¶Ģ</w>
hurt</w>
ìĤ¬ìłķìĿĦ</w>
ê·¸ê³³ìĹĲìĦľ</w>
ìĿ´ë¤Ħì§Ħëĭ¤</w>
ìľłë£Į
íĮĮëŀĢ
ãĥĥ
bike</w>
íĳľì¶ľ
ê¶ĮìĿµ
çĶŁ
íķ©ì³Ĳ</w>
ëĵĿìłĲìĿĦ</w>
gary</w>
ë°ĭ
aëĬĶ</w>
chen</w>
completed</w>
ids</w>
ëĭ¹ëıĦ</w>
ë¯¸ì¹ľ
represent</w>
ohio</w>
terrorist</w>
ëª¨ê¸Ī
ì¦Ŀê¶ĮìĤ¬</w>
feed</w>
ëĿ¼ìĬ¤
ë¹Ħë¹Ħ
ë²ķìĽĲìĿ´</w>
ê°¤ëŁ¬ë¦¬</w>
ancient</w>
ë§İìķĺê³ł</w>
neighb
ì¡°íĻĶ
ë°ľê²¬íķľ</w>
ìĿ´ìĹĪê¸°</w>
proof</w>
floo
dipl
ìĸĳìĭĿ
puts</w>
ìĽĲëĤ´ëĮĢíĳľ</w>
ê·¸ëŁ¬ëįĺ</w>
ëĤ¨ëĭ¤ë¥¸</w>
ëĤĺëĪĦê³ł</w>
ìłľê³ł
ìŀ¬ì§ģ
ëª©ìłģìĿĢ</w>
ëĲĲê¸°</w>
perform</w>
ëķĮë©´</w>
íĺ¸íıīìĿĦ</w>
ë³ĳìĤ¬
ëĨįêµ¬
êµĲìĤ¬ê°Ģ</w>
íĴĪìĿĺ</w>
ì¤Ħê³§</w>
museum</w>
ë§Ľê³¼</w>
ë¶Ļìĸ´
illu
ë§Įíģ¼ìĿĺ</w>
ëģĿëĤ¬ëĭ¤</w>
ê³Ħë¡ľ</w>
êµŃê°ĢìĹĲ</w>
ì¤ĳìĨĮê¸°ìĹħìĿĺ</w>
examples</w>
franch
ì¹´ì¹´ìĺ¤</w>
ìĺĪê³ł</w>
disap
ê°Ħëĭ´íļĮ</w>
thoughts</w>
íĸīë³µ</w>
ric</w>
apol
íıīê°ĢíķĺëĬĶ</w>
ìĿĺìĹĲ</w>
íķŃê³µìĤ¬</w>
ì£¼ëª©ë°Ľê³ł</w>
ìĭľìĿ¸
ëħĦëĮĢìĹĲ</w>
ìĭľë®¬
ëĶĽ
ì¤ĳìłĲ
ê²ĥìĿ¼</w>
ìŁģìĿ´</w>
ê·¸ëħĢìĹĲê²Į</w>
certi
ì°©ìļ©</w>
íľ´ìĭĿìĿĦ</w>
leads</w>
newsle
ê°ĦìĿĢ</w>
jim</w>
ul</w>
êµĲëĬĶ</w>
ìļ°ìľł</w>
michi
ìĿĺíĺ¹ìĹĲ</w>
formation</w>
promised</w>
íĥĦìĥĿ</w>
ula</w>
destruc
ìĦľìļ¸ê³¼</w>
äºĭ
ì´Īê°Ģ</w>
íĥĦíĥĦíķľ</w>
ì£¼ìŀ¬
bel</w>
ìĦľìļ¸ìĹĲ</w>
ë³´ìĹ¬ì£¼ìĹĪëĭ¤</w>
tism</w>
materials</w>
ì²´ë¥ĺ
zo
[...]
